{
  "version": "1.0",
  "truncation": null,
  "padding": null,
  "added_tokens": [
    {
      "id": 0,
      "content": "[UNK]",
      "single_word": false,
      "lstrip": false,
      "rstrip": false,
      "normalized": false,
      "special": true
    },
    {
      "id": 1,
      "content": "[PAD]",
      "single_word": false,
      "lstrip": false,
      "rstrip": false,
      "normalized": false,
      "special": true
    },
    {
      "id": 2,
      "content": "sostoken",
      "single_word": false,
      "lstrip": false,
      "rstrip": false,
      "normalized": false,
      "special": true
    },
    {
      "id": 3,
      "content": "eostoken",
      "single_word": false,
      "lstrip": false,
      "rstrip": false,
      "normalized": false,
      "special": true
    }
  ],
  "normalizer": null,
  "pre_tokenizer": {
    "type": "Whitespace"
  },
  "post_processor": null,
  "decoder": null,
  "model": {
    "type": "BPE",
    "dropout": null,
    "unk_token": "[UNK]",
    "continuing_subword_prefix": null,
    "end_of_word_suffix": null,
    "fuse_unk": false,
    "byte_fallback": false,
    "ignore_merges": false,
    "vocab": {
      "[UNK]": 0,
      "[PAD]": 1,
      "sostoken": 2,
      "eostoken": 3,
      "!": 4,
      "#": 5,
      "$": 6,
      "%": 7,
      "'": 8,
      "(": 9,
      ")": 10,
      "*": 11,
      "+": 12,
      ",": 13,
      "-": 14,
      ".": 15,
      "/": 16,
      "0": 17,
      "1": 18,
      "2": 19,
      "3": 20,
      "4": 21,
      "5": 22,
      "6": 23,
      "7": 24,
      "8": 25,
      "9": 26,
      ":": 27,
      ";": 28,
      "=": 29,
      "?": 30,
      "@": 31,
      "[": 32,
      "\\": 33,
      "]": 34,
      "^": 35,
      "_": 36,
      "`": 37,
      "a": 38,
      "b": 39,
      "c": 40,
      "d": 41,
      "e": 42,
      "f": 43,
      "g": 44,
      "h": 45,
      "i": 46,
      "j": 47,
      "k": 48,
      "l": 49,
      "m": 50,
      "n": 51,
      "o": 52,
      "p": 53,
      "q": 54,
      "r": 55,
      "s": 56,
      "t": 57,
      "u": 58,
      "v": 59,
      "w": 60,
      "x": 61,
      "y": 62,
      "z": 63,
      "{": 64,
      "|": 65,
      "}": 66,
      "~": 67,
      "": 68,
      "": 69,
      "": 70,
      "": 71,
      "": 72,
      "": 73,
      "": 74,
      "": 75,
      "": 76,
      "": 77,
      "": 78,
      "": 79,
      "": 80,
      "": 81,
      "": 82,
      "": 83,
      "": 84,
      "": 85,
      "": 86,
      "": 87,
      "": 88,
      "¡": 89,
      "¢": 90,
      "£": 91,
      "¤": 92,
      "¥": 93,
      "¦": 94,
      "§": 95,
      "¨": 96,
      "©": 97,
      "ª": 98,
      "¬": 99,
      "®": 100,
      "¯": 101,
      "°": 102,
      "±": 103,
      "³": 104,
      "´": 105,
      "¶": 106,
      "·": 107,
      "¸": 108,
      "¹": 109,
      "º": 110,
      "¼": 111,
      "½": 112,
      "¿": 113,
      "ß": 114,
      "à": 115,
      "á": 116,
      "â": 117,
      "ã": 118,
      "ä": 119,
      "å": 120,
      "æ": 121,
      "ç": 122,
      "è": 123,
      "é": 124,
      "ê": 125,
      "ë": 126,
      "ì": 127,
      "í": 128,
      "î": 129,
      "ï": 130,
      "ð": 131,
      "ñ": 132,
      "ò": 133,
      "ó": 134,
      "ô": 135,
      "õ": 136,
      "ö": 137,
      "÷": 138,
      "ø": 139,
      "ù": 140,
      "ú": 141,
      "û": 142,
      "ü": 143,
      "ý": 144,
      "þ": 145,
      "ÿ": 146,
      "ć": 147,
      "č": 148,
      "đ": 149,
      "ń": 150,
      "ō": 151,
      "œ": 152,
      "š": 153,
      "ũ": 154,
      "ž": 155,
      "ƒ": 156,
      "ư": 157,
      "ʹ": 158,
      "́": 159,
      "̇": 160,
      "̶": 161,
      "α": 162,
      "η": 163,
      "κ": 164,
      "μ": 165,
      "ν": 166,
      "ο": 167,
      "ρ": 168,
      "τ": 169,
      "а": 170,
      "в": 171,
      "г": 172,
      "д": 173,
      "е": 174,
      "и": 175,
      "й": 176,
      "н": 177,
      "р": 178,
      "с": 179,
      "ц": 180,
      "ы": 181,
      "ь": 182,
      "ё": 183,
      "є": 184,
      "ن": 185,
      "ى": 186,
      "ِ": 187,
      "ạ": 188,
      "ả": 189,
      "ế": 190,
      "ề": 191,
      "ễ": 192,
      "ệ": 193,
      "ị": 194,
      "ố": 195,
      "ồ": 196,
      "ỗ": 197,
      "ộ": 198,
      "ở": 199,
      "ử": 200,
      "​": 201,
      "‒": 202,
      "–": 203,
      "—": 204,
      "―": 205,
      "‚": 206,
      "‰": 207,
      "€": 208,
      "№": 209,
      "™": 210,
      "─": 211,
      "│": 212,
      "♪": 213,
      "⠀": 214,
      "慹": 215,
      "拢": 216,
      "檛": 217,
      "鈥": 218,
      "ﬁ": 219,
      "ﬂ": 220,
      "﻿": 221,
      "！": 222,
      "�": 223,
      "th": 224,
      "ou": 225,
      "in": 226,
      "er": 227,
      "an": 228,
      "you": 229,
      "the": 230,
      "on": 231,
      "at": 232,
      "re": 233,
      "to": 234,
      "ll": 235,
      "me": 236,
      "is": 237,
      "it": 238,
      "ing": 239,
      "or": 240,
      "en": 241,
      "st": 242,
      "no": 243,
      "wh": 244,
      "ar": 245,
      "le": 246,
      "ve": 247,
      "se": 248,
      "he": 249,
      "and": 250,
      "be": 251,
      "of": 252,
      "as": 253,
      "ere": 254,
      "go": 255,
      "ha": 256,
      "we": 257,
      "that": 258,
      "ay": 259,
      "ed": 260,
      "es": 261,
      "do": 262,
      "gh": 263,
      "li": 264,
      "ke": 265,
      "wi": 266,
      "ch": 267,
      "ro": 268,
      "ld": 269,
      "ri": 270,
      "al": 271,
      "for": 272,
      "ome": 273,
      "all": 274,
      "id": 275,
      "ut": 276,
      "ght": 277,
      "what": 278,
      "ge": 279,
      "now": 280,
      "lo": 281,
      "ver": 282,
      "are": 283,
      "ac": 284,
      "ad": 285,
      "out": 286,
      "my": 287,
      "one": 288,
      "your": 289,
      "ho": 290,
      "have": 291,
      "this": 292,
      "ir": 293,
      "don": 294,
      "un": 295,
      "ti": 296,
      "ce": 297,
      "hi": 298,
      "was": 299,
      "ly": 300,
      "with": 301,
      "ta": 302,
      "can": 303,
      "not": 304,
      "ne": 305,
      "ust": 306,
      "od": 307,
      "ould": 308,
      "ab": 309,
      "so": 310,
      "but": 311,
      "if": 312,
      "ant": 313,
      "get": 314,
      "know": 315,
      "us": 316,
      "up": 317,
      "co": 318,
      "there": 319,
      "am": 320,
      "ther": 321,
      "here": 322,
      "ter": 323,
      "de": 324,
      "mo": 325,
      "thing": 326,
      "they": 327,
      "ok": 328,
      "come": 329,
      "ry": 330,
      "pe": 331,
      "man": 332,
      "ur": 333,
      "te": 334,
      "him": 335,
      "fe": 336,
      "ma": 337,
      "ck": 338,
      "ca": 339,
      "like": 340,
      "po": 341,
      "right": 342,
      "our": 343,
      "some": 344,
      "ion": 345,
      "ra": 346,
      "did": 347,
      "way": 348,
      "will": 349,
      "want": 350,
      "how": 351,
      "ye": 352,
      "just": 353,
      "see": 354,
      "ple": 355,
      "yes": 356,
      "ent": 357,
      "very": 358,
      "ink": 359,
      "ill": 360,
      "sa": 361,
      "well": 362,
      "she": 363,
      "ack": 364,
      "su": 365,
      "her": 366,
      "who": 367,
      "bo": 368,
      "ight": 369,
      "ind": 370,
      "about": 371,
      "good": 372,
      "any": 373,
      "wor": 374,
      "let": 375,
      "got": 376,
      "na": 377,
      "wn": 378,
      "oh": 379,
      "oun": 380,
      "la": 381,
      "rom": 382,
      "ong": 383,
      "ie": 384,
      "look": 385,
      "think": 386,
      "sh": 387,
      "ic": 388,
      "ard": 389,
      "them": 390,
      "than": 391,
      "time": 392,
      "ive": 393,
      "der": 394,
      "would": 395,
      "pl": 396,
      "from": 397,
      "where": 398,
      "qu": 399,
      "use": 400,
      "why": 401,
      "his": 402,
      "ven": 403,
      "men": 404,
      "take": 405,
      "per": 406,
      "end": 407,
      "ul": 408,
      "fo": 409,
      "ag": 410,
      "mr": 411,
      "ex": 412,
      "say": 413,
      "ate": 414,
      "con": 415,
      "when": 416,
      "back": 417,
      "ss": 418,
      "ine": 419,
      "day": 420,
      "il": 421,
      "wo": 422,
      "com": 423,
      "art": 424,
      "ain": 425,
      "going": 426,
      "tr": 427,
      "ig": 428,
      "tell": 429,
      "by": 430,
      "pp": 431,
      "had": 432,
      "been": 433,
      "el": 434,
      "fa": 435,
      "ound": 436,
      "were": 437,
      "wa": 438,
      "could": 439,
      "ist": 440,
      "off": 441,
      "ah": 442,
      "ep": 443,
      "ble": 444,
      "ase": 445,
      "too": 446,
      "then": 447,
      "ess": 448,
      "im": 449,
      "lf": 450,
      "af": 451,
      "itt": 452,
      "mar": 453,
      "more": 454,
      "has": 455,
      "ace": 456,
      "down": 457,
      "pre": 458,
      "ation": 459,
      "ally": 460,
      "gu": 461,
      "thank": 462,
      "king": 463,
      "sto": 464,
      "ough": 465,
      "other": 466,
      "every": 467,
      "sir": 468,
      "ber": 469,
      "must": 470,
      "give": 471,
      "over": 472,
      "ct": 473,
      "may": 474,
      "only": 475,
      "ous": 476,
      "ree": 477,
      "pro": 478,
      "please": 479,
      "love": 480,
      "won": 481,
      "didn": 482,
      "um": 483,
      "ide": 484,
      "pr": 485,
      "mis": 486,
      "ts": 487,
      "make": 488,
      "mu": 489,
      "mor": 490,
      "tal": 491,
      "br": 492,
      "lea": 493,
      "ick": 494,
      "ure": 495,
      "ittle": 496,
      "never": 497,
      "little": 498,
      "ang": 499,
      "ought": 500,
      "self": 501,
      "wait": 502,
      "ice": 503,
      "sp": 504,
      "bet": 505,
      "ers": 506,
      "new": 507,
      "ars": 508,
      "long": 509,
      "lie": 510,
      "kill": 511,
      "should": 512,
      "mean": 513,
      "hel": 514,
      "tain": 515,
      "yeah": 516,
      "two": 517,
      "ty": 518,
      "again": 519,
      "llo": 520,
      "even": 521,
      "under": 522,
      "son": 523,
      "night": 524,
      "does": 525,
      "much": 526,
      "00": 527,
      "happ": 528,
      "ody": 529,
      "read": 530,
      "fore": 531,
      "call": 532,
      "stand": 533,
      "try": 534,
      "gr": 535,
      "pa": 536,
      "ish": 537,
      "jo": 538,
      "sure": 539,
      "ol": 540,
      "something": 541,
      "ning": 542,
      "sha": 543,
      "need": 544,
      "che": 545,
      "di": 546,
      "ite": 547,
      "mad": 548,
      "gon": 549,
      "bu": 550,
      "et": 551,
      "body": 552,
      "sor": 553,
      "said": 554,
      "help": 555,
      "gre": 556,
      "ak": 557,
      "ving": 558,
      "cause": 559,
      "min": 560,
      "tion": 561,
      "mon": 562,
      "fir": 563,
      "put": 564,
      "car": 565,
      "dr": 566,
      "old": 567,
      "ople": 568,
      "people": 569,
      "chi": 570,
      "whi": 571,
      "tor": 572,
      "away": 573,
      "gonna": 574,
      "spe": 575,
      "red": 576,
      "ci": 577,
      "care": 578,
      "hey": 579,
      "ise": 580,
      "lu": 581,
      "after": 582,
      "find": 583,
      "ose": 584,
      "ance": 585,
      "ting": 586,
      "ity": 587,
      "really": 588,
      "ap": 589,
      "live": 590,
      "cour": 591,
      "urn": 592,
      "cap": 593,
      "row": 594,
      "ass": 595,
      "mat": 596,
      "work": 597,
      "first": 598,
      "miss": 599,
      "hand": 600,
      "ask": 601,
      "name": 602,
      "god": 603,
      "ster": 604,
      "int": 605,
      "wat": 606,
      "ach": 607,
      "ever": 608,
      "fri": 609,
      "into": 610,
      "em": 611,
      "head": 612,
      "om": 613,
      "sho": 614,
      "oney": 615,
      "better": 616,
      "leave": 617,
      "before": 618,
      "these": 619,
      "still": 620,
      "because": 621,
      "act": 622,
      "ment": 623,
      "boy": 624,
      "father": 625,
      "nothing": 626,
      "keep": 627,
      "life": 628,
      "wr": 629,
      "gir": 630,
      "ser": 631,
      "bro": 632,
      "home": 633,
      "ort": 634,
      "est": 635,
      "lad": 636,
      "talk": 637,
      "ful": 638,
      "their": 639,
      "uh": 640,
      "ps": 641,
      "girl": 642,
      "friend": 643,
      "cle": 644,
      "stay": 645,
      "si": 646,
      "stop": 647,
      "sorry": 648,
      "those": 649,
      "ren": 650,
      "ru": 651,
      "ft": 652,
      "ga": 653,
      "ran": 654,
      "anything": 655,
      "feel": 656,
      "place": 657,
      "ways": 658,
      "sed": 659,
      "doing": 660,
      "last": 661,
      "thought": 662,
      "ans": 663,
      "turn": 664,
      "fi": 665,
      "cre": 666,
      "ence": 667,
      "ton": 668,
      "ord": 669,
      "ouse": 670,
      "fu": 671,
      "happen": 672,
      "wer": 673,
      "les": 674,
      "war": 675,
      "pen": 676,
      "mber": 677,
      "around": 678,
      "ready": 679,
      "mind": 680,
      "course": 681,
      "dis": 682,
      "ies": 683,
      "always": 684,
      "sit": 685,
      "years": 686,
      "captain": 687,
      "money": 688,
      "age": 689,
      "tru": 690,
      "tra": 691,
      "told": 692,
      "list": 693,
      "hur": 694,
      "understand": 695,
      "clo": 696,
      "house": 697,
      "belie": 698,
      "side": 699,
      "mother": 700,
      "mi": 701,
      "sup": 702,
      "ph": 703,
      "tri": 704,
      "things": 705,
      "great": 706,
      "came": 707,
      "par": 708,
      "okay": 709,
      "ten": 710,
      "able": 711,
      "three": 712,
      "cho": 713,
      "enough": 714,
      "most": 715,
      "coun": 716,
      "big": 717,
      "minut": 718,
      "isn": 719,
      "hear": 720,
      "reme": 721,
      "fer": 722,
      "run": 723,
      "believe": 724,
      "ste": 725,
      "da": 726,
      "maybe": 727,
      "made": 728,
      "room": 729,
      "ger": 730,
      "kind": 731,
      "listen": 732,
      "bl": 733,
      "shi": 734,
      "land": 735,
      "bit": 736,
      "ath": 737,
      "hello": 738,
      "own": 739,
      "part": 740,
      "thr": 741,
      "left": 742,
      "ot": 743,
      "child": 744,
      "word": 745,
      "might": 746,
      "vi": 747,
      "coming": 748,
      "gi": 749,
      "ms": 750,
      "lot": 751,
      "play": 752,
      "pt": 753,
      "move": 754,
      "hold": 755,
      "matter": 756,
      "morning": 757,
      "which": 758,
      "ctor": 759,
      "gen": 760,
      "many": 761,
      "show": 762,
      "everything": 763,
      "through": 764,
      "bad": 765,
      "dead": 766,
      "guy": 767,
      "dy": 768,
      "omen": 769,
      "remember": 770,
      "port": 771,
      "bre": 772,
      "doesn": 773,
      "med": 774,
      "less": 775,
      "blo": 776,
      "nice": 777,
      "ary": 778,
      "shall": 779,
      "bus": 780,
      "ner": 781,
      "start": 782,
      "cha": 783,
      "char": 784,
      "bea": 785,
      "ny": 786,
      "dre": 787,
      "light": 788,
      "ling": 789,
      "wouldn": 790,
      "bar": 791,
      "kid": 792,
      "bring": 793,
      "done": 794,
      "kes": 795,
      "ered": 796,
      "yourself": 797,
      "nor": 798,
      "ses": 799,
      "world": 800,
      "sen": 801,
      "bab": 802,
      "sin": 803,
      "wife": 804,
      "die": 805,
      "brother": 806,
      "rest": 807,
      "du": 808,
      "wrong": 809,
      "another": 810,
      "fight": 811,
      "sent": 812,
      "att": 813,
      "dam": 814,
      "sle": 815,
      "drink": 816,
      "fin": 817,
      "woman": 818,
      "comm": 819,
      "wanted": 820,
      "cl": 821,
      "its": 822,
      "same": 823,
      "har": 824,
      "fine": 825,
      "ves": 826,
      "des": 827,
      "ear": 828,
      "je": 829,
      "being": 830,
      "far": 831,
      "dar": 832,
      "wal": 833,
      "tic": 834,
      "ff": 835,
      "open": 836,
      "ried": 837,
      "such": 838,
      "youn": 839,
      "days": 840,
      "went": 841,
      "stu": 842,
      "set": 843,
      "hun": 844,
      "ze": 845,
      "cer": 846,
      "ast": 847,
      "ign": 848,
      "raid": 849,
      "sur": 850,
      "saw": 851,
      "lat": 852,
      "cor": 853,
      "bye": 854,
      "mer": 855,
      "ught": 856,
      "plan": 857,
      "hor": 858,
      "llow": 859,
      "led": 860,
      "else": 861,
      "ward": 862,
      "once": 863,
      "cut": 864,
      "eat": 865,
      "alone": 866,
      "soon": 867,
      "mrs": 868,
      "pri": 869,
      "bed": 870,
      "meet": 871,
      "seen": 872,
      "haven": 873,
      "used": 874,
      "ks": 875,
      "real": 876,
      "order": 877,
      "yet": 878,
      "aren": 879,
      "ated": 880,
      "win": 881,
      "heard": 882,
      "young": 883,
      "beaut": 884,
      "wee": 885,
      "ouble": 886,
      "exc": 887,
      "hed": 888,
      "afraid": 889,
      "hard": 890,
      "rid": 891,
      "gun": 892,
      "without": 893,
      "thanks": 894,
      "lt": 895,
      "morrow": 896,
      "pay": 897,
      "sleep": 898,
      "dear": 899,
      "xt": 900,
      "tomorrow": 901,
      "cra": 902,
      "pret": 903,
      "iness": 904,
      "while": 905,
      "anna": 906,
      "watch": 907,
      "pu": 908,
      "eng": 909,
      "late": 910,
      "sing": 911,
      "killed": 912,
      "hu": 913,
      "myself": 914,
      "ju": 915,
      "spo": 916,
      "fun": 917,
      "hour": 918,
      "ction": 919,
      "looking": 920,
      "ily": 921,
      "beg": 922,
      "ken": 923,
      "ins": 924,
      "vo": 925,
      "band": 926,
      "next": 927,
      "ia": 928,
      "dif": 929,
      "gent": 930,
      "minute": 931,
      "cent": 932,
      "sid": 933,
      "air": 934,
      "water": 935,
      "today": 936,
      "hell": 937,
      "cond": 938,
      "ange": 939,
      "hope": 940,
      "found": 941,
      "damn": 942,
      "eas": 943,
      "getting": 944,
      "str": 945,
      "wonder": 946,
      "ness": 947,
      "suppo": 948,
      "master": 949,
      "gone": 950,
      "doctor": 951,
      "col": 952,
      "huh": 953,
      "fr": 954,
      "ship": 955,
      "pi": 956,
      "times": 957,
      "tre": 958,
      "vis": 959,
      "cy": 960,
      "tonight": 961,
      "ved": 962,
      "few": 963,
      "fire": 964,
      "eri": 965,
      "knew": 966,
      "happened": 967,
      "ister": 968,
      "iet": 969,
      "best": 970,
      "sc": 971,
      "four": 972,
      "door": 973,
      "lord": 974,
      "gener": 975,
      "fam": 976,
      "iful": 977,
      "since": 978,
      "couldn": 979,
      "whole": 980,
      "face": 981,
      "happy": 982,
      "cont": 983,
      "quest": 984,
      "bor": 985,
      "full": 986,
      "lady": 987,
      "worry": 988,
      "unti": 989,
      "hurry": 990,
      "dad": 991,
      "comp": 992,
      "sk": 993,
      "wish": 994,
      "trouble": 995,
      "quite": 996,
      "lice": 997,
      "someone": 998,
      "beautiful": 999,
      "ko": 1000,
      "flo": 1001,
      "wed": 1002,
      "ason": 1003,
      "death": 1004,
      "forget": 1005,
      "already": 1006,
      "sm": 1007,
      "took": 1008,
      "five": 1009,
      "ces": 1010,
      "wasn": 1011,
      "ago": 1012,
      "pretty": 1013,
      "speak": 1014,
      "law": 1015,
      "000": 1016,
      "dri": 1017,
      "true": 1018,
      "toge": 1019,
      "together": 1020,
      "ions": 1021,
      "excuse": 1022,
      "ssi": 1023,
      "business": 1024,
      "gentle": 1025,
      "joh": 1026,
      "town": 1027,
      "mes": 1028,
      "send": 1029,
      "cat": 1030,
      "gg": 1031,
      "au": 1032,
      "trying": 1033,
      "hit": 1034,
      "pect": 1035,
      "hus": 1036,
      "talking": 1037,
      "ev": 1038,
      "ane": 1039,
      "ison": 1040,
      "wanna": 1041,
      "luck": 1042,
      "waiting": 1043,
      "heart": 1044,
      "person": 1045,
      "ious": 1046,
      "job": 1047,
      "year": 1048,
      "pick": 1049,
      "sou": 1050,
      "ni": 1051,
      "wants": 1052,
      "until": 1053,
      "den": 1054,
      "high": 1055,
      "point": 1056,
      "chr": 1057,
      "fran": 1058,
      "john": 1059,
      "lost": 1060,
      "says": 1061,
      "tt": 1062,
      "each": 1063,
      "guess": 1064,
      "zy": 1065,
      "swe": 1066,
      "momen": 1067,
      "hands": 1068,
      "possi": 1069,
      "second": 1070,
      "form": 1071,
      "police": 1072,
      "children": 1073,
      "easy": 1074,
      "against": 1075,
      "mine": 1076,
      "walk": 1077,
      "quick": 1078,
      "husband": 1079,
      "idea": 1080,
      "ult": 1081,
      "called": 1082,
      "half": 1083,
      "ob": 1084,
      "later": 1085,
      "eyes": 1086,
      "ue": 1087,
      "along": 1088,
      "mm": 1089,
      "sy": 1090,
      "dra": 1091,
      "ations": 1092,
      "sel": 1093,
      "dro": 1094,
      "gl": 1095,
      "moment": 1096,
      "break": 1097,
      "case": 1098,
      "general": 1099,
      "ned": 1100,
      "differ": 1101,
      "month": 1102,
      "both": 1103,
      "pped": 1104,
      "scho": 1105,
      "mag": 1106,
      "ird": 1107,
      "ali": 1108,
      "comes": 1109,
      "also": 1110,
      "friends": 1111,
      "ither": 1112,
      "key": 1113,
      "cr": 1114,
      "ameri": 1115,
      "cess": 1116,
      "mur": 1117,
      "pat": 1118,
      "sister": 1119,
      "ian": 1120,
      "leg": 1121,
      "sign": 1122,
      "cal": 1123,
      "baby": 1124,
      "fool": 1125,
      "school": 1126,
      "command": 1127,
      "ator": 1128,
      "ade": 1129,
      "dec": 1130,
      "ls": 1131,
      "sun": 1132,
      "ya": 1133,
      "ba": 1134,
      "reason": 1135,
      "chance": 1136,
      "gotta": 1137,
      "shut": 1138,
      "ross": 1139,
      "prom": 1140,
      "app": 1141,
      "ank": 1142,
      "expect": 1143,
      "ings": 1144,
      "ja": 1145,
      "bra": 1146,
      "looks": 1147,
      "six": 1148,
      "10": 1149,
      "sco": 1150,
      "married": 1151,
      "tom": 1152,
      "poor": 1153,
      "asked": 1154,
      "als": 1155,
      "pic": 1156,
      "ka": 1157,
      "follow": 1158,
      "haps": 1159,
      "gave": 1160,
      "perhaps": 1161,
      "darling": 1162,
      "range": 1163,
      "sim": 1164,
      "ene": 1165,
      "certain": 1166,
      "ture": 1167,
      "gold": 1168,
      "anyone": 1169,
      "ones": 1170,
      "lle": 1171,
      "minutes": 1172,
      "crazy": 1173,
      "ket": 1174,
      "fall": 1175,
      "grand": 1176,
      "lear": 1177,
      "family": 1178,
      "maj": 1179,
      "close": 1180,
      "cus": 1181,
      "free": 1182,
      "country": 1183,
      "cu": 1184,
      "exce": 1185,
      "io": 1186,
      "erest": 1187,
      "change": 1188,
      "terri": 1189,
      "book": 1190,
      "return": 1191,
      "ama": 1192,
      "hea": 1193,
      "dan": 1194,
      "gra": 1195,
      "buy": 1196,
      "cur": 1197,
      "ief": 1198,
      "clear": 1199,
      "train": 1200,
      "knows": 1201,
      "ahead": 1202,
      "mus": 1203,
      "dest": 1204,
      "exp": 1205,
      "power": 1206,
      "roy": 1207,
      "somebody": 1208,
      "ted": 1209,
      "low": 1210,
      "fron": 1211,
      "city": 1212,
      "fre": 1213,
      "inv": 1214,
      "cks": 1215,
      "num": 1216,
      "yours": 1217,
      "interest": 1218,
      "hurt": 1219,
      "ced": 1220,
      "thy": 1221,
      "import": 1222,
      "que": 1223,
      "ating": 1224,
      "prin": 1225,
      "enter": 1226,
      "pain": 1227,
      "vic": 1228,
      "ond": 1229,
      "everybody": 1230,
      "pass": 1231,
      "guys": 1232,
      "ughter": 1233,
      "fort": 1234,
      "wel": 1235,
      "women": 1236,
      "evening": 1237,
      "ates": 1238,
      "exact": 1239,
      "offic": 1240,
      "sound": 1241,
      "tou": 1242,
      "ash": 1243,
      "ump": 1244,
      "though": 1245,
      "sold": 1246,
      "brought": 1247,
      "possible": 1248,
      "ised": 1249,
      "black": 1250,
      "mb": 1251,
      "lin": 1252,
      "fect": 1253,
      "hon": 1254,
      "tem": 1255,
      "deal": 1256,
      "lain": 1257,
      "fast": 1258,
      "spock": 1259,
      "nobody": 1260,
      "week": 1261,
      "mill": 1262,
      "ow": 1263,
      "stra": 1264,
      "truth": 1265,
      "cked": 1266,
      "ical": 1267,
      "fic": 1268,
      "ished": 1269,
      "lly": 1270,
      "suppose": 1271,
      "lead": 1272,
      "table": 1273,
      "teach": 1274,
      "anger": 1275,
      "glad": 1276,
      "nat": 1277,
      "cri": 1278,
      "lau": 1279,
      "having": 1280,
      "lic": 1281,
      "answer": 1282,
      "gentlemen": 1283,
      "ding": 1284,
      "hang": 1285,
      "shot": 1286,
      "proble": 1287,
      "met": 1288,
      "goodbye": 1289,
      "val": 1290,
      "hind": 1291,
      "mit": 1292,
      "dow": 1293,
      "sol": 1294,
      "dog": 1295,
      "din": 1296,
      "taking": 1297,
      "appe": 1298,
      "ters": 1299,
      "important": 1300,
      "rus": 1301,
      "seems": 1302,
      "pull": 1303,
      "boys": 1304,
      "alive": 1305,
      "van": 1306,
      "number": 1307,
      "gar": 1308,
      "road": 1309,
      "thinking": 1310,
      "ween": 1311,
      "quiet": 1312,
      "front": 1313,
      "least": 1314,
      "ball": 1315,
      "por": 1316,
      "girls": 1317,
      "till": 1318,
      "star": 1319,
      "ley": 1320,
      "shit": 1321,
      "--": 1322,
      "saying": 1323,
      "ons": 1324,
      "present": 1325,
      "fle": 1326,
      "taken": 1327,
      "anyway": 1328,
      "ual": 1329,
      "blood": 1330,
      "count": 1331,
      "wit": 1332,
      "daughter": 1333,
      "fair": 1334,
      "exactly": 1335,
      "bri": 1336,
      "cou": 1337,
      "attack": 1338,
      "ually": 1339,
      "christ": 1340,
      "pie": 1341,
      "dream": 1342,
      "line": 1343,
      "res": 1344,
      "cold": 1345,
      "behind": 1346,
      "vill": 1347,
      "20": 1348,
      "almost": 1349,
      "sick": 1350,
      "makes": 1351,
      "bill": 1352,
      "vin": 1353,
      "log": 1354,
      "near": 1355,
      "jim": 1356,
      "onel": 1357,
      "ben": 1358,
      "main": 1359,
      "ung": 1360,
      "american": 1361,
      "ards": 1362,
      "oper": 1363,
      "step": 1364,
      "op": 1365,
      "between": 1366,
      "beat": 1367,
      "bur": 1368,
      "known": 1369,
      "chang": 1370,
      "fig": 1371,
      "inside": 1372,
      "rather": 1373,
      "died": 1374,
      "hours": 1375,
      "aw": 1376,
      "human": 1377,
      "others": 1378,
      "ared": 1379,
      "enti": 1380,
      "scare": 1381,
      "shoot": 1382,
      "phone": 1383,
      "san": 1384,
      "unk": 1385,
      "gest": 1386,
      "tory": 1387,
      "marry": 1388,
      "cam": 1389,
      "save": 1390,
      "either": 1391,
      "different": 1392,
      "inter": 1393,
      "check": 1394,
      "goes": 1395,
      "ition": 1396,
      "asure": 1397,
      "living": 1398,
      "horse": 1399,
      "anybody": 1400,
      "tried": 1401,
      "prof": 1402,
      "prise": 1403,
      "earth": 1404,
      "question": 1405,
      "white": 1406,
      "hate": 1407,
      "small": 1408,
      "sense": 1409,
      "ier": 1410,
      "party": 1411,
      "uncle": 1412,
      "ler": 1413,
      "himself": 1414,
      "cial": 1415,
      "anymore": 1416,
      "rich": 1417,
      "ki": 1418,
      "ited": 1419,
      "colonel": 1420,
      "stree": 1421,
      "ring": 1422,
      "acc": 1423,
      "chief": 1424,
      "story": 1425,
      "sort": 1426,
      "secre": 1427,
      "unch": 1428,
      "wood": 1429,
      "boss": 1430,
      "everyone": 1431,
      "prison": 1432,
      "ild": 1433,
      "cry": 1434,
      "sal": 1435,
      "dist": 1436,
      "means": 1437,
      "trust": 1438,
      "fac": 1439,
      "safe": 1440,
      "fell": 1441,
      "phi": 1442,
      "fact": 1443,
      "honey": 1444,
      "va": 1445,
      "army": 1446,
      "wall": 1447,
      "sil": 1448,
      "boat": 1449,
      "selves": 1450,
      "serv": 1451,
      "words": 1452,
      "iss": 1453,
      "wonderful": 1454,
      "oud": 1455,
      "test": 1456,
      "ital": 1457,
      "joy": 1458,
      "reg": 1459,
      "fuck": 1460,
      "catch": 1461,
      "ina": 1462,
      "gets": 1463,
      "making": 1464,
      "fly": 1465,
      "wear": 1466,
      "mil": 1467,
      "seem": 1468,
      "cannot": 1469,
      "yo": 1470,
      "ield": 1471,
      "50": 1472,
      "german": 1473,
      "murder": 1474,
      "ute": 1475,
      "figure": 1476,
      "probab": 1477,
      "hot": 1478,
      "press": 1479,
      "lose": 1480,
      "ately": 1481,
      "careful": 1482,
      "touch": 1483,
      "leaving": 1484,
      "jack": 1485,
      "food": 1486,
      "vor": 1487,
      "mas": 1488,
      "sam": 1489,
      "probably": 1490,
      "arm": 1491,
      "months": 1492,
      "dress": 1493,
      "ii": 1494,
      "ssed": 1495,
      "dire": 1496,
      "outside": 1497,
      "19": 1498,
      "sub": 1499,
      "sea": 1500,
      "mid": 1501,
      "strong": 1502,
      "arch": 1503,
      "mission": 1504,
      "mom": 1505,
      "tired": 1506,
      "stuff": 1507,
      "dev": 1508,
      "couple": 1509,
      "ele": 1510,
      "seven": 1511,
      "begin": 1512,
      "30": 1513,
      "ef": 1514,
      "worth": 1515,
      "vid": 1516,
      "build": 1517,
      "dark": 1518,
      "problem": 1519,
      "throw": 1520,
      "become": 1521,
      "strange": 1522,
      "ments": 1523,
      "field": 1524,
      "working": 1525,
      "longer": 1526,
      "oc": 1527,
      "hes": 1528,
      "mark": 1529,
      "posit": 1530,
      "shouldn": 1531,
      "join": 1532,
      "fan": 1533,
      "inst": 1534,
      "given": 1535,
      "funny": 1536,
      "vie": 1537,
      "uten": 1538,
      "iz": 1539,
      "sell": 1540,
      "mir": 1541,
      "tro": 1542,
      "comple": 1543,
      "peace": 1544,
      "ants": 1545,
      "news": 1546,
      "bast": 1547,
      "sie": 1548,
      "learn": 1549,
      "picture": 1550,
      "cli": 1551,
      "ped": 1552,
      "welcome": 1553,
      "peri": 1554,
      "lieuten": 1555,
      "vy": 1556,
      "report": 1557,
      "thous": 1558,
      "game": 1559,
      "thousand": 1560,
      "ched": 1561,
      "pas": 1562,
      "secret": 1563,
      "burn": 1564,
      "moun": 1565,
      "sat": 1566,
      "office": 1567,
      "lieutenant": 1568,
      "tive": 1569,
      "ush": 1570,
      "stri": 1571,
      "sus": 1572,
      "carry": 1573,
      "dinner": 1574,
      "fl": 1575,
      "music": 1576,
      "born": 1577,
      "forgot": 1578,
      "ches": 1579,
      "ris": 1580,
      "clean": 1581,
      "hair": 1582,
      "arri": 1583,
      "destroy": 1584,
      "rat": 1585,
      "uni": 1586,
      "paper": 1587,
      "round": 1588,
      "top": 1589,
      "vel": 1590,
      "lives": 1591,
      "whatever": 1592,
      "gover": 1593,
      "write": 1594,
      "miles": 1595,
      "supposed": 1596,
      "dle": 1597,
      "conf": 1598,
      "jud": 1599,
      "tur": 1600,
      "kids": 1601,
      "abo": 1602,
      "sometimes": 1603,
      "pal": 1604,
      "scared": 1605,
      "mach": 1606,
      "bird": 1607,
      "frank": 1608,
      "danger": 1609,
      "mp": 1610,
      "noon": 1611,
      "geor": 1612,
      "thor": 1613,
      "vers": 1614,
      "straight": 1615,
      "whe": 1616,
      "wake": 1617,
      "loved": 1618,
      "doll": 1619,
      "rad": 1620,
      "started": 1621,
      "wing": 1622,
      "fee": 1623,
      "serious": 1624,
      "gy": 1625,
      "hen": 1626,
      "ridge": 1627,
      "promise": 1628,
      "ale": 1629,
      "joe": 1630,
      "dou": 1631,
      "company": 1632,
      "jes": 1633,
      "itting": 1634,
      "attle": 1635,
      "bi": 1636,
      "eye": 1637,
      "qui": 1638,
      "jap": 1639,
      "hung": 1640,
      "lay": 1641,
      "tel": 1642,
      "feeling": 1643,
      "court": 1644,
      "profess": 1645,
      "dance": 1646,
      "fish": 1647,
      "perfect": 1648,
      "serge": 1649,
      "ground": 1650,
      "laugh": 1651,
      "rec": 1652,
      "feet": 1653,
      "ident": 1654,
      "lish": 1655,
      "stup": 1656,
      "lan": 1657,
      "past": 1658,
      "telling": 1659,
      "stair": 1660,
      "street": 1661,
      "gan": 1662,
      "pur": 1663,
      "mou": 1664,
      "ries": 1665,
      "force": 1666,
      "tu": 1667,
      "fortun": 1668,
      "state": 1669,
      "running": 1670,
      "dred": 1671,
      "dut": 1672,
      "certainly": 1673,
      "stupid": 1674,
      "drive": 1675,
      "scre": 1676,
      "eight": 1677,
      "os": 1678,
      "lar": 1679,
      "hundred": 1680,
      "letter": 1681,
      "clu": 1682,
      "yu": 1683,
      "stead": 1684,
      "lies": 1685,
      "alright": 1686,
      "rench": 1687,
      "ney": 1688,
      "deli": 1689,
      "cro": 1690,
      "def": 1691,
      "ride": 1692,
      "hat": 1693,
      "orders": 1694,
      "ked": 1695,
      "viet": 1696,
      "sty": 1697,
      "pray": 1698,
      "rome": 1699,
      "fix": 1700,
      "paris": 1701,
      "honor": 1702,
      "ame": 1703,
      "ject": 1704,
      "ular": 1705,
      "spect": 1706,
      "rob": 1707,
      "short": 1708,
      "sla": 1709,
      "none": 1710,
      "cover": 1711,
      "looked": 1712,
      "mic": 1713,
      "major": 1714,
      "eh": 1715,
      "contro": 1716,
      "wine": 1717,
      "sum": 1718,
      "stairs": 1719,
      "lon": 1720,
      "sci": 1721,
      "explain": 1722,
      "thes": 1723,
      "xi": 1724,
      "fellow": 1725,
      "wind": 1726,
      "lls": 1727,
      "cof": 1728,
      "officer": 1729,
      "stick": 1730,
      "lucky": 1731,
      "cas": 1732,
      "resp": 1733,
      "river": 1734,
      "mc": 1735,
      "french": 1736,
      "quar": 1737,
      "ient": 1738,
      "ji": 1739,
      "daddy": 1740,
      "south": 1741,
      "deser": 1742,
      "fully": 1743,
      "imag": 1744,
      "north": 1745,
      "early": 1746,
      "coffee": 1747,
      "ug": 1748,
      "blu": 1749,
      "aking": 1750,
      "mama": 1751,
      "ann": 1752,
      "ura": 1753,
      "guard": 1754,
      "inde": 1755,
      "acce": 1756,
      "enjoy": 1757,
      "special": 1758,
      "sme": 1759,
      "bag": 1760,
      "ens": 1761,
      "fil": 1762,
      "million": 1763,
      "dare": 1764,
      "kir": 1765,
      "squ": 1766,
      "sad": 1767,
      "weeks": 1768,
      "smo": 1769,
      "station": 1770,
      "za": 1771,
      "drop": 1772,
      "arr": 1773,
      "mouth": 1774,
      "window": 1775,
      "15": 1776,
      "foot": 1777,
      "spir": 1778,
      "takes": 1779,
      "belong": 1780,
      "rain": 1781,
      "bear": 1782,
      "asking": 1783,
      "charlie": 1784,
      "anim": 1785,
      "hotel": 1786,
      "sergeant": 1787,
      "heaven": 1788,
      "apo": 1789,
      "hid": 1790,
      "across": 1791,
      "upon": 1792,
      "cast": 1793,
      "cir": 1794,
      "bull": 1795,
      "clothes": 1796,
      "quickly": 1797,
      "grow": 1798,
      "prep": 1799,
      "sake": 1800,
      "complete": 1801,
      "george": 1802,
      "tele": 1803,
      "sweet": 1804,
      "russi": 1805,
      "pping": 1806,
      "changed": 1807,
      "rock": 1808,
      "needs": 1809,
      "blow": 1810,
      "lock": 1811,
      "cop": 1812,
      "wers": 1813,
      "rece": 1814,
      "blind": 1815,
      "contin": 1816,
      "bank": 1817,
      "iting": 1818,
      "wash": 1819,
      "prote": 1820,
      "afternoon": 1821,
      "kiss": 1822,
      "bert": 1823,
      "jesus": 1824,
      "cla": 1825,
      "bridge": 1826,
      "ban": 1827,
      "agree": 1828,
      "ladies": 1829,
      "12": 1830,
      "iot": 1831,
      "cross": 1832,
      "piece": 1833,
      "vol": 1834,
      "cup": 1835,
      "ature": 1836,
      "ker": 1837,
      "forgive": 1838,
      "unt": 1839,
      "lou": 1840,
      "fai": 1841,
      "except": 1842,
      "trans": 1843,
      "mountain": 1844,
      "colle": 1845,
      "treat": 1846,
      "non": 1847,
      "sage": 1848,
      "bir": 1849,
      "doub": 1850,
      "box": 1851,
      "playing": 1852,
      "irty": 1853,
      "fill": 1854,
      "ham": 1855,
      "enemy": 1856,
      "fur": 1857,
      "llen": 1858,
      "ided": 1859,
      "madame": 1860,
      "board": 1861,
      "ged": 1862,
      "ply": 1863,
      "emp": 1864,
      "ichi": 1865,
      "harry": 1866,
      "pleasure": 1867,
      "tail": 1868,
      "medi": 1869,
      "bly": 1870,
      "lovely": 1871,
      "monsie": 1872,
      "monsieur": 1873,
      "ities": 1874,
      "adv": 1875,
      "gas": 1876,
      "vir": 1877,
      "bey": 1878,
      "sud": 1879,
      "fear": 1880,
      "ages": 1881,
      "ists": 1882,
      "dur": 1883,
      "presid": 1884,
      "terrible": 1885,
      "bla": 1886,
      "chur": 1887,
      "smi": 1888,
      "fighting": 1889,
      "hide": 1890,
      "cape": 1891,
      "sug": 1892,
      "hosp": 1893,
      "yor": 1894,
      "sudden": 1895,
      "bother": 1896,
      "turned": 1897,
      "fit": 1898,
      "action": 1899,
      "consid": 1900,
      "pan": 1901,
      "pho": 1902,
      "tar": 1903,
      "wise": 1904,
      "atten": 1905,
      "hy": 1906,
      "moving": 1907,
      "felt": 1908,
      "phy": 1909,
      "arrest": 1910,
      "mary": 1911,
      "commander": 1912,
      "lit": 1913,
      "kept": 1914,
      "esty": 1915,
      "sides": 1916,
      "inform": 1917,
      "chan": 1918,
      "actually": 1919,
      "weren": 1920,
      "bitch": 1921,
      "nif": 1922,
      "tice": 1923,
      "happens": 1924,
      "sli": 1925,
      "kirk": 1926,
      "finished": 1927,
      "cted": 1928,
      "village": 1929,
      "diffic": 1930,
      "nam": 1931,
      "ress": 1932,
      "hmm": 1933,
      "pub": 1934,
      "accept": 1935,
      "record": 1936,
      "cook": 1937,
      "search": 1938,
      "forward": 1939,
      "max": 1940,
      "bath": 1941,
      "madam": 1942,
      "caught": 1943,
      "ato": 1944,
      "ution": 1945,
      "gro": 1946,
      "ref": 1947,
      "tea": 1948,
      "ey": 1949,
      "kno": 1950,
      "concer": 1951,
      "proper": 1952,
      "york": 1953,
      "bat": 1954,
      "base": 1955,
      "cog": 1956,
      "apart": 1957,
      "position": 1958,
      "president": 1959,
      "ility": 1960,
      "drunk": 1961,
      "song": 1962,
      "church": 1963,
      "planet": 1964,
      "jump": 1965,
      "often": 1966,
      "bon": 1967,
      "bud": 1968,
      "pose": 1969,
      "majesty": 1970,
      "charge": 1971,
      "allow": 1972,
      "enterprise": 1973,
      "calm": 1974,
      "mal": 1975,
      "hop": 1976,
      "prince": 1977,
      "fault": 1978,
      "battle": 1979,
      "horses": 1980,
      "hospital": 1981,
      "vered": 1982,
      "attention": 1983,
      "igh": 1984,
      "ming": 1985,
      "third": 1986,
      "island": 1987,
      "suit": 1988,
      "devil": 1989,
      "thre": 1990,
      "ku": 1991,
      "itch": 1992,
      "rope": 1993,
      "slow": 1994,
      "giving": 1995,
      "blue": 1996,
      "ors": 1997,
      "spend": 1998,
      "unless": 1999,
      "somewhere": 2000,
      "appro": 2001,
      "hall": 2002,
      "gard": 2003,
      "post": 2004,
      "meeting": 2005,
      "sar": 2006,
      "finish": 2007,
      "fut": 2008,
      "fla": 2009,
      "sand": 2010,
      "decided": 2011,
      "sword": 2012,
      "professor": 2013,
      "control": 2014,
      "sher": 2015,
      "roll": 2016,
      "sky": 2017,
      "tan": 2018,
      "exam": 2019,
      "bastard": 2020,
      "west": 2021,
      "suc": 2022,
      "class": 2023,
      "aces": 2024,
      "illy": 2025,
      "swear": 2026,
      "deep": 2027,
      "respon": 2028,
      "weap": 2029,
      "hone": 2030,
      "respect": 2031,
      "aye": 2032,
      "bell": 2033,
      "zz": 2034,
      "yester": 2035,
      "hasn": 2036,
      "cing": 2037,
      "arms": 2038,
      "hungry": 2039,
      "100": 2040,
      "cru": 2041,
      "pend": 2042,
      "yesterday": 2043,
      "pun": 2044,
      "favor": 2045,
      "ire": 2046,
      "paid": 2047,
      "calling": 2048,
      "tie": 2049,
      "absol": 2050,
      "cab": 2051,
      "tin": 2052,
      "rel": 2053,
      "mess": 2054,
      "simple": 2055,
      "boo": 2056,
      "prac": 2057,
      "idence": 2058,
      "ied": 2059,
      "thin": 2060,
      "idiot": 2061,
      "eu": 2062,
      "suggest": 2063,
      "fat": 2064,
      "offer": 2065,
      "nie": 2066,
      "ines": 2067,
      "heal": 2068,
      "immedi": 2069,
      "duty": 2070,
      "sight": 2071,
      "experi": 2072,
      "ony": 2073,
      "voice": 2074,
      "pig": 2075,
      "escape": 2076,
      "hole": 2077,
      "necess": 2078,
      "bott": 2079,
      "pack": 2080,
      "guest": 2081,
      "english": 2082,
      "questions": 2083,
      "absolute": 2084,
      "nine": 2085,
      "ws": 2086,
      "camp": 2087,
      "during": 2088,
      "birth": 2089,
      "jer": 2090,
      "moon": 2091,
      "pot": 2092,
      "mart": 2093,
      "hero": 2094,
      "worse": 2095,
      "uts": 2096,
      "guns": 2097,
      "mac": 2098,
      "ents": 2099,
      "anese": 2100,
      "swi": 2101,
      "indeed": 2102,
      "fright": 2103,
      "bomb": 2104,
      "honest": 2105,
      "doc": 2106,
      "cher": 2107,
      "dying": 2108,
      "doubt": 2109,
      "iff": 2110,
      "david": 2111,
      "visit": 2112,
      "gor": 2113,
      "wound": 2114,
      "pardon": 2115,
      "roman": 2116,
      "riage": 2117,
      "plane": 2118,
      "future": 2119,
      "green": 2120,
      "serve": 2121,
      "iers": 2122,
      "holy": 2123,
      "seeing": 2124,
      "ges": 2125,
      "cong": 2126,
      "fing": 2127,
      "brit": 2128,
      "beginning": 2129,
      "sett": 2130,
      "japanese": 2131,
      "gree": 2132,
      "kin": 2133,
      "tee": 2134,
      "mistake": 2135,
      "lived": 2136,
      "chris": 2137,
      "stone": 2138,
      "entire": 2139,
      "busy": 2140,
      "commun": 2141,
      "zed": 2142,
      "wards": 2143,
      "difficult": 2144,
      "kick": 2145,
      "tree": 2146,
      "reali": 2147,
      "stru": 2148,
      "worked": 2149,
      "instead": 2150,
      "vest": 2151,
      "soul": 2152,
      "whether": 2153,
      "among": 2154,
      "guil": 2155,
      "fol": 2156,
      "priv": 2157,
      "lying": 2158,
      "govern": 2159,
      "ened": 2160,
      "han": 2161,
      "push": 2162,
      "whom": 2163,
      "wild": 2164,
      "natur": 2165,
      "18": 2166,
      "aged": 2167,
      "standing": 2168,
      "dollars": 2169,
      "consider": 2170,
      "40": 2171,
      "worried": 2172,
      "ordin": 2173,
      "works": 2174,
      "warm": 2175,
      "mod": 2176,
      "nation": 2177,
      "recog": 2178,
      "dangerous": 2179,
      "ford": 2180,
      "paren": 2181,
      "wag": 2182,
      "gin": 2183,
      "johnny": 2184,
      "produ": 2185,
      "interested": 2186,
      "silly": 2187,
      "gri": 2188,
      "len": 2189,
      "hill": 2190,
      "bal": 2191,
      "enty": 2192,
      "queen": 2193,
      "responsi": 2194,
      "owe": 2195,
      "los": 2196,
      "pop": 2197,
      "soldiers": 2198,
      "load": 2199,
      "cig": 2200,
      "space": 2201,
      "sitting": 2202,
      "ative": 2203,
      "lots": 2204,
      "steal": 2205,
      "soldier": 2206,
      "sch": 2207,
      "uation": 2208,
      "reach": 2209,
      "neither": 2210,
      "evil": 2211,
      "public": 2212,
      "using": 2213,
      "iling": 2214,
      "forever": 2215,
      "ctive": 2216,
      "ended": 2217,
      "spl": 2218,
      "trip": 2219,
      "service": 2220,
      "chick": 2221,
      "ral": 2222,
      "memor": 2223,
      "bob": 2224,
      "stood": 2225,
      "pair": 2226,
      "besides": 2227,
      "appear": 2228,
      "smell": 2229,
      "spr": 2230,
      "judge": 2231,
      "andy": 2232,
      "photo": 2233,
      "lam": 2234,
      "nes": 2235,
      "vious": 2236,
      "floor": 2237,
      "gram": 2238,
      "handle": 2239,
      "shoo": 2240,
      "thur": 2241,
      "bow": 2242,
      "champ": 2243,
      "isa": 2244,
      "raise": 2245,
      "message": 2246,
      "grou": 2247,
      "ino": 2248,
      "bas": 2249,
      "teacher": 2250,
      "fed": 2251,
      "difference": 2252,
      "dum": 2253,
      "killing": 2254,
      "finally": 2255,
      "vision": 2256,
      "itor": 2257,
      "cell": 2258,
      "neck": 2259,
      "further": 2260,
      "sac": 2261,
      "interesting": 2262,
      "ded": 2263,
      "liar": 2264,
      "prove": 2265,
      "sna": 2266,
      "within": 2267,
      "cost": 2268,
      "impossible": 2269,
      "paul": 2270,
      "papa": 2271,
      "thro": 2272,
      "appoint": 2273,
      "price": 2274,
      "parents": 2275,
      "ined": 2276,
      "meant": 2277,
      "remain": 2278,
      "bot": 2279,
      "arrived": 2280,
      "immediately": 2281,
      "surprise": 2282,
      "middle": 2283,
      "pet": 2284,
      "ius": 2285,
      "peter": 2286,
      "goddamn": 2287,
      "ops": 2288,
      "thee": 2289,
      "receive": 2290,
      "government": 2291,
      "howe": 2292,
      "saved": 2293,
      "promised": 2294,
      "christmas": 2295,
      "accident": 2296,
      "pper": 2297,
      "ark": 2298,
      "fresh": 2299,
      "lunch": 2300,
      "zo": 2301,
      "stren": 2302,
      "gentleman": 2303,
      "sounds": 2304,
      "ense": 2305,
      "legs": 2306,
      "broke": 2307,
      "dirty": 2308,
      "aunt": 2309,
      "plenty": 2310,
      "seat": 2311,
      "mister": 2312,
      "bs": 2313,
      "narr": 2314,
      "jail": 2315,
      "faith": 2316,
      "ather": 2317,
      "rot": 2318,
      "however": 2319,
      "ano": 2320,
      "absolutely": 2321,
      "rup": 2322,
      "spirit": 2323,
      "narrator": 2324,
      "inspe": 2325,
      "streng": 2326,
      "stem": 2327,
      "hum": 2328,
      "track": 2329,
      "choice": 2330,
      "bid": 2331,
      "scott": 2332,
      "tough": 2333,
      "books": 2334,
      "imagine": 2335,
      "mention": 2336,
      "super": 2337,
      "double": 2338,
      "skin": 2339,
      "radio": 2340,
      "ram": 2341,
      "area": 2342,
      "usual": 2343,
      "building": 2344,
      "private": 2345,
      "ror": 2346,
      "maid": 2347,
      "hadn": 2348,
      "dered": 2349,
      "ial": 2350,
      "tch": 2351,
      "heavy": 2352,
      "speaking": 2353,
      "tran": 2354,
      "engine": 2355,
      "information": 2356,
      "ging": 2357,
      "ky": 2358,
      "necessary": 2359,
      "mand": 2360,
      "sex": 2361,
      "chu": 2362,
      "america": 2363,
      "fif": 2364,
      "ery": 2365,
      "loves": 2366,
      "mike": 2367,
      "smart": 2368,
      "proud": 2369,
      "discus": 2370,
      "itary": 2371,
      "covered": 2372,
      "11": 2373,
      "ost": 2374,
      "nose": 2375,
      "extra": 2376,
      "stopped": 2377,
      "situation": 2378,
      "egg": 2379,
      "lli": 2380,
      "itten": 2381,
      "staying": 2382,
      "card": 2383,
      "broken": 2384,
      "protect": 2385,
      "whose": 2386,
      "share": 2387,
      "franc": 2388,
      "tight": 2389,
      "thinks": 2390,
      "glass": 2391,
      "depart": 2392,
      "stre": 2393,
      "folks": 2394,
      "ron": 2395,
      "dom": 2396,
      "draw": 2397,
      "suddenly": 2398,
      "aster": 2399,
      "hood": 2400,
      "moved": 2401,
      "gal": 2402,
      "teen": 2403,
      "system": 2404,
      "summer": 2405,
      "comr": 2406,
      "pos": 2407,
      "bottle": 2408,
      "bought": 2409,
      "ties": 2410,
      "wis": 2411,
      "hol": 2412,
      "states": 2413,
      "rose": 2414,
      "missed": 2415,
      "viol": 2416,
      "awful": 2417,
      "store": 2418,
      "ffer": 2419,
      "angry": 2420,
      "personal": 2421,
      "machine": 2422,
      "var": 2423,
      "shame": 2424,
      "patient": 2425,
      "ita": 2426,
      "gate": 2427,
      "alley": 2428,
      "hip": 2429,
      "ana": 2430,
      "marriage": 2431,
      "gue": 2432,
      "garden": 2433,
      "vous": 2434,
      "coat": 2435,
      "james": 2436,
      "dig": 2437,
      "fred": 2438,
      "sult": 2439,
      "grace": 2440,
      "pin": 2441,
      "whis": 2442,
      "kets": 2443,
      "crow": 2444,
      "weak": 2445,
      "zing": 2446,
      "ory": 2447,
      "cket": 2448,
      "snow": 2449,
      "witch": 2450,
      "mate": 2451,
      "owed": 2452,
      "history": 2453,
      "stor": 2454,
      "corre": 2455,
      "ceed": 2456,
      "motion": 2457,
      "dressed": 2458,
      "strength": 2459,
      "pes": 2460,
      "view": 2461,
      "jac": 2462,
      "bel": 2463,
      "chair": 2464,
      "empty": 2465,
      "jour": 2466,
      "nel": 2467,
      "london": 2468,
      "une": 2469,
      "inspector": 2470,
      "twi": 2471,
      "stars": 2472,
      "leep": 2473,
      "passed": 2474,
      "asleep": 2475,
      "harm": 2476,
      "dry": 2477,
      "ians": 2478,
      "depend": 2479,
      "walking": 2480,
      "surpr": 2481,
      "kar": 2482,
      "sof": 2483,
      "alex": 2484,
      "ption": 2485,
      "race": 2486,
      "irt": 2487,
      "prefer": 2488,
      "eld": 2489,
      "sail": 2490,
      "completely": 2491,
      "group": 2492,
      "named": 2493,
      "watching": 2494,
      "ray": 2495,
      "author": 2496,
      "asha": 2497,
      "wedding": 2498,
      "troops": 2499,
      "guilty": 2500,
      "seemed": 2501,
      "contact": 2502,
      "instru": 2503,
      "british": 2504,
      "ours": 2505,
      "ctions": 2506,
      "cially": 2507,
      "continue": 2508,
      "east": 2509,
      "learned": 2510,
      "united": 2511,
      "hardly": 2512,
      "lla": 2513,
      "rote": 2514,
      "beauty": 2515,
      "knock": 2516,
      "quit": 2517,
      "emper": 2518,
      "smoke": 2519,
      "scar": 2520,
      "crew": 2521,
      "centu": 2522,
      "gif": 2523,
      "locked": 2524,
      "ulous": 2525,
      "liked": 2526,
      "nur": 2527,
      "caes": 2528,
      "themselves": 2529,
      "fied": 2530,
      "picked": 2531,
      "wrote": 2532,
      "became": 2533,
      "suffer": 2534,
      "aboard": 2535,
      "pres": 2536,
      "grab": 2537,
      "billy": 2538,
      "inno": 2539,
      "lights": 2540,
      "phe": 2541,
      "upstairs": 2542,
      "brothers": 2543,
      "cious": 2544,
      "rele": 2545,
      "asses": 2546,
      "talked": 2547,
      "closed": 2548,
      "large": 2549,
      "blame": 2550,
      "zen": 2551,
      "emperor": 2552,
      "200": 2553,
      "gang": 2554,
      "coy": 2555,
      "needed": 2556,
      "creature": 2557,
      "bility": 2558,
      "flowers": 2559,
      "papers": 2560,
      "aret": 2561,
      "stud": 2562,
      "anti": 2563,
      "marsha": 2564,
      "forest": 2565,
      "single": 2566,
      "decis": 2567,
      "nu": 2568,
      "lax": 2569,
      "contr": 2570,
      "waste": 2571,
      "prepare": 2572,
      "lee": 2573,
      "obvious": 2574,
      "recogni": 2575,
      "member": 2576,
      "fas": 2577,
      "itty": 2578,
      "date": 2579,
      "shop": 2580,
      "success": 2581,
      "fra": 2582,
      "kung": 2583,
      "yer": 2584,
      "rub": 2585,
      "kidding": 2586,
      "forgotten": 2587,
      "feed": 2588,
      "lab": 2589,
      "clock": 2590,
      "simply": 2591,
      "sheriff": 2592,
      "caesar": 2593,
      "ourselves": 2594,
      "500": 2595,
      "stage": 2596,
      "priest": 2597,
      "gust": 2598,
      "intell": 2599,
      "remind": 2600,
      "joke": 2601,
      "correct": 2602,
      "mighty": 2603,
      "reci": 2604,
      "likes": 2605,
      "silver": 2606,
      "gam": 2607,
      "fy": 2608,
      "relax": 2609,
      "ghost": 2610,
      "march": 2611,
      "princess": 2612,
      "consci": 2613,
      "itted": 2614,
      "written": 2615,
      "invol": 2616,
      "germans": 2617,
      "ination": 2618,
      "odd": 2619,
      "military": 2620,
      "speed": 2621,
      "seconds": 2622,
      "sleeping": 2623,
      "pier": 2624,
      "shooting": 2625,
      "bones": 2626,
      "ism": 2627,
      "swee": 2628,
      "zi": 2629,
      "trick": 2630,
      "temple": 2631,
      "realize": 2632,
      "beer": 2633,
      "upset": 2634,
      "knif": 2635,
      "rab": 2636,
      "revol": 2637,
      "net": 2638,
      "quarters": 2639,
      "ances": 2640,
      "opin": 2641,
      "ics": 2642,
      "expected": 2643,
      "accord": 2644,
      "marshal": 2645,
      "above": 2646,
      "club": 2647,
      "animal": 2648,
      "kne": 2649,
      "pity": 2650,
      "nonsense": 2651,
      "17": 2652,
      "match": 2653,
      "bust": 2654,
      "lone": 2655,
      "jan": 2656,
      "trave": 2657,
      "fro": 2658,
      "ners": 2659,
      "inc": 2660,
      "faster": 2661,
      "leaves": 2662,
      "england": 2663,
      "france": 2664,
      "repe": 2665,
      "male": 2666,
      "intend": 2667,
      "incre": 2668,
      "transp": 2669,
      "knife": 2670,
      "asant": 2671,
      "team": 2672,
      "reck": 2673,
      "ordered": 2674,
      "milk": 2675,
      "bod": 2676,
      "tong": 2677,
      "ander": 2678,
      "crying": 2679,
      "admit": 2680,
      "rice": 2681,
      "cool": 2682,
      "gives": 2683,
      "16": 2684,
      "kat": 2685,
      "tial": 2686,
      "venge": 2687,
      "twice": 2688,
      "meat": 2689,
      "ext": 2690,
      "dic": 2691,
      "exist": 2692,
      "thou": 2693,
      "taught": 2694,
      "birds": 2695,
      "henry": 2696,
      "mist": 2697,
      "neigh": 2698,
      "cali": 2699,
      "wil": 2700,
      "ache": 2701,
      "pleased": 2702,
      "espe": 2703,
      "anywhere": 2704,
      "bless": 2705,
      "organ": 2706,
      "fail": 2707,
      "type": 2708,
      "spring": 2709,
      "bright": 2710,
      "missing": 2711,
      "happening": 2712,
      "twent": 2713,
      "lia": 2714,
      "farm": 2715,
      "began": 2716,
      "twenty": 2717,
      "invest": 2718,
      "barr": 2719,
      "wearing": 2720,
      "zer": 2721,
      "willing": 2722,
      "sue": 2723,
      "ives": 2724,
      "charles": 2725,
      "spot": 2726,
      "fucking": 2727,
      "rever": 2728,
      "velo": 2729,
      "ilt": 2730,
      "film": 2731,
      "especially": 2732,
      "gain": 2733,
      "repor": 2734,
      "ston": 2735,
      "polit": 2736,
      "eve": 2737,
      "held": 2738,
      "taste": 2739,
      "choose": 2740,
      "defend": 2741,
      "vietnam": 2742,
      "ara": 2743,
      "psy": 2744,
      "leader": 2745,
      "ener": 2746,
      "rious": 2747,
      "loy": 2748,
      "evidence": 2749,
      "hiding": 2750,
      "pound": 2751,
      "beam": 2752,
      "tage": 2753,
      "discuss": 2754,
      "ado": 2755,
      "herself": 2756,
      "mustn": 2757,
      "brain": 2758,
      "freed": 2759,
      "ax": 2760,
      "cure": 2761,
      "nick": 2762,
      "lip": 2763,
      "surely": 2764,
      "witness": 2765,
      "hael": 2766,
      "crime": 2767,
      "14": 2768,
      "tony": 2769,
      "drinking": 2770,
      "bread": 2771,
      "flat": 2772,
      "europe": 2773,
      "intro": 2774,
      "medic": 2775,
      "eating": 2776,
      "claim": 2777,
      "25": 2778,
      "ns": 2779,
      "oil": 2780,
      "shar": 2781,
      "normal": 2782,
      "scot": 2783,
      "ordinary": 2784,
      "introdu": 2785,
      "places": 2786,
      "tempt": 2787,
      "nature": 2788,
      "mel": 2789,
      "goin": 2790,
      "holding": 2791,
      "coll": 2792,
      "itu": 2793,
      "sever": 2794,
      "vili": 2795,
      "castle": 2796,
      "pus": 2797,
      "decide": 2798,
      "refuse": 2799,
      "aper": 2800,
      "ater": 2801,
      "bay": 2802,
      "tian": 2803,
      "calls": 2804,
      "appreci": 2805,
      "fortune": 2806,
      "condition": 2807,
      "excell": 2808,
      "opinion": 2809,
      "trac": 2810,
      "courage": 2811,
      "pictures": 2812,
      "innocent": 2813,
      "comfor": 2814,
      "rent": 2815,
      "grave": 2816,
      "practic": 2817,
      "according": 2818,
      "eli": 2819,
      "rif": 2820,
      "ert": 2821,
      "beach": 2822,
      "alous": 2823,
      "grant": 2824,
      "breakfast": 2825,
      "reed": 2826,
      "exe": 2827,
      "operation": 2828,
      "release": 2829,
      "washing": 2830,
      "birthday": 2831,
      "ile": 2832,
      "vent": 2833,
      "names": 2834,
      "sire": 2835,
      "closer": 2836,
      "bond": 2837,
      "thief": 2838,
      "mexi": 2839,
      "notice": 2840,
      "spent": 2841,
      "due": 2842,
      "weapons": 2843,
      "mum": 2844,
      "reading": 2845,
      "vive": 2846,
      "ric": 2847,
      "ached": 2848,
      "writing": 2849,
      "flying": 2850,
      "andre": 2851,
      "dor": 2852,
      "kitch": 2853,
      "ulations": 2854,
      "partic": 2855,
      "ffic": 2856,
      "smile": 2857,
      "apartment": 2858,
      "bie": 2859,
      "opp": 2860,
      "allowed": 2861,
      "kov": 2862,
      "brave": 2863,
      "bing": 2864,
      "advan": 2865,
      "comput": 2866,
      "ata": 2867,
      "request": 2868,
      "russian": 2869,
      "photogra": 2870,
      "shoes": 2871,
      "spre": 2872,
      "inf": 2873,
      "secur": 2874,
      "appeared": 2875,
      "nearly": 2876,
      "ante": 2877,
      "mercy": 2878,
      "following": 2879,
      "beyond": 2880,
      "jose": 2881,
      "threat": 2882,
      "congrat": 2883,
      "ski": 2884,
      "distur": 2885,
      "cise": 2886,
      "particular": 2887,
      "pens": 2888,
      "commit": 2889,
      "scream": 2890,
      "prepared": 2891,
      "usually": 2892,
      "cod": 2893,
      "guards": 2894,
      "otherwise": 2895,
      "mond": 2896,
      "truck": 2897,
      "trees": 2898,
      "dancing": 2899,
      "cous": 2900,
      "path": 2901,
      "blan": 2902,
      "americans": 2903,
      "turning": 2904,
      "experience": 2905,
      "gs": 2906,
      "poison": 2907,
      "built": 2908,
      "jealous": 2909,
      "risk": 2910,
      "health": 2911,
      "teeth": 2912,
      "kitchen": 2913,
      "tim": 2914,
      "cia": 2915,
      "bling": 2916,
      "sis": 2917,
      "study": 2918,
      "fal": 2919,
      "yan": 2920,
      "lier": 2921,
      "cker": 2922,
      "plant": 2923,
      "nights": 2924,
      "famous": 2925,
      "pieces": 2926,
      "execut": 2927,
      "sooner": 2928,
      "magic": 2929,
      "ald": 2930,
      "demon": 2931,
      "danny": 2932,
      "cars": 2933,
      "arts": 2934,
      "maria": 2935,
      "driving": 2936,
      "hitler": 2937,
      "direct": 2938,
      "kis": 2939,
      "excellent": 2940,
      "ai": 2941,
      "imp": 2942,
      "nervous": 2943,
      "security": 2944,
      "atest": 2945,
      "animals": 2946,
      "pill": 2947,
      "tray": 2948,
      "satis": 2949,
      "kee": 2950,
      "rie": 2951,
      "hook": 2952,
      "const": 2953,
      "purpose": 2954,
      "mass": 2955,
      "ud": 2956,
      "cele": 2957,
      "del": 2958,
      "block": 2959,
      "corner": 2960,
      "mirac": 2961,
      "oned": 2962,
      "justice": 2963,
      "convin": 2964,
      "greatest": 2965,
      "putting": 2966,
      "nic": 2967,
      "chine": 2968,
      "add": 2969,
      "permission": 2970,
      "ridic": 2971,
      "subject": 2972,
      "national": 2973,
      "spread": 2974,
      "crimin": 2975,
      "strike": 2976,
      "finger": 2977,
      "jok": 2978,
      "outta": 2979,
      "note": 2980,
      "minister": 2981,
      "brea": 2982,
      "finite": 2983,
      "vul": 2984,
      "final": 2985,
      "stuck": 2986,
      "crack": 2987,
      "figured": 2988,
      "mccoy": 2989,
      "capture": 2990,
      "lonely": 2991,
      "freedom": 2992,
      "several": 2993,
      "aches": 2994,
      "affair": 2995,
      "itude": 2996,
      "arthur": 2997,
      "brown": 2998,
      "feels": 2999,
      "played": 3000,
      "wounded": 3001,
      "chicken": 3002,
      "ami": 3003,
      "survive": 3004,
      "settle": 3005,
      "bour": 3006,
      "bang": 3007,
      "winter": 3008,
      "address": 3009,
      "destroyed": 3010,
      "surprised": 3011,
      "reli": 3012,
      "dies": 3013,
      "dogs": 3014,
      "knowled": 3015,
      "iety": 3016,
      "bru": 3017,
      "rooms": 3018,
      "suspect": 3019,
      "comrade": 3020,
      "defe": 3021,
      "listening": 3022,
      "frightened": 3023,
      "nin": 3024,
      "leon": 3025,
      "common": 3026,
      "punish": 3027,
      "intellig": 3028,
      "ears": 3029,
      "mend": 3030,
      "helped": 3031,
      "governor": 3032,
      "michael": 3033,
      "rick": 3034,
      "account": 3035,
      "assist": 3036,
      "bloody": 3037,
      "cin": 3038,
      "fare": 3039,
      "ying": 3040,
      "ern": 3041,
      "lling": 3042,
      "ships": 3043,
      "problems": 3044,
      "memory": 3045,
      "department": 3046,
      "ashamed": 3047,
      "ising": 3048,
      "conne": 3049,
      "gged": 3050,
      "ping": 3051,
      "zu": 3052,
      "tast": 3053,
      "dee": 3054,
      "civili": 3055,
      "returned": 3056,
      "prisoner": 3057,
      "gift": 3058,
      "cash": 3059,
      "unfortun": 3060,
      "heads": 3061,
      "decision": 3062,
      "cards": 3063,
      "weather": 3064,
      "ades": 3065,
      "keys": 3066,
      "iter": 3067,
      "lift": 3068,
      "shout": 3069,
      "grate": 3070,
      "park": 3071,
      "beth": 3072,
      "angel": 3073,
      "perfectly": 3074,
      "natural": 3075,
      "involved": 3076,
      "hong": 3077,
      "nan": 3078,
      "gee": 3079,
      "tech": 3080,
      "aff": 3081,
      "celebr": 3082,
      "ridiculous": 3083,
      "jen": 3084,
      "rate": 3085,
      "vil": 3086,
      "amb": 3087,
      "emer": 3088,
      "mix": 3089,
      "virgin": 3090,
      "manage": 3091,
      "shin": 3092,
      "ager": 3093,
      "handsome": 3094,
      "itali": 3095,
      "silence": 3096,
      "bunch": 3097,
      "wolf": 3098,
      "rules": 3099,
      "fleet": 3100,
      "arrange": 3101,
      "gods": 3102,
      "recognize": 3103,
      "investig": 3104,
      "ili": 3105,
      "obey": 3106,
      "tun": 3107,
      "pleasant": 3108,
      "ends": 3109,
      "thousands": 3110,
      "grown": 3111,
      "fought": 3112,
      "lind": 3113,
      "tha": 3114,
      "soft": 3115,
      "anne": 3116,
      "hanging": 3117,
      "iled": 3118,
      "stat": 3119,
      "develo": 3120,
      "worst": 3121,
      "ounce": 3122,
      "highness": 3123,
      "aware": 3124,
      "ples": 3125,
      "norman": 3126,
      "bottom": 3127,
      "era": 3128,
      "delight": 3129,
      "demand": 3130,
      "spare": 3131,
      "gage": 3132,
      "custo": 3133,
      "chinese": 3134,
      "ering": 3135,
      "regre": 3136,
      "poin": 3137,
      "rac": 3138,
      "ises": 3139,
      "wet": 3140,
      "mail": 3141,
      "brad": 3142,
      "understood": 3143,
      "60": 3144,
      "tern": 3145,
      "els": 3146,
      "martial": 3147,
      "buck": 3148,
      "noise": 3149,
      "stock": 3150,
      "fami": 3151,
      "deliver": 3152,
      "tex": 3153,
      "ils": 3154,
      "golden": 3155,
      "bene": 3156,
      "sig": 3157,
      "detail": 3158,
      "starting": 3159,
      "expecting": 3160,
      "telephone": 3161,
      "cousin": 3162,
      "grateful": 3163,
      "stayed": 3164,
      "dreams": 3165,
      "dust": 3166,
      "dete": 3167,
      "everywhere": 3168,
      "waited": 3169,
      "possibly": 3170,
      "climb": 3171,
      "laughing": 3172,
      "13": 3173,
      "itself": 3174,
      "orig": 3175,
      "admir": 3176,
      "spaper": 3177,
      "newspaper": 3178,
      "appreciate": 3179,
      "notic": 3180,
      "stole": 3181,
      "cloud": 3182,
      "keeping": 3183,
      "desert": 3184,
      "rum": 3185,
      "tour": 3186,
      "wast": 3187,
      "insist": 3188,
      "style": 3189,
      "rap": 3190,
      "conven": 3191,
      "swim": 3192,
      "forced": 3193,
      "plans": 3194,
      "cere": 3195,
      "gall": 3196,
      "loose": 3197,
      "tells": 3198,
      "happiness": 3199,
      "century": 3200,
      "llowed": 3201,
      "charac": 3202,
      "wagon": 3203,
      "jam": 3204,
      "tall": 3205,
      "heat": 3206,
      "civil": 3207,
      "voy": 3208,
      "24": 3209,
      "bun": 3210,
      "agne": 3211,
      "confess": 3212,
      "vac": 3213,
      "escap": 3214,
      "robert": 3215,
      "chest": 3216,
      "gize": 3217,
      "honour": 3218,
      "mountains": 3219,
      "advice": 3220,
      "mere": 3221,
      "aly": 3222,
      "lack": 3223,
      "weight": 3224,
      "roger": 3225,
      "phys": 3226,
      "revolution": 3227,
      "eral": 3228,
      "lion": 3229,
      "whoa": 3230,
      "treasure": 3231,
      "yourselves": 3232,
      "deb": 3233,
      "chee": 3234,
      "ats": 3235,
      "lawyer": 3236,
      "comfortable": 3237,
      "sw": 3238,
      "roof": 3239,
      "soc": 3240,
      "dawn": 3241,
      "flower": 3242,
      "lines": 3243,
      "richard": 3244,
      "champagne": 3245,
      "egy": 3246,
      "sul": 3247,
      "qual": 3248,
      "rule": 3249,
      "support": 3250,
      "earlier": 3251,
      "driver": 3252,
      "sym": 3253,
      "mommy": 3254,
      "concerned": 3255,
      "guests": 3256,
      "scene": 3257,
      "bride": 3258,
      "palace": 3259,
      "buddy": 3260,
      "letters": 3261,
      "bern": 3262,
      "walked": 3263,
      "aki": 3264,
      "ency": 3265,
      "served": 3266,
      "singing": 3267,
      "signal": 3268,
      "langu": 3269,
      "francis": 3270,
      "cow": 3271,
      "ending": 3272,
      "trial": 3273,
      "martin": 3274,
      "origin": 3275,
      "bac": 3276,
      "sess": 3277,
      "sulu": 3278,
      "travel": 3279,
      "glasses": 3280,
      "medicine": 3281,
      "knowledge": 3282,
      "equi": 3283,
      "jin": 3284,
      "usion": 3285,
      "proof": 3286,
      "breath": 3287,
      "beast": 3288,
      "victory": 3289,
      "storm": 3290,
      "fate": 3291,
      "thir": 3292,
      "market": 3293,
      "meaning": 3294,
      "baron": 3295,
      "movie": 3296,
      "sume": 3297,
      "circ": 3298,
      "eggs": 3299,
      "pir": 3300,
      "tit": 3301,
      "iron": 3302,
      "knowing": 3303,
      "horri": 3304,
      "cil": 3305,
      "dick": 3306,
      "thom": 3307,
      "although": 3308,
      "seek": 3309,
      "size": 3310,
      "rise": 3311,
      "slo": 3312,
      "ora": 3313,
      "helen": 3314,
      "auto": 3315,
      "resist": 3316,
      "fella": 3317,
      "apolo": 3318,
      "washington": 3319,
      "rout": 3320,
      "herr": 3321,
      "vich": 3322,
      "dropped": 3323,
      "sunday": 3324,
      "weapon": 3325,
      "responsible": 3326,
      "dumb": 3327,
      "bound": 3328,
      "germany": 3329,
      "temper": 3330,
      "streets": 3331,
      "plain": 3332,
      "bee": 3333,
      "habit": 3334,
      "identi": 3335,
      "headed": 3336,
      "trap": 3337,
      "lled": 3338,
      "separ": 3339,
      "stein": 3340,
      "doin": 3341,
      "liber": 3342,
      "verse": 3343,
      "tear": 3344,
      "pression": 3345,
      "ov": 3346,
      "badly": 3347,
      "murdered": 3348,
      "rough": 3349,
      "reward": 3350,
      "sey": 3351,
      "program": 3352,
      "cand": 3353,
      "kyo": 3354,
      "below": 3355,
      "termin": 3356,
      "indian": 3357,
      "mud": 3358,
      "officers": 3359,
      "prisoners": 3360,
      "wen": 3361,
      "believed": 3362,
      "riding": 3363,
      "journey": 3364,
      "gers": 3365,
      "slight": 3366,
      "pear": 3367,
      "object": 3368,
      "slave": 3369,
      "games": 3370,
      "pup": 3371,
      "color": 3372,
      "received": 3373,
      "bury": 3374,
      "broad": 3375,
      "invited": 3376,
      "smith": 3377,
      "yellow": 3378,
      "buried": 3379,
      "drug": 3380,
      "ivan": 3381,
      "jane": 3382,
      "kong": 3383,
      "unit": 3384,
      "tiv": 3385,
      "dece": 3386,
      "royal": 3387,
      "rush": 3388,
      "repeat": 3389,
      "bis": 3390,
      "uc": 3391,
      "yard": 3392,
      "goodness": 3393,
      "followed": 3394,
      "keeps": 3395,
      "terribly": 3396,
      "effect": 3397,
      "fancy": 3398,
      "emotion": 3399,
      "training": 3400,
      "nurse": 3401,
      "bodies": 3402,
      "pla": 3403,
      "relat": 3404,
      "spec": 3405,
      "easily": 3406,
      "example": 3407,
      "formed": 3408,
      "trad": 3409,
      "feelings": 3410,
      "hurts": 3411,
      "japan": 3412,
      "energy": 3413,
      "aur": 3414,
      "represent": 3415,
      "forces": 3416,
      "cock": 3417,
      "truly": 3418,
      "cute": 3419,
      "burning": 3420,
      "valley": 3421,
      "cops": 3422,
      "ically": 3423,
      "square": 3424,
      "void": 3425,
      "foolish": 3426,
      "acy": 3427,
      "tax": 3428,
      "stomach": 3429,
      "diam": 3430,
      "pment": 3431,
      "shh": 3432,
      "afri": 3433,
      "spoke": 3434,
      "pure": 3435,
      "assure": 3436,
      "lied": 3437,
      "losing": 3438,
      "surren": 3439,
      "explo": 3440,
      "squad": 3441,
      "scotty": 3442,
      "loc": 3443,
      "coward": 3444,
      "sugar": 3445,
      "cream": 3446,
      "lesson": 3447,
      "noticed": 3448,
      "diamond": 3449,
      "sters": 3450,
      "noble": 3451,
      "behave": 3452,
      "powerful": 3453,
      "distance": 3454,
      "rabbit": 3455,
      "tori": 3456,
      "stink": 3457,
      "betray": 3458,
      "map": 3459,
      "doors": 3460,
      "director": 3461,
      "aced": 3462,
      "elect": 3463,
      "extreme": 3464,
      "vide": 3465,
      "tiger": 3466,
      "neighbor": 3467,
      "bite": 3468,
      "flight": 3469,
      "pher": 3470,
      "sses": 3471,
      "namese": 3472,
      "vietnamese": 3473,
      "threw": 3474,
      "fru": 3475,
      "ln": 3476,
      "ites": 3477,
      "definite": 3478,
      "pocket": 3479,
      "hunt": 3480,
      "target": 3481,
      "bare": 3482,
      "hail": 3483,
      "proceed": 3484,
      "drown": 3485,
      "scow": 3486,
      "practice": 3487,
      "communic": 3488,
      "skill": 3489,
      "ences": 3490,
      "eddie": 3491,
      "excellen": 3492,
      "computer": 3493,
      "society": 3494,
      "apologize": 3495,
      "cit": 3496,
      "ada": 3497,
      "ideas": 3498,
      "mistress": 3499,
      "bak": 3500,
      "fav": 3501,
      "aust": 3502,
      "coast": 3503,
      "brand": 3504,
      "bum": 3505,
      "inclu": 3506,
      "onto": 3507,
      "neg": 3508,
      "cture": 3509,
      "ruth": 3510,
      "belongs": 3511,
      "introduce": 3512,
      "requi": 3513,
      "killer": 3514,
      "opened": 3515,
      "tongue": 3516,
      "secretary": 3517,
      "split": 3518,
      "shock": 3519,
      "dun": 3520,
      "asing": 3521,
      "craw": 3522,
      "easier": 3523,
      "burned": 3524,
      "mun": 3525,
      "wang": 3526,
      "arrow": 3527,
      "forbid": 3528,
      "carried": 3529,
      "hoping": 3530,
      "dge": 3531,
      "tat": 3532,
      "inn": 3533,
      "myster": 3534,
      "whoever": 3535,
      "laid": 3536,
      "stern": 3537,
      "supper": 3538,
      "crowd": 3539,
      "character": 3540,
      "isto": 3541,
      "lyn": 3542,
      "logical": 3543,
      "naturally": 3544,
      "300": 3545,
      "sne": 3546,
      "yen": 3547,
      "occup": 3548,
      "excellency": 3549,
      "moscow": 3550,
      "painting": 3551,
      "continu": 3552,
      "sche": 3553,
      "vies": 3554,
      "staff": 3555,
      "nothin": 3556,
      "untie": 3557,
      "ugly": 3558,
      "arrested": 3559,
      "las": 3560,
      "warn": 3561,
      "von": 3562,
      "ero": 3563,
      "enem": 3564,
      "lake": 3565,
      "bringing": 3566,
      "ticket": 3567,
      "dragon": 3568,
      "faces": 3569,
      "joseph": 3570,
      "ize": 3571,
      "therefore": 3572,
      "gress": 3573,
      "strang": 3574,
      "congratulations": 3575,
      "oro": 3576,
      "tied": 3577,
      "taxi": 3578,
      "posed": 3579,
      "gency": 3580,
      "enemies": 3581,
      "mut": 3582,
      "section": 3583,
      "pressed": 3584,
      "shape": 3585,
      "language": 3586,
      "yang": 3587,
      "level": 3588,
      "agreed": 3589,
      "regular": 3590,
      "profession": 3591,
      "pil": 3592,
      "clever": 3593,
      "via": 3594,
      "medical": 3595,
      "wondering": 3596,
      "personally": 3597,
      "regret": 3598,
      "tank": 3599,
      "commission": 3600,
      "older": 3601,
      "descri": 3602,
      "laws": 3603,
      "thirty": 3604,
      "sta": 3605,
      "armed": 3606,
      "lower": 3607,
      "aga": 3608,
      "italian": 3609,
      "acting": 3610,
      "grandpa": 3611,
      "paint": 3612,
      "occas": 3613,
      "horrible": 3614,
      "wide": 3615,
      "ador": 3616,
      "design": 3617,
      "murderer": 3618,
      "ium": 3619,
      "jones": 3620,
      "lor": 3621,
      "tower": 3622,
      "likely": 3623,
      "pool": 3624,
      "howard": 3625,
      "afford": 3626,
      "carefully": 3627,
      "sending": 3628,
      "direction": 3629,
      "lun": 3630,
      "tv": 3631,
      "lover": 3632,
      "firm": 3633,
      "embarr": 3634,
      "gather": 3635,
      "jean": 3636,
      "signed": 3637,
      "jerry": 3638,
      "christian": 3639,
      "oce": 3640,
      "jeff": 3641,
      "event": 3642,
      "santa": 3643,
      "fellas": 3644,
      "opport": 3645,
      "istr": 3646,
      "saint": 3647,
      "foreign": 3648,
      "tors": 3649,
      "fired": 3650,
      "vessel": 3651,
      "paying": 3652,
      "ooh": 3653,
      "tle": 3654,
      "wu": 3655,
      "stab": 3656,
      "unity": 3657,
      "decl": 3658,
      "shu": 3659,
      "bigger": 3660,
      "slowly": 3661,
      "ration": 3662,
      "zh": 3663,
      "host": 3664,
      "anton": 3665,
      "chap": 3666,
      "robber": 3667,
      "cruel": 3668,
      "obviously": 3669,
      "pounds": 3670,
      "vey": 3671,
      "rail": 3672,
      "loud": 3673,
      "tery": 3674,
      "chamber": 3675,
      "johnson": 3676,
      "pulled": 3677,
      "sweethe": 3678,
      "mam": 3679,
      "corpor": 3680,
      "steady": 3681,
      "miracle": 3682,
      "trail": 3683,
      "flesh": 3684,
      "texas": 3685,
      "cred": 3686,
      "asks": 3687,
      "desire": 3688,
      "glory": 3689,
      "regard": 3690,
      "carrying": 3691,
      "whiskey": 3692,
      "rare": 3693,
      "indic": 3694,
      "kingdom": 3695,
      "friendly": 3696,
      "approach": 3697,
      "towards": 3698,
      "button": 3699,
      "logy": 3700,
      "defense": 3701,
      "pierre": 3702,
      "mexico": 3703,
      "alert": 3704,
      "willi": 3705,
      "concent": 3706,
      "scri": 3707,
      "rocky": 3708,
      "filled": 3709,
      "favour": 3710,
      "amen": 3711,
      "aim": 3712,
      "sour": 3713,
      "tier": 3714,
      "trade": 3715,
      "runs": 3716,
      "steve": 3717,
      "damned": 3718,
      "wheel": 3719,
      "responsibility": 3720,
      "arette": 3721,
      "uel": 3722,
      "resc": 3723,
      "conce": 3724,
      "showed": 3725,
      "satur": 3726,
      "throat": 3727,
      "linda": 3728,
      "amp": 3729,
      "pol": 3730,
      "cheap": 3731,
      "pire": 3732,
      "reasons": 3733,
      "cigarette": 3734,
      "wishes": 3735,
      "emergency": 3736,
      "border": 3737,
      "guts": 3738,
      "phas": 3739,
      "downstairs": 3740,
      "disci": 3741,
      "matters": 3742,
      "mmm": 3743,
      "bullet": 3744,
      "russia": 3745,
      "nia": 3746,
      "pants": 3747,
      "heading": 3748,
      "thoughts": 3749,
      "bble": 3750,
      "nuts": 3751,
      "itions": 3752,
      "gotten": 3753,
      "wow": 3754,
      "restaur": 3755,
      "code": 3756,
      "disappoint": 3757,
      "stranger": 3758,
      "quarter": 3759,
      "student": 3760,
      "vulcan": 3761,
      "mig": 3762,
      "hearing": 3763,
      "depends": 3764,
      "sweetheart": 3765,
      "rep": 3766,
      "cot": 3767,
      "raised": 3768,
      "ette": 3769,
      "clan": 3770,
      "complain": 3771,
      "obli": 3772,
      "avoid": 3773,
      "hm": 3774,
      "bes": 3775,
      "cake": 3776,
      "sons": 3777,
      "citiz": 3778,
      "lung": 3779,
      "union": 3780,
      "coach": 3781,
      "shan": 3782,
      "divor": 3783,
      "counter": 3784,
      "pour": 3785,
      "regi": 3786,
      "wore": 3787,
      "precise": 3788,
      "fingers": 3789,
      "surrender": 3790,
      "iny": 3791,
      "anda": 3792,
      "cheer": 3793,
      "luke": 3794,
      "screen": 3795,
      "ona": 3796,
      "deck": 3797,
      "useless": 3798,
      "inten": 3799,
      "warning": 3800,
      "partner": 3801,
      "lately": 3802,
      "universe": 3803,
      "45": 3804,
      "cort": 3805,
      "pha": 3806,
      "vine": 3807,
      "revenge": 3808,
      "monster": 3809,
      "attacked": 3810,
      "ville": 3811,
      "steps": 3812,
      "fixed": 3813,
      "college": 3814,
      "ox": 3815,
      "pit": 3816,
      "recent": 3817,
      "colum": 3818,
      "whore": 3819,
      "worthy": 3820,
      "shadow": 3821,
      "cles": 3822,
      "victor": 3823,
      "conscious": 3824,
      "wire": 3825,
      "tire": 3826,
      "hima": 3827,
      "nut": 3828,
      "sab": 3829,
      "aband": 3830,
      "suic": 3831,
      "grad": 3832,
      "torture": 3833,
      "turns": 3834,
      "suspic": 3835,
      "holmes": 3836,
      "nant": 3837,
      "itz": 3838,
      "lips": 3839,
      "landing": 3840,
      "robin": 3841,
      "collect": 3842,
      "snake": 3843,
      "points": 3844,
      "escaped": 3845,
      "egypt": 3846,
      "decent": 3847,
      "cies": 3848,
      "reckon": 3849,
      "argu": 3850,
      "somehow": 3851,
      "disappeared": 3852,
      "slept": 3853,
      "deserve": 3854,
      "sque": 3855,
      "relie": 3856,
      "bets": 3857,
      "lid": 3858,
      "rifle": 3859,
      "lets": 3860,
      "ruin": 3861,
      "tricks": 3862,
      "shows": 3863,
      "breaking": 3864,
      "starts": 3865,
      "brings": 3866,
      "desk": 3867,
      "tommy": 3868,
      "grandfather": 3869,
      "walls": 3870,
      "uce": 3871,
      "pete": 3872,
      "suke": 3873,
      "spee": 3874,
      "bravo": 3875,
      "criminal": 3876,
      "kitty": 3877,
      "tally": 3878,
      "naked": 3879,
      "ized": 3880,
      "amed": 3881,
      "reached": 3882,
      "hiro": 3883,
      "jake": 3884,
      "woods": 3885,
      "property": 3886,
      "marty": 3887,
      "photograph": 3888,
      "ior": 3889,
      "charming": 3890,
      "appears": 3891,
      "breathe": 3892,
      "fruit": 3893,
      "center": 3894,
      "uniform": 3895,
      "chuck": 3896,
      "attempt": 3897,
      "china": 3898,
      "stories": 3899,
      "stolen": 3900,
      "spell": 3901,
      "passing": 3902,
      "advantage": 3903,
      "kim": 3904,
      "ore": 3905,
      "tho": 3906,
      "mony": 3907,
      "capable": 3908,
      "understanding": 3909,
      "planning": 3910,
      "sl": 3911,
      "butter": 3912,
      "moise": 3913,
      "manager": 3914,
      "arent": 3915,
      "itation": 3916,
      "ching": 3917,
      "ria": 3918,
      "tears": 3919,
      "grass": 3920,
      "biggest": 3921,
      "drinks": 3922,
      "walter": 3923,
      "urai": 3924,
      "rifice": 3925,
      "ience": 3926,
      "jung": 3927,
      "pers": 3928,
      "surround": 3929,
      "sacrifice": 3930,
      "william": 3931,
      "oy": 3932,
      "local": 3933,
      "movies": 3934,
      "condu": 3935,
      "chica": 3936,
      "mademoise": 3937,
      "hunting": 3938,
      "glor": 3939,
      "terrific": 3940,
      "touched": 3941,
      "servant": 3942,
      "joey": 3943,
      "pad": 3944,
      "false": 3945,
      "farewell": 3946,
      "opportunity": 3947,
      "orbit": 3948,
      "liver": 3949,
      "female": 3950,
      "dience": 3951,
      "parts": 3952,
      "clark": 3953,
      "speaks": 3954,
      "transfer": 3955,
      "cattle": 3956,
      "nis": 3957,
      "rust": 3958,
      "ified": 3959,
      "sport": 3960,
      "division": 3961,
      "desper": 3962,
      "soup": 3963,
      "period": 3964,
      "louis": 3965,
      "definitely": 3966,
      "dise": 3967,
      "tw": 3968,
      "sees": 3969,
      "roo": 3970,
      "cooper": 3971,
      "urgent": 3972,
      "iel": 3973,
      "mont": 3974,
      "carol": 3975,
      "headquarters": 3976,
      "surface": 3977,
      "craft": 3978,
      "princi": 3979,
      "salt": 3980,
      "vail": 3981,
      "windows": 3982,
      "sharp": 3983,
      "circum": 3984,
      "restaurant": 3985,
      "suicide": 3986,
      "ible": 3987,
      "season": 3988,
      "educ": 3989,
      "ably": 3990,
      "social": 3991,
      "laura": 3992,
      "blessed": 3993,
      "assign": 3994,
      "desp": 3995,
      "fallen": 3996,
      "arrang": 3997,
      "sarah": 3998,
      "loyal": 3999,
      "saturday": 4000,
      "mademoiselle": 4001,
      "anci": 4002,
      "orter": 4003,
      "pow": 4004,
      "placed": 4005,
      "tions": 4006,
      "borrow": 4007,
      "factory": 4008,
      "africa": 4009,
      "atic": 4010,
      "ify": 4011,
      "shirt": 4012,
      "bucks": 4013,
      "gging": 4014,
      "italy": 4015,
      "thie": 4016,
      "total": 4017,
      "holi": 4018,
      "explos": 4019,
      "hidden": 4020,
      "thomas": 4021,
      "kay": 4022,
      "halt": 4023,
      "rocks": 4024,
      "ryo": 4025,
      "worn": 4026,
      "umi": 4027,
      "falling": 4028,
      "custom": 4029,
      "dollar": 4030,
      "equipment": 4031,
      "occasion": 4032,
      "mood": 4033,
      "rence": 4034,
      "excited": 4035,
      "compan": 4036,
      "concern": 4037,
      "toast": 4038,
      "samurai": 4039,
      "science": 4040,
      "incredi": 4041,
      "chicago": 4042,
      "blast": 4043,
      "clau": 4044,
      "sack": 4045,
      "istic": 4046,
      "hal": 4047,
      "forth": 4048,
      "page": 4049,
      "shake": 4050,
      "warp": 4051,
      "council": 4052,
      "vote": 4053,
      "advance": 4054,
      "authority": 4055,
      "reverend": 4056,
      "circumst": 4057,
      "ich": 4058,
      "sion": 4059,
      "ena": 4060,
      "sti": 4061,
      "loo": 4062,
      "terry": 4063,
      "fetch": 4064,
      "traitor": 4065,
      "jury": 4066,
      "ators": 4067,
      "invite": 4068,
      "knight": 4069,
      "fox": 4070,
      "finds": 4071,
      "merry": 4072,
      "hearts": 4073,
      "territory": 4074,
      "fifty": 4075,
      "califor": 4076,
      "swing": 4077,
      "ific": 4078,
      "poli": 4079,
      "wherever": 4080,
      "ulation": 4081,
      "disgust": 4082,
      "crit": 4083,
      "midnight": 4084,
      "arrive": 4085,
      "refused": 4086,
      "unfortunately": 4087,
      "ocean": 4088,
      "toward": 4089,
      "whist": 4090,
      "ari": 4091,
      "ida": 4092,
      "offered": 4093,
      "ference": 4094,
      "clay": 4095,
      "reasonable": 4096,
      "california": 4097,
      "enna": 4098,
      "aro": 4099,
      "western": 4100,
      "dozen": 4101,
      "marie": 4102,
      "sonny": 4103,
      "challen": 4104,
      "apparent": 4105,
      "facts": 4106,
      "80": 4107,
      "swords": 4108,
      "theat": 4109,
      "stal": 4110,
      "admi": 4111,
      "whenever": 4112,
      "comb": 4113,
      "fantast": 4114,
      "cabin": 4115,
      "ellen": 4116,
      "ras": 4117,
      "bei": 4118,
      "pert": 4119,
      "marg": 4120,
      "precious": 4121,
      "discovered": 4122,
      "houses": 4123,
      "fourth": 4124,
      "fields": 4125,
      "succeed": 4126,
      "thunder": 4127,
      "bush": 4128,
      "central": 4129,
      "picking": 4130,
      "curious": 4131,
      "awfully": 4132,
      "pressure": 4133,
      "ghe": 4134,
      "senor": 4135,
      "fashi": 4136,
      "switch": 4137,
      "vert": 4138,
      "tai": 4139,
      "mage": 4140,
      "helping": 4141,
      "official": 4142,
      "russians": 4143,
      "kins": 4144,
      "mous": 4145,
      "indians": 4146,
      "pride": 4147,
      "drag": 4148,
      "credit": 4149,
      "py": 4150,
      "pink": 4151,
      "loss": 4152,
      "mental": 4153,
      "drum": 4154,
      "detective": 4155,
      "35": 4156,
      "fus": 4157,
      "reput": 4158,
      "therine": 4159,
      "sometime": 4160,
      "someday": 4161,
      "berlin": 4162,
      "shaw": 4163,
      "planes": 4164,
      "wan": 4165,
      "wre": 4166,
      "chant": 4167,
      "holl": 4168,
      "fever": 4169,
      "cases": 4170,
      "martha": 4171,
      "duke": 4172,
      "corn": 4173,
      "higher": 4174,
      "darkness": 4175,
      "thorn": 4176,
      "presence": 4177,
      "ix": 4178,
      "arti": 4179,
      "beard": 4180,
      "libr": 4181,
      "chen": 4182,
      "delay": 4183,
      "somethin": 4184,
      "cts": 4185,
      "asshole": 4186,
      "creep": 4187,
      "annie": 4188,
      "violence": 4189,
      "hay": 4190,
      "alarm": 4191,
      "adam": 4192,
      "ased": 4193,
      "acted": 4194,
      "occur": 4195,
      "bastards": 4196,
      "seriously": 4197,
      "settled": 4198,
      "members": 4199,
      "wy": 4200,
      "youth": 4201,
      "result": 4202,
      "tokyo": 4203,
      "chin": 4204,
      "activ": 4205,
      "deput": 4206,
      "pel": 4207,
      "achie": 4208,
      "penny": 4209,
      "patro": 4210,
      "destru": 4211,
      "silent": 4212,
      "television": 4213,
      "appointment": 4214,
      "mixed": 4215,
      "rand": 4216,
      "amoun": 4217,
      "shel": 4218,
      "grew": 4219,
      "matthe": 4220,
      "bil": 4221,
      "ware": 4222,
      "yon": 4223,
      "ures": 4224,
      "monkey": 4225,
      "superi": 4226,
      "shield": 4227,
      "planned": 4228,
      "pipe": 4229,
      "growing": 4230,
      "failed": 4231,
      "captured": 4232,
      "delighted": 4233,
      "jungle": 4234,
      "auntie": 4235,
      "kel": 4236,
      "utter": 4237,
      "span": 4238,
      "minds": 4239,
      "hunter": 4240,
      "harder": 4241,
      "obje": 4242,
      "crown": 4243,
      "extremely": 4244,
      "cen": 4245,
      "mare": 4246,
      "swall": 4247,
      "zone": 4248,
      "managed": 4249,
      "uses": 4250,
      "finding": 4251,
      "stub": 4252,
      "fantastic": 4253,
      "ica": 4254,
      "totally": 4255,
      "navy": 4256,
      "plus": 4257,
      "funeral": 4258,
      "fools": 4259,
      "194": 4260,
      "hundreds": 4261,
      "joking": 4262,
      "ease": 4263,
      "enced": 4264,
      "forms": 4265,
      "som": 4266,
      "express": 4267,
      "contain": 4268,
      "younger": 4269,
      "pretend": 4270,
      "sisters": 4271,
      "model": 4272,
      "ancient": 4273,
      "tis": 4274,
      "agent": 4275,
      "talent": 4276,
      "dio": 4277,
      "crap": 4278,
      "christine": 4279,
      "slaves": 4280,
      "eliza": 4281,
      "suff": 4282,
      "ured": 4283,
      "materi": 4284,
      "county": 4285,
      "syl": 4286,
      "rance": 4287,
      "stro": 4288,
      "nowhere": 4289,
      "unto": 4290,
      "bold": 4291,
      "spok": 4292,
      "balls": 4293,
      "burg": 4294,
      "mentioned": 4295,
      "possess": 4296,
      "knees": 4297,
      "transport": 4298,
      "original": 4299,
      "rant": 4300,
      "sem": 4301,
      "hai": 4302,
      "bol": 4303,
      "commend": 4304,
      "owner": 4305,
      "damage": 4306,
      "eaten": 4307,
      "treated": 4308,
      "mirror": 4309,
      "defeat": 4310,
      "speech": 4311,
      "awake": 4312,
      "etern": 4313,
      "anx": 4314,
      "ashi": 4315,
      "loving": 4316,
      "saving": 4317,
      "letting": 4318,
      "mortal": 4319,
      "watched": 4320,
      "distri": 4321,
      "bags": 4322,
      "bullshit": 4323,
      "tanks": 4324,
      "fond": 4325,
      "sca": 4326,
      "arest": 4327,
      "hills": 4328,
      "convers": 4329,
      "bleed": 4330,
      "provid": 4331,
      "shoulder": 4332,
      "corp": 4333,
      "clearly": 4334,
      "victim": 4335,
      "witnes": 4336,
      "cliff": 4337,
      "xia": 4338,
      "haw": 4339,
      "morgan": 4340,
      "survi": 4341,
      "amazing": 4342,
      "thurs": 4343,
      "labor": 4344,
      "admiral": 4345,
      "disease": 4346,
      "arranged": 4347,
      "remark": 4348,
      "meal": 4349,
      "liqu": 4350,
      "acqu": 4351,
      "tape": 4352,
      "mann": 4353,
      "marks": 4354,
      "kidna": 4355,
      "safety": 4356,
      "potato": 4357,
      "splen": 4358,
      "suffering": 4359,
      "vacation": 4360,
      "az": 4361,
      "dump": 4362,
      "fang": 4363,
      "gger": 4364,
      "toy": 4365,
      "berg": 4366,
      "miser": 4367,
      "spy": 4368,
      "kinds": 4369,
      "committed": 4370,
      "corporal": 4371,
      "pac": 4372,
      "becomes": 4373,
      "escort": 4374,
      "geon": 4375,
      "thern": 4376,
      "guar": 4377,
      "prose": 4378,
      "chase": 4379,
      "attend": 4380,
      "visitor": 4381,
      "brilli": 4382,
      "dreaming": 4383,
      "filthy": 4384,
      "fficient": 4385,
      "avail": 4386,
      "scan": 4387,
      "attrac": 4388,
      "rey": 4389,
      "chun": 4390,
      "maga": 4391,
      "rotten": 4392,
      "ambass": 4393,
      "splendid": 4394,
      "aah": 4395,
      "bou": 4396,
      "shave": 4397,
      "analy": 4398,
      "nasty": 4399,
      "scrat": 4400,
      "august": 4401,
      "grandma": 4402,
      "champion": 4403,
      "pensive": 4404,
      "constant": 4405,
      "cul": 4406,
      "punch": 4407,
      "widow": 4408,
      "cos": 4409,
      "perform": 4410,
      "checked": 4411,
      "barbar": 4412,
      "pilot": 4413,
      "brief": 4414,
      "selling": 4415,
      "flag": 4416,
      "relation": 4417,
      "limit": 4418,
      "rio": 4419,
      "scout": 4420,
      "bathroom": 4421,
      "starship": 4422,
      "contract": 4423,
      "conscience": 4424,
      "familiar": 4425,
      "rison": 4426,
      "meth": 4427,
      "lix": 4428,
      "terms": 4429,
      "expensive": 4430,
      "monday": 4431,
      "lands": 4432,
      "huge": 4433,
      "entertain": 4434,
      "rupt": 4435,
      "wilson": 4436,
      "reports": 4437,
      "circumstances": 4438,
      "matthew": 4439,
      "27": 4440,
      "moses": 4441,
      "shed": 4442,
      "caused": 4443,
      "firing": 4444,
      "ggle": 4445,
      "magnif": 4446,
      "falls": 4447,
      "maintain": 4448,
      "thrown": 4449,
      "ell": 4450,
      "hank": 4451,
      "holes": 4452,
      "unusual": 4453,
      "determin": 4454,
      "catherine": 4455,
      "lfri": 4456,
      "airport": 4457,
      "pulling": 4458,
      "boots": 4459,
      "fou": 4460,
      "thus": 4461,
      "beating": 4462,
      "aside": 4463,
      "acts": 4464,
      "hoped": 4465,
      "sole": 4466,
      "girlfri": 4467,
      "phan": 4468,
      "philip": 4469,
      "guarante": 4470,
      "21": 4471,
      "former": 4472,
      "aint": 4473,
      "cents": 4474,
      "brains": 4475,
      "mount": 4476,
      "intelligent": 4477,
      "dd": 4478,
      "dock": 4479,
      "rage": 4480,
      "olin": 4481,
      "supp": 4482,
      "maxim": 4483,
      "entirely": 4484,
      "brilliant": 4485,
      "jess": 4486,
      "link": 4487,
      "lous": 4488,
      "reve": 4489,
      "arily": 4490,
      "ques": 4491,
      "mayor": 4492,
      "mile": 4493,
      "ggie": 4494,
      "slip": 4495,
      "francs": 4496,
      "disturb": 4497,
      "divorce": 4498,
      "ening": 4499,
      "permit": 4500,
      "artist": 4501,
      "records": 4502,
      "knocked": 4503,
      "galax": 4504,
      "magaz": 4505,
      "method": 4506,
      "theater": 4507,
      "heh": 4508,
      "kelly": 4509,
      "file": 4510,
      "disappear": 4511,
      "bedroom": 4512,
      "signor": 4513,
      "gus": 4514,
      "hired": 4515,
      "degre": 4516,
      "persu": 4517,
      "cheers": 4518,
      "chosen": 4519,
      "duck": 4520,
      "weekend": 4521,
      "bastian": 4522,
      "theatre": 4523,
      "reputation": 4524,
      "degrees": 4525,
      "fab": 4526,
      "mitted": 4527,
      "swell": 4528,
      "tang": 4529,
      "ini": 4530,
      "measure": 4531,
      "rights": 4532,
      "shy": 4533,
      "empire": 4534,
      "opening": 4535,
      "instance": 4536,
      "louise": 4537,
      "incident": 4538,
      "dict": 4539,
      "library": 4540,
      "ambassador": 4541,
      "ets": 4542,
      "feng": 4543,
      "oured": 4544,
      "ashed": 4545,
      "ille": 4546,
      "sav": 4547,
      "sale": 4548,
      "matt": 4549,
      "shore": 4550,
      "ranch": 4551,
      "perial": 4552,
      "chances": 4553,
      "political": 4554,
      "rescue": 4555,
      "margaret": 4556,
      "cart": 4557,
      "insur": 4558,
      "sev": 4559,
      "eds": 4560,
      "illa": 4561,
      "sheep": 4562,
      "agu": 4563,
      "comin": 4564,
      "comfort": 4565,
      "warri": 4566,
      "sentence": 4567,
      "compli": 4568,
      "mbered": 4569,
      "boats": 4570,
      "cass": 4571,
      "oo": 4572,
      "tsu": 4573,
      "norm": 4574,
      "tickets": 4575,
      "ito": 4576,
      "nar": 4577,
      "pump": 4578,
      "rema": 4579,
      "rober": 4580,
      "thered": 4581,
      "shine": 4582,
      "estab": 4583,
      "millions": 4584,
      "healthy": 4585,
      "extraordinary": 4586,
      "oi": 4587,
      "mechan": 4588,
      "howdy": 4589,
      "indi": 4590,
      "fold": 4591,
      "exer": 4592,
      "prevent": 4593,
      "shots": 4594,
      "earn": 4595,
      "engaged": 4596,
      "merely": 4597,
      "incredible": 4598,
      "inj": 4599,
      "chat": 4600,
      "ira": 4601,
      "preg": 4602,
      "grac": 4603,
      "drove": 4604,
      "delicious": 4605,
      "convinced": 4606,
      "powder": 4607,
      "apparently": 4608,
      "lousy": 4609,
      "sep": 4610,
      "lian": 4611,
      "tip": 4612,
      "pee": 4613,
      "prophe": 4614,
      "bargain": 4615,
      "piano": 4616,
      "highly": 4617,
      "magnific": 4618,
      "bone": 4619,
      "twel": 4620,
      "stit": 4621,
      "stard": 4622,
      "unhappy": 4623,
      "plate": 4624,
      "percent": 4625,
      "career": 4626,
      "remembered": 4627,
      "exciting": 4628,
      "generous": 4629,
      "aney": 4630,
      "camera": 4631,
      "stronger": 4632,
      "archite": 4633,
      "respond": 4634,
      "keeper": 4635,
      "challenge": 4636,
      "spoken": 4637,
      "nal": 4638,
      "obe": 4639,
      "asy": 4640,
      "albert": 4641,
      "marine": 4642,
      "shower": 4643,
      "walt": 4644,
      "solution": 4645,
      "copy": 4646,
      "banks": 4647,
      "particularly": 4648,
      "negative": 4649,
      "bam": 4650,
      "kh": 4651,
      "pisto": 4652,
      "belle": 4653,
      "outfit": 4654,
      "cares": 4655,
      "moves": 4656,
      "julie": 4657,
      "insane": 4658,
      "properly": 4659,
      "transporter": 4660,
      "punishment": 4661,
      "francisco": 4662,
      "available": 4663,
      "hated": 4664,
      "assa": 4665,
      "pale": 4666,
      "monk": 4667,
      "carl": 4668,
      "prize": 4669,
      "mming": 4670,
      "versity": 4671,
      "budd": 4672,
      "details": 4673,
      "amount": 4674,
      "alice": 4675,
      "ining": 4676,
      "eration": 4677,
      "beside": 4678,
      "edge": 4679,
      "someplace": 4680,
      "rude": 4681,
      "drawing": 4682,
      "miller": 4683,
      "positive": 4684,
      "civilis": 4685,
      "kling": 4686,
      "lum": 4687,
      "belt": 4688,
      "beef": 4689,
      "progress": 4690,
      "shaolin": 4691,
      "warned": 4692,
      "buying": 4693,
      "passion": 4694,
      "jimmy": 4695,
      "thirsty": 4696,
      "pearl": 4697,
      "dread": 4698,
      "rer": 4699,
      "wings": 4700,
      "yd": 4701,
      "becoming": 4702,
      "assume": 4703,
      "hire": 4704,
      "iest": 4705,
      "perfor": 4706,
      "explan": 4707,
      "kings": 4708,
      "writer": 4709,
      "stream": 4710,
      "precisely": 4711,
      "rosa": 4712,
      "feather": 4713,
      "wave": 4714,
      "blew": 4715,
      "brandy": 4716,
      "opera": 4717,
      "telegram": 4718,
      "directly": 4719,
      "superior": 4720,
      "conversation": 4721,
      "ido": 4722,
      "pon": 4723,
      "vit": 4724,
      "belly": 4725,
      "roc": 4726,
      "fuel": 4727,
      "fis": 4728,
      "wicked": 4729,
      "alo": 4730,
      "preach": 4731,
      "stands": 4732,
      "chekov": 4733,
      "capital": 4734,
      "friendship": 4735,
      "audience": 4736,
      "stake": 4737,
      "performan": 4738,
      "22": 4739,
      "awa": 4740,
      "sink": 4741,
      "beloved": 4742,
      "weird": 4743,
      "robe": 4744,
      "fection": 4745,
      "ulate": 4746,
      "guide": 4747,
      "print": 4748,
      "greater": 4749,
      "bai": 4750,
      "traveling": 4751,
      "techni": 4752,
      "ao": 4753,
      "candy": 4754,
      "dirt": 4755,
      "nd": 4756,
      "wels": 4757,
      "ague": 4758,
      "joint": 4759,
      "workers": 4760,
      "supply": 4761,
      "oted": 4762,
      "vices": 4763,
      "leading": 4764,
      "philo": 4765,
      "effort": 4766,
      "attractive": 4767,
      "girlfriend": 4768,
      "remains": 4769,
      "23": 4770,
      "easter": 4771,
      "furn": 4772,
      "flies": 4773,
      "forty": 4774,
      "terror": 4775,
      "motor": 4776,
      "yep": 4777,
      "movement": 4778,
      "nerve": 4779,
      "realise": 4780,
      "protection": 4781,
      "schedu": 4782,
      "coff": 4783,
      "kane": 4784,
      "mul": 4785,
      "inse": 4786,
      "insult": 4787,
      "sebastian": 4788,
      "gettin": 4789,
      "moral": 4790,
      "luc": 4791,
      "changing": 4792,
      "miserable": 4793,
      "cult": 4794,
      "gid": 4795,
      "plot": 4796,
      "rear": 4797,
      "quis": 4798,
      "friday": 4799,
      "tries": 4800,
      "fighter": 4801,
      "deny": 4802,
      "recei": 4803,
      "punished": 4804,
      "tiny": 4805,
      "creatures": 4806,
      "bap": 4807,
      "kn": 4808,
      "holly": 4809,
      "unknown": 4810,
      "conqu": 4811,
      "afterwards": 4812,
      "atory": 4813,
      "beaten": 4814,
      "eleph": 4815,
      "joined": 4816,
      "batta": 4817,
      "production": 4818,
      "loaded": 4819,
      "sneak": 4820,
      "hut": 4821,
      "june": 4822,
      "weal": 4823,
      "idio": 4824,
      "hore": 4825,
      "acks": 4826,
      "bored": 4827,
      "university": 4828,
      "ensive": 4829,
      "wasting": 4830,
      "recently": 4831,
      "holiday": 4832,
      "patrol": 4833,
      "twelve": 4834,
      "zor": 4835,
      "thick": 4836,
      "hears": 4837,
      "soci": 4838,
      "estate": 4839,
      "federation": 4840,
      "instructions": 4841,
      "students": 4842,
      "influ": 4843,
      "aid": 4844,
      "task": 4845,
      "chim": 4846,
      "imperial": 4847,
      "gues": 4848,
      "process": 4849,
      "rank": 4850,
      "tribut": 4851,
      "counting": 4852,
      "bitter": 4853,
      "showing": 4854,
      "charges": 4855,
      "ttes": 4856,
      "native": 4857,
      "jackson": 4858,
      "modern": 4859,
      "satisfied": 4860,
      "bby": 4861,
      "lisa": 4862,
      "servation": 4863,
      "swimming": 4864,
      "struck": 4865,
      "cellar": 4866,
      "nancy": 4867,
      "bishop": 4868,
      "stardate": 4869,
      "philoso": 4870,
      "bage": 4871,
      "yam": 4872,
      "zato": 4873,
      "goodnight": 4874,
      "convic": 4875,
      "prime": 4876,
      "reality": 4877,
      "winning": 4878,
      "staring": 4879,
      "interf": 4880,
      "based": 4881,
      "alexander": 4882,
      "fascin": 4883,
      "celebrate": 4884,
      "liberty": 4885,
      "including": 4886,
      "anxious": 4887,
      "dess": 4888,
      "wra": 4889,
      "cathy": 4890,
      "nico": 4891,
      "patch": 4892,
      "daniel": 4893,
      "196": 4894,
      "suitcase": 4895,
      "bobby": 4896,
      "jacket": 4897,
      "blanche": 4898,
      "regiment": 4899,
      "dish": 4900,
      "kan": 4901,
      "lend": 4902,
      "inher": 4903,
      "orts": 4904,
      "aron": 4905,
      "wipe": 4906,
      "ices": 4907,
      "gray": 4908,
      "apple": 4909,
      "function": 4910,
      "doctors": 4911,
      "patience": 4912,
      "trained": 4913,
      "straw": 4914,
      "value": 4915,
      "stealing": 4916,
      "intelligence": 4917,
      "discipl": 4918,
      "wander": 4919,
      "lean": 4920,
      "wered": 4921,
      "bled": 4922,
      "marvel": 4923,
      "prepar": 4924,
      "lug": 4925,
      "create": 4926,
      "choco": 4927,
      "licate": 4928,
      "statement": 4929,
      "comrades": 4930,
      "28": 4931,
      "70": 4932,
      "bb": 4933,
      "rings": 4934,
      "remove": 4935,
      "señ": 4936,
      "wives": 4937,
      "actor": 4938,
      "ently": 4939,
      "exha": 4940,
      "created": 4941,
      "plays": 4942,
      "july": 4943,
      "solve": 4944,
      "heavens": 4945,
      "assistant": 4946,
      "insurance": 4947,
      "90": 4948,
      "jet": 4949,
      "ths": 4950,
      "lius": 4951,
      "pole": 4952,
      "llets": 4953,
      "kichi": 4954,
      "arettes": 4955,
      "mani": 4956,
      "spit": 4957,
      "conditions": 4958,
      "curse": 4959,
      "committee": 4960,
      "stubborn": 4961,
      "400": 4962,
      "bul": 4963,
      "gli": 4964,
      "lang": 4965,
      "mask": 4966,
      "ouch": 4967,
      "repair": 4968,
      "aries": 4969,
      "cel": 4970,
      "solid": 4971,
      "handed": 4972,
      "leslie": 4973,
      "dame": 4974,
      "genius": 4975,
      "sensor": 4976,
      "beings": 4977,
      "sweat": 4978,
      "numbers": 4979,
      "apolog": 4980,
      "jumped": 4981,
      "cigarettes": 4982,
      "ralph": 4983,
      "material": 4984,
      "performance": 4985,
      "image": 4986,
      "heli": 4987,
      "aded": 4988,
      "unte": 4989,
      "nest": 4990,
      "poem": 4991,
      "plato": 4992,
      "eva": 4993,
      "tempor": 4994,
      "starfleet": 4995,
      "fellows": 4996,
      "enjoyed": 4997,
      "realized": 4998,
      "demonstr": 4999,
      "affairs": 5000,
      "thursday": 5001,
      "blad": 5002,
      "nove": 5003,
      "rog": 5004,
      "maker": 5005,
      "cave": 5006,
      "series": 5007,
      "valu": 5008,
      "directed": 5009,
      "volunte": 5010,
      "recogn": 5011,
      "ceremony": 5012,
      "zatoichi": 5013,
      "ffe": 5014,
      "lup": 5015,
      "nun": 5016,
      "xon": 5017,
      "rod": 5018,
      "rode": 5019,
      "useful": 5020,
      "igno": 5021,
      "impression": 5022,
      "sensit": 5023,
      "boris": 5024,
      "flood": 5025,
      "score": 5026,
      "brig": 5027,
      "flor": 5028,
      "smells": 5029,
      "ppers": 5030,
      "stretch": 5031,
      "tradition": 5032,
      "baker": 5033,
      "disappointed": 5034,
      "individ": 5035,
      "lance": 5036,
      "ole": 5037,
      "qing": 5038,
      "zar": 5039,
      "edward": 5040,
      "manner": 5041,
      "grandmother": 5042,
      "peaceful": 5043,
      "lamp": 5044,
      "contrary": 5045,
      "route": 5046,
      "diamonds": 5047,
      "intention": 5048,
      "district": 5049,
      "witnesses": 5050,
      "supplies": 5051,
      "interfere": 5052,
      "xter": 5053,
      "sequ": 5054,
      "entered": 5055,
      "imate": 5056,
      "sphere": 5057,
      "throne": 5058,
      "gia": 5059,
      "barn": 5060,
      "senator": 5061,
      "valry": 5062,
      "confidence": 5063,
      "fishing": 5064,
      "disgusting": 5065,
      "gil": 5066,
      "oth": 5067,
      "oon": 5068,
      "forgiven": 5069,
      "gel": 5070,
      "ability": 5071,
      "laun": 5072,
      "expert": 5073,
      "bran": 5074,
      "dip": 5075,
      "ruined": 5076,
      "dynam": 5077,
      "jewel": 5078,
      "engines": 5079,
      "figures": 5080,
      "crossed": 5081,
      "popular": 5082,
      "deputy": 5083,
      "bart": 5084,
      "kath": 5085,
      "sno": 5086,
      "stall": 5087,
      "argue": 5088,
      "dep": 5089,
      "bullets": 5090,
      "steam": 5091,
      "client": 5092,
      "saddle": 5093,
      "suffered": 5094,
      "galaxy": 5095,
      "tes": 5096,
      "zha": 5097,
      "agger": 5098,
      "marcus": 5099,
      "bron": 5100,
      "carriage": 5101,
      "kinda": 5102,
      "vio": 5103,
      "fanny": 5104,
      "instit": 5105,
      "pushed": 5106,
      "investigation": 5107,
      "tunnel": 5108,
      "source": 5109,
      "equal": 5110,
      "wanting": 5111,
      "yell": 5112,
      "ulse": 5113,
      "stopping": 5114,
      "gru": 5115,
      "gau": 5116,
      "tender": 5117,
      "countess": 5118,
      "circus": 5119,
      "favorite": 5120,
      "tracks": 5121,
      "twist": 5122,
      "determined": 5123,
      "alle": 5124,
      "combat": 5125,
      "bles": 5126,
      "chess": 5127,
      "rats": 5128,
      "quire": 5129,
      "prayer": 5130,
      "spirits": 5131,
      "psycho": 5132,
      "practically": 5133,
      "screaming": 5134,
      "rier": 5135,
      "dean": 5136,
      "brush": 5137,
      "pau": 5138,
      "waters": 5139,
      "dreamed": 5140,
      "painted": 5141,
      "temp": 5142,
      "servants": 5143,
      "circle": 5144,
      "bombs": 5145,
      "bli": 5146,
      "gment": 5147,
      "oni": 5148,
      "toi": 5149,
      "seas": 5150,
      "decor": 5151,
      "harvey": 5152,
      "license": 5153,
      "roads": 5154,
      "screw": 5155,
      "greeting": 5156,
      "magnificent": 5157,
      "iko": 5158,
      "kra": 5159,
      "pok": 5160,
      "hei": 5161,
      "chose": 5162,
      "cage": 5163,
      "launch": 5164,
      "assass": 5165,
      "matic": 5166,
      "horn": 5167,
      "winner": 5168,
      "shouting": 5169,
      "physical": 5170,
      "sults": 5171,
      "forbidden": 5172,
      "strangers": 5173,
      "explanation": 5174,
      "exhaust": 5175,
      "gig": 5176,
      "jord": 5177,
      "sally": 5178,
      "tte": 5179,
      "recommend": 5180,
      "engage": 5181,
      "unable": 5182,
      "solo": 5183,
      "entrance": 5184,
      "lookin": 5185,
      "setting": 5186,
      "miguel": 5187,
      "chocolate": 5188,
      "mn": 5189,
      "mack": 5190,
      "vig": 5191,
      "zes": 5192,
      "sele": 5193,
      "herd": 5194,
      "woke": 5195,
      "provide": 5196,
      "counts": 5197,
      "breed": 5198,
      "chain": 5199,
      "announce": 5200,
      "thieves": 5201,
      "admire": 5202,
      "swallow": 5203,
      "yas": 5204,
      "yards": 5205,
      "zie": 5206,
      "powers": 5207,
      "plum": 5208,
      "lina": 5209,
      "jesse": 5210,
      "fifteen": 5211,
      "cheese": 5212,
      "customers": 5213,
      "pregnant": 5214,
      "aut": 5215,
      "bend": 5216,
      "fli": 5217,
      "recall": 5218,
      "arab": 5219,
      "beha": 5220,
      "docu": 5221,
      "alter": 5222,
      "demo": 5223,
      "constru": 5224,
      "ilar": 5225,
      "vile": 5226,
      "wins": 5227,
      "employ": 5228,
      "deeply": 5229,
      "phew": 5230,
      "desperate": 5231,
      "policy": 5232,
      "kers": 5233,
      "leng": 5234,
      "atmo": 5235,
      "enger": 5236,
      "doy": 5237,
      "advis": 5238,
      "abu": 5239,
      "mistaken": 5240,
      "exception": 5241,
      "destiny": 5242,
      "accused": 5243,
      "kicked": 5244,
      "families": 5245,
      "xiao": 5246,
      "behavi": 5247,
      "cad": 5248,
      "issue": 5249,
      "exchange": 5250,
      "affect": 5251,
      "shoe": 5252,
      "talks": 5253,
      "tics": 5254,
      "warden": 5255,
      "similar": 5256,
      "fairy": 5257,
      "changes": 5258,
      "gorge": 5259,
      "engineer": 5260,
      "gambling": 5261,
      "practical": 5262,
      "separate": 5263,
      "embarrass": 5264,
      "yi": 5265,
      "theory": 5266,
      "atlan": 5267,
      "hoo": 5268,
      "soap": 5269,
      "oka": 5270,
      "cking": 5271,
      "naz": 5272,
      "alien": 5273,
      "imagination": 5274,
      "circu": 5275,
      "considered": 5276,
      "panic": 5277,
      "fifth": 5278,
      "rifles": 5279,
      "marvelous": 5280,
      "26": 5281,
      "zard": 5282,
      "secure": 5283,
      "roses": 5284,
      "washed": 5285,
      "whip": 5286,
      "traffic": 5287,
      "parad": 5288,
      "sweep": 5289,
      "execution": 5290,
      "conduct": 5291,
      "cree": 5292,
      "fence": 5293,
      "ith": 5294,
      "kur": 5295,
      "retire": 5296,
      "sets": 5297,
      "beans": 5298,
      "chill": 5299,
      "covery": 5300,
      "ambit": 5301,
      "icy": 5302,
      "propose": 5303,
      "disaster": 5304,
      "closing": 5305,
      "finest": 5306,
      "worrying": 5307,
      "ggy": 5308,
      "operator": 5309,
      "accepted": 5310,
      "sacred": 5311,
      "pills": 5312,
      "gic": 5313,
      "osa": 5314,
      "replace": 5315,
      "lim": 5316,
      "ril": 5317,
      "sore": 5318,
      "polish": 5319,
      "india": 5320,
      "fake": 5321,
      "divine": 5322,
      "matsu": 5323,
      "steel": 5324,
      "studying": 5325,
      "kawa": 5326,
      "villa": 5327,
      "tues": 5328,
      "script": 5329,
      "elizabeth": 5330,
      "helicop": 5331,
      "aii": 5332,
      "units": 5333,
      "polly": 5334,
      "conde": 5335,
      "possibility": 5336,
      "cub": 5337,
      "leaders": 5338,
      "silk": 5339,
      "treatment": 5340,
      "searching": 5341,
      "temperature": 5342,
      "relationship": 5343,
      "sensitive": 5344,
      "ired": 5345,
      "mie": 5346,
      "reaction": 5347,
      "festi": 5348,
      "mah": 5349,
      "shr": 5350,
      "tooth": 5351,
      "lucy": 5352,
      "kindly": 5353,
      "breast": 5354,
      "complic": 5355,
      "yuki": 5356,
      "ghest": 5357,
      "liquor": 5358,
      "bump": 5359,
      "dough": 5360,
      "rebe": 5361,
      "impress": 5362,
      "wondered": 5363,
      "minor": 5364,
      "emil": 5365,
      "simon": 5366,
      "romantic": 5367,
      "greek": 5368,
      "mexican": 5369,
      "kissed": 5370,
      "brid": 5371,
      "cities": 5372,
      "gion": 5373,
      "gates": 5374,
      "oto": 5375,
      "refle": 5376,
      "stir": 5377,
      "stones": 5378,
      "wei": 5379,
      "pless": 5380,
      "marian": 5381,
      "boyfriend": 5382,
      "gious": 5383,
      "attered": 5384,
      "campa": 5385,
      "phie": 5386,
      "reported": 5387,
      "dutch": 5388,
      "suspicious": 5389,
      "eag": 5390,
      "mour": 5391,
      "assed": 5392,
      "weigh": 5393,
      "nell": 5394,
      "tering": 5395,
      "oko": 5396,
      "tsar": 5397,
      "waiter": 5398,
      "offici": 5399,
      "bella": 5400,
      "title": 5401,
      "cotton": 5402,
      "squee": 5403,
      "education": 5404,
      "aver": 5405,
      "bars": 5406,
      "thel": 5407,
      "lda": 5408,
      "loan": 5409,
      "protest": 5410,
      "stays": 5411,
      "answers": 5412,
      "phara": 5413,
      "dave": 5414,
      "blon": 5415,
      "harold": 5416,
      "ashing": 5417,
      "michel": 5418,
      "successful": 5419,
      "achieve": 5420,
      "guarantee": 5421,
      "pharaoh": 5422,
      "jun": 5423,
      "inch": 5424,
      "domin": 5425,
      "plat": 5426,
      "gran": 5427,
      "fried": 5428,
      "lads": 5429,
      "trapped": 5430,
      "nerves": 5431,
      "charley": 5432,
      "walker": 5433,
      "tables": 5434,
      "throwing": 5435,
      "strict": 5436,
      "cooking": 5437,
      "bowl": 5438,
      "faithful": 5439,
      "bernard": 5440,
      "munition": 5441,
      "ani": 5442,
      "nope": 5443,
      "oda": 5444,
      "ifu": 5445,
      "sucker": 5446,
      "provin": 5447,
      "spin": 5448,
      "uhura": 5449,
      "posite": 5450,
      "ono": 5451,
      "attor": 5452,
      "retreat": 5453,
      "goose": 5454,
      "wie": 5455,
      "ammunition": 5456,
      "compet": 5457,
      "cheat": 5458,
      "ako": 5459,
      "talkin": 5460,
      "discover": 5461,
      "counsel": 5462,
      "dealing": 5463,
      "secrets": 5464,
      "turkey": 5465,
      "tub": 5466,
      "delivered": 5467,
      "honestly": 5468,
      "maiden": 5469,
      "atmosphere": 5470,
      "attorney": 5471,
      "ape": 5472,
      "kam": 5473,
      "rd": 5474,
      "sn": 5475,
      "stations": 5476,
      "lemon": 5477,
      "kett": 5478,
      "chasing": 5479,
      "shell": 5480,
      "fog": 5481,
      "pike": 5482,
      "visible": 5483,
      "cats": 5484,
      "casual": 5485,
      "raymond": 5486,
      "wasted": 5487,
      "professional": 5488,
      "pistol": 5489,
      "coffin": 5490,
      "vas": 5491,
      "carlo": 5492,
      "moments": 5493,
      "freeze": 5494,
      "grain": 5495,
      "invitation": 5496,
      "teaching": 5497,
      "robbery": 5498,
      "magazine": 5499,
      "aled": 5500,
      "jar": 5501,
      "oak": 5502,
      "yin": 5503,
      "anders": 5504,
      "asion": 5505,
      "ashes": 5506,
      "aya": 5507,
      "fei": 5508,
      "quin": 5509,
      "grat": 5510,
      "mato": 5511,
      "disgrace": 5512,
      "lessons": 5513,
      "kore": 5514,
      "drawn": 5515,
      "legal": 5516,
      "opposite": 5517,
      "profit": 5518,
      "ization": 5519,
      "complex": 5520,
      "pigs": 5521,
      "jenny": 5522,
      "mystery": 5523,
      "civilisation": 5524,
      "doyle": 5525,
      "campaign": 5526,
      "amy": 5527,
      "gie": 5528,
      "iv": 5529,
      "swit": 5530,
      "andal": 5531,
      "chor": 5532,
      "lap": 5533,
      "proved": 5534,
      "nightmare": 5535,
      "charged": 5536,
      "drew": 5537,
      "frequ": 5538,
      "elev": 5539,
      "basket": 5540,
      "sailor": 5541,
      "released": 5542,
      "polite": 5543,
      "dynamite": 5544,
      "bass": 5545,
      "juni": 5546,
      "heir": 5547,
      "associ": 5548,
      "goat": 5549,
      "entist": 5550,
      "contest": 5551,
      "mostly": 5552,
      "player": 5553,
      "cleaning": 5554,
      "confused": 5555,
      "robbed": 5556,
      "sandwi": 5557,
      "violent": 5558,
      "failure": 5559,
      "unfortunate": 5560,
      "cried": 5561,
      "equ": 5562,
      "vali": 5563,
      "asia": 5564,
      "doo": 5565,
      "und": 5566,
      "rael": 5567,
      "foo": 5568,
      "holds": 5569,
      "chapel": 5570,
      "curtain": 5571,
      "instant": 5572,
      "rolling": 5573,
      "convince": 5574,
      "customer": 5575,
      "destruction": 5576,
      "pitch": 5577,
      "refer": 5578,
      "seur": 5579,
      "chitty": 5580,
      "nephew": 5581,
      "upper": 5582,
      "deaf": 5583,
      "cavalry": 5584,
      "napo": 5585,
      "drank": 5586,
      "throughout": 5587,
      "blown": 5588,
      "dull": 5589,
      "cutting": 5590,
      "string": 5591,
      "boring": 5592,
      "phil": 5593,
      "bible": 5594,
      "advent": 5595,
      "advise": 5596,
      "produce": 5597,
      "exercise": 5598,
      "battalion": 5599,
      "ien": 5600,
      "mouse": 5601,
      "pra": 5602,
      "rou": 5603,
      "resid": 5604,
      "rett": 5605,
      "donald": 5606,
      "masters": 5607,
      "cai": 5608,
      "sufficient": 5609,
      "exists": 5610,
      "wol": 5611,
      "puts": 5612,
      "bandits": 5613,
      "tomb": 5614,
      "learning": 5615,
      "flew": 5616,
      "radi": 5617,
      "bombing": 5618,
      "centuries": 5619,
      "developed": 5620,
      "surrounded": 5621,
      "toilet": 5622,
      "napoleon": 5623,
      "hates": 5624,
      "og": 5625,
      "tide": 5626,
      "thri": 5627,
      "pey": 5628,
      "peas": 5629,
      "manners": 5630,
      "morris": 5631,
      "grade": 5632,
      "aku": 5633,
      "magistr": 5634,
      "crip": 5635,
      "purse": 5636,
      "hyah": 5637,
      "elder": 5638,
      "odds": 5639,
      "electri": 5640,
      "railroad": 5641,
      "ckets": 5642,
      "hans": 5643,
      "rit": 5644,
      "informed": 5645,
      "height": 5646,
      "bore": 5647,
      "anyhow": 5648,
      "timen": 5649,
      "concl": 5650,
      "compl": 5651,
      "pract": 5652,
      "oughta": 5653,
      "omi": 5654,
      "giant": 5655,
      "hara": 5656,
      "quietly": 5657,
      "yoshi": 5658,
      "susan": 5659,
      "laughs": 5660,
      "duties": 5661,
      "agreement": 5662,
      "memories": 5663,
      "betrayed": 5664,
      "stroke": 5665,
      "corpse": 5666,
      "buddha": 5667,
      "lupin": 5668,
      "38": 5669,
      "junk": 5670,
      "kans": 5671,
      "uno": 5672,
      "inven": 5673,
      "stan": 5674,
      "manue": 5675,
      "brace": 5676,
      "buzz": 5677,
      "aka": 5678,
      "parties": 5679,
      "sentimen": 5680,
      "debt": 5681,
      "phasers": 5682,
      "magistrate": 5683,
      "results": 5684,
      "waves": 5685,
      "ideal": 5686,
      "brut": 5687,
      "spill": 5688,
      "readings": 5689,
      "bug": 5690,
      "begging": 5691,
      "burst": 5692,
      "phia": 5693,
      "oscar": 5694,
      "approve": 5695,
      "community": 5696,
      "ghosts": 5697,
      "clouds": 5698,
      "antonio": 5699,
      "citizens": 5700,
      "spanish": 5701,
      "fascinating": 5702,
      "discipline": 5703,
      "hend": 5704,
      "mck": 5705,
      "wars": 5706,
      "enor": 5707,
      "behalf": 5708,
      "coinc": 5709,
      "trace": 5710,
      "berry": 5711,
      "babies": 5712,
      "begins": 5713,
      "gently": 5714,
      "hopeless": 5715,
      "signs": 5716,
      "marrying": 5717,
      "boun": 5718,
      "zzy": 5719,
      "anno": 5720,
      "attr": 5721,
      "notes": 5722,
      "feast": 5723,
      "hers": 5724,
      "project": 5725,
      "rane": 5726,
      "kindness": 5727,
      "mitch": 5728,
      "tillery": 5729,
      "flee": 5730,
      "checking": 5731,
      "hammer": 5732,
      "channel": 5733,
      "balance": 5734,
      "kneel": 5735,
      "commissioner": 5736,
      "abandon": 5737,
      "article": 5738,
      "remarkable": 5739,
      "bailey": 5740,
      "paradise": 5741,
      "hart": 5742,
      "ller": 5743,
      "lei": 5744,
      "hibit": 5745,
      "uring": 5746,
      "torn": 5747,
      "shopping": 5748,
      "answered": 5749,
      "desc": 5750,
      "importance": 5751,
      "kissing": 5752,
      "religion": 5753,
      "defeated": 5754,
      "resistance": 5755,
      "crawl": 5756,
      "señor": 5757,
      "platoon": 5758,
      "cine": 5759,
      "flu": 5760,
      "tched": 5761,
      "üh": 5762,
      "ont": 5763,
      "rian": 5764,
      "butcher": 5765,
      "aging": 5766,
      "expen": 5767,
      "offensive": 5768,
      "gren": 5769,
      "chop": 5770,
      "attles": 5771,
      "hunger": 5772,
      "strate": 5773,
      "fires": 5774,
      "babe": 5775,
      "bottles": 5776,
      "systems": 5777,
      "ambul": 5778,
      "drowned": 5779,
      "idiots": 5780,
      "dim": 5781,
      "inct": 5782,
      "research": 5783,
      "israel": 5784,
      "hem": 5785,
      "almighty": 5786,
      "accompl": 5787,
      "felix": 5788,
      "rape": 5789,
      "spain": 5790,
      "shoulders": 5791,
      "senior": 5792,
      "juice": 5793,
      "pip": 5794,
      "smiling": 5795,
      "susie": 5796,
      "difficul": 5797,
      "jerk": 5798,
      "lamb": 5799,
      "sacri": 5800,
      "religious": 5801,
      "confession": 5802,
      "plague": 5803,
      "phaser": 5804,
      "fashion": 5805,
      "eternal": 5806,
      "assault": 5807,
      "festival": 5808,
      "bian": 5809,
      "lane": 5810,
      "uary": 5811,
      "wong": 5812,
      "wreck": 5813,
      "hesit": 5814,
      "needn": 5815,
      "hurting": 5816,
      "shown": 5817,
      "visions": 5818,
      "painful": 5819,
      "leads": 5820,
      "frankly": 5821,
      "crook": 5822,
      "football": 5823,
      "liter": 5824,
      "struggle": 5825,
      "beneath": 5826,
      "citizen": 5827,
      "column": 5828,
      "shelter": 5829,
      "bin": 5830,
      "dign": 5831,
      "begun": 5832,
      "weep": 5833,
      "allen": 5834,
      "allison": 5835,
      "tale": 5836,
      "neut": 5837,
      "goods": 5838,
      "worship": 5839,
      "sports": 5840,
      "vienna": 5841,
      "studio": 5842,
      "latest": 5843,
      "legend": 5844,
      "frontier": 5845,
      "garage": 5846,
      "trusted": 5847,
      "dressing": 5848,
      "device": 5849,
      "blows": 5850,
      "defendant": 5851,
      "elephant": 5852,
      "greetings": 5853,
      "29": 5854,
      "36": 5855,
      "75": 5856,
      "füh": 5857,
      "ghed": 5858,
      "xu": 5859,
      "yun": 5860,
      "init": 5861,
      "artillery": 5862,
      "beck": 5863,
      "acu": 5864,
      "soviet": 5865,
      "mobi": 5866,
      "poe": 5867,
      "indust": 5868,
      "agency": 5869,
      "ppy": 5870,
      "mik": 5871,
      "huang": 5872,
      "spoil": 5873,
      "scum": 5874,
      "lawrence": 5875,
      "scarlet": 5876,
      "neighborhood": 5877,
      "schedule": 5878,
      "violet": 5879,
      "enormous": 5880,
      "aven": 5881,
      "dang": 5882,
      "nand": 5883,
      "oly": 5884,
      "swed": 5885,
      "stain": 5886,
      "rial": 5887,
      "manion": 5888,
      "emma": 5889,
      "brook": 5890,
      "penal": 5891,
      "landed": 5892,
      "barney": 5893,
      "jobs": 5894,
      "starving": 5895,
      "brian": 5896,
      "judgment": 5897,
      "infant": 5898,
      "establish": 5899,
      "injured": 5900,
      "führer": 5901,
      "2nd": 5902,
      "jing": 5903,
      "lace": 5904,
      "muse": 5905,
      "zhen": 5906,
      "és": 5907,
      "ids": 5908,
      "posal": 5909,
      "shark": 5910,
      "spite": 5911,
      "mates": 5912,
      "pene": 5913,
      "attitude": 5914,
      "cler": 5915,
      "colour": 5916,
      "visiting": 5917,
      "tted": 5918,
      "passport": 5919,
      "independ": 5920,
      "guilt": 5921,
      "busted": 5922,
      "whistle": 5923,
      "dreadful": 5924,
      "fisher": 5925,
      "influence": 5926,
      "gorgeous": 5927,
      "glo": 5928,
      "iture": 5929,
      "orphan": 5930,
      "costu": 5931,
      "pecu": 5932,
      "suits": 5933,
      "nah": 5934,
      "chio": 5935,
      "angelo": 5936,
      "personnel": 5937,
      "factor": 5938,
      "strip": 5939,
      "smoking": 5940,
      "produced": 5941,
      "ernst": 5942,
      "scratch": 5943,
      "peculiar": 5944,
      "cti": 5945,
      "jason": 5946,
      "tend": 5947,
      "cannon": 5948,
      "absur": 5949,
      "butt": 5950,
      "pron": 5951,
      "kills": 5952,
      "underground": 5953,
      "chester": 5954,
      "lifetime": 5955,
      "serving": 5956,
      "sible": 5957,
      "believes": 5958,
      "steak": 5959,
      "walks": 5960,
      "corrid": 5961,
      "franz": 5962,
      "formal": 5963,
      "prints": 5964,
      "smooth": 5965,
      "emplo": 5966,
      "songs": 5967,
      "cigar": 5968,
      "granted": 5969,
      "skills": 5970,
      "mysterious": 5971,
      "fuss": 5972,
      "occurred": 5973,
      "individual": 5974,
      "absurd": 5975,
      "150": 5976,
      "600": 5977,
      "fits": 5978,
      "oath": 5979,
      "anto": 5980,
      "rein": 5981,
      "roast": 5982,
      "alvin": 5983,
      "ides": 5984,
      "tag": 5985,
      "naught": 5986,
      "lazy": 5987,
      "trunk": 5988,
      "angle": 5989,
      "selfish": 5990,
      "meanwhile": 5991,
      "grey": 5992,
      "speci": 5993,
      "watson": 5994,
      "empress": 5995,
      "closet": 5996,
      "phoned": 5997,
      "vius": 5998,
      "scen": 5999,
      "policeman": 6000,
      "kaji": 6001,
      "dancer": 6002,
      "bills": 6003,
      "effe": 6004,
      "yuri": 6005,
      "heroes": 6006,
      "zero": 6007,
      "pussy": 6008,
      "blanket": 6009,
      "eventually": 6010,
      "diplo": 6011,
      "tune": 6012,
      "cane": 6013,
      "perfu": 6014,
      "headache": 6015,
      "travis": 6016,
      "blowing": 6017,
      "hanged": 6018,
      "garbage": 6019,
      "presents": 6020,
      "cleaned": 6021,
      "summon": 6022,
      "enjoying": 6023,
      "hopes": 6024,
      "pushing": 6025,
      "engineering": 6026,
      "existence": 6027,
      "breathing": 6028,
      "drugs": 6029,
      "barely": 6030,
      "septe": 6031,
      "jordan": 6032,
      "vice": 6033,
      "inger": 6034,
      "sear": 6035,
      "ays": 6036,
      "edo": 6037,
      "dol": 6038,
      "lily": 6039,
      "ala": 6040,
      "coordin": 6041,
      "term": 6042,
      "dell": 6043,
      "urs": 6044,
      "ders": 6045,
      "tennis": 6046,
      "baba": 6047,
      "farmer": 6048,
      "centre": 6049,
      "colony": 6050,
      "bait": 6051,
      "civiliz": 6052,
      "identify": 6053,
      "kansas": 6054,
      "september": 6055,
      "bure": 6056,
      "zhi": 6057,
      "thum": 6058,
      "sten": 6059,
      "ode": 6060,
      "mob": 6061,
      "somewhat": 6062,
      "raped": 6063,
      "worries": 6064,
      "shir": 6065,
      "meantime": 6066,
      "sorrow": 6067,
      "homes": 6068,
      "worlds": 6069,
      "sins": 6070,
      "jewels": 6071,
      "corps": 6072,
      "publ": 6073,
      "pile": 6074,
      "nich": 6075,
      "teddy": 6076,
      "logic": 6077,
      "sara": 6078,
      "increase": 6079,
      "embarrassed": 6080,
      "technique": 6081,
      "hitting": 6082,
      "scra": 6083,
      "tina": 6084,
      "yama": 6085,
      "tap": 6086,
      "delicate": 6087,
      "raw": 6088,
      "goddess": 6089,
      "trium": 6090,
      "content": 6091,
      "kiku": 6092,
      "positions": 6093,
      "burnt": 6094,
      "gordon": 6095,
      "humili": 6096,
      "concentrate": 6097,
      "obliged": 6098,
      "museum": 6099,
      "fist": 6100,
      "kil": 6101,
      "stable": 6102,
      "lester": 6103,
      "bells": 6104,
      "vera": 6105,
      "accur": 6106,
      "nail": 6107,
      "quo": 6108,
      "daily": 6109,
      "jews": 6110,
      "cora": 6111,
      "tress": 6112,
      "souls": 6113,
      "nik": 6114,
      "burden": 6115,
      "wallet": 6116,
      "belonged": 6117,
      "bothering": 6118,
      "austra": 6119,
      "caroline": 6120,
      "bleeding": 6121,
      "coincidence": 6122,
      "1st": 6123,
      "vam": 6124,
      "returning": 6125,
      "vehi": 6126,
      "gosh": 6127,
      "wig": 6128,
      "ainted": 6129,
      "stops": 6130,
      "standard": 6131,
      "shack": 6132,
      "helps": 6133,
      "carrie": 6134,
      "serves": 6135,
      "gene": 6136,
      "barrel": 6137,
      "dude": 6138,
      "fights": 6139,
      "driven": 6140,
      "breaks": 6141,
      "generals": 6142,
      "dedic": 6143,
      "authorities": 6144,
      "threatened": 6145,
      "potatoes": 6146,
      "november": 6147,
      "alike": 6148,
      "fant": 6149,
      "anaga": 6150,
      "onic": 6151,
      "envy": 6152,
      "noti": 6153,
      "allies": 6154,
      "usale": 6155,
      "mos": 6156,
      "petro": 6157,
      "illness": 6158,
      "sumed": 6159,
      "toranaga": 6160,
      "shove": 6161,
      "este": 6162,
      "excite": 6163,
      "pretending": 6164,
      "engers": 6165,
      "hua": 6166,
      "scound": 6167,
      "frances": 6168,
      "cris": 6169,
      "freder": 6170,
      "invent": 6171,
      "honeymoon": 6172,
      "turk": 6173,
      "grief": 6174,
      "costs": 6175,
      "humble": 6176,
      "reminds": 6177,
      "newspapers": 6178,
      "convention": 6179,
      "occupied": 6180,
      "helicopter": 6181,
      "triumph": 6182,
      "usalem": 6183,
      "32": 6184,
      "cé": 6185,
      "gut": 6186,
      "gim": 6187,
      "nations": 6188,
      "rist": 6189,
      "stic": 6190,
      "nold": 6191,
      "edition": 6192,
      "geo": 6193,
      "ryan": 6194,
      "ignor": 6195,
      "bully": 6196,
      "cip": 6197,
      "intended": 6198,
      "gio": 6199,
      "ughters": 6200,
      "flash": 6201,
      "scienti": 6202,
      "jerusalem": 6203,
      "britain": 6204,
      "statue": 6205,
      "routine": 6206,
      "require": 6207,
      "atlantic": 6208,
      "hou": 6209,
      "kent": 6210,
      "tto": 6211,
      "limb": 6212,
      "alco": 6213,
      "acle": 6214,
      "ural": 6215,
      "worm": 6216,
      "lai": 6217,
      "quet": 6218,
      "wald": 6219,
      "daughters": 6220,
      "pays": 6221,
      "iike": 6222,
      "shortly": 6223,
      "churchill": 6224,
      "politics": 6225,
      "quality": 6226,
      "relatives": 6227,
      "wealth": 6228,
      "scientific": 6229,
      "ave": 6230,
      "oliver": 6231,
      "rin": 6232,
      "vna": 6233,
      "attic": 6234,
      "isol": 6235,
      "bears": 6236,
      "role": 6237,
      "rip": 6238,
      "yelling": 6239,
      "suck": 6240,
      "herbie": 6241,
      "helm": 6242,
      "dia": 6243,
      "warrant": 6244,
      "harvest": 6245,
      "fooling": 6246,
      "samson": 6247,
      "sandy": 6248,
      "communist": 6249,
      "approaching": 6250,
      "knights": 6251,
      "praise": 6252,
      "yag": 6253,
      "hoe": 6254,
      "highest": 6255,
      "poet": 6256,
      "saig": 6257,
      "plants": 6258,
      "shaking": 6259,
      "april": 6260,
      "otto": 6261,
      "chau": 6262,
      "duel": 6263,
      "southern": 6264,
      "international": 6265,
      "karl": 6266,
      "declare": 6267,
      "foul": 6268,
      "warrior": 6269,
      "furniture": 6270,
      "blade": 6271,
      "tuesday": 6272,
      "ike": 6273,
      "jon": 6274,
      "khan": 6275,
      "pine": 6276,
      "tum": 6277,
      "thetic": 6278,
      "itar": 6279,
      "stiff": 6280,
      "novel": 6281,
      "ashore": 6282,
      "gear": 6283,
      "canyon": 6284,
      "abs": 6285,
      "motive": 6286,
      "poi": 6287,
      "dram": 6288,
      "species": 6289,
      "cloth": 6290,
      "belief": 6291,
      "parker": 6292,
      "evol": 6293,
      "highway": 6294,
      "invasion": 6295,
      "masseur": 6296,
      "addition": 6297,
      "connection": 6298,
      "convenient": 6299,
      "emotional": 6300,
      "abandoned": 6301,
      "inherit": 6302,
      "luggage": 6303,
      "saigon": 6304,
      "37": 6305,
      "kate": 6306,
      "rang": 6307,
      "tay": 6308,
      "vard": 6309,
      "thed": 6310,
      "hare": 6311,
      "acre": 6312,
      "degree": 6313,
      "sailing": 6314,
      "trum": 6315,
      "helpless": 6316,
      "fathers": 6317,
      "services": 6318,
      "crus": 6319,
      "current": 6320,
      "safely": 6321,
      "eleven": 6322,
      "sticks": 6323,
      "offering": 6324,
      "sylvia": 6325,
      "ambulance": 6326,
      "bunk": 6327,
      "ds": 6328,
      "removed": 6329,
      "toes": 6330,
      "mei": 6331,
      "orange": 6332,
      "seated": 6333,
      "sophie": 6334,
      "mistakes": 6335,
      "drun": 6336,
      "childhood": 6337,
      "harbor": 6338,
      "appeal": 6339,
      "ential": 6340,
      "register": 6341,
      "fuckin": 6342,
      "marked": 6343,
      "recru": 6344,
      "virt": 6345,
      "jokes": 6346,
      "sympa": 6347,
      "electric": 6348,
      "despite": 6349,
      "zhang": 6350,
      "ingo": 6351,
      "ingu": 6352,
      "sector": 6353,
      "goti": 6354,
      "acade": 6355,
      "tao": 6356,
      "negoti": 6357,
      "conference": 6358,
      "daylight": 6359,
      "jolly": 6360,
      "disgu": 6361,
      "stella": 6362,
      "gler": 6363,
      "laughed": 6364,
      "ringo": 6365,
      "wooden": 6366,
      "palm": 6367,
      "deserted": 6368,
      "crossing": 6369,
      "disturbed": 6370,
      "designed": 6371,
      "provided": 6372,
      "eastern": 6373,
      "antoine": 6374,
      "effective": 6375,
      "3rd": 6376,
      "dice": 6377,
      "fts": 6378,
      "fting": 6379,
      "mbed": 6380,
      "tent": 6381,
      "wished": 6382,
      "wrap": 6383,
      "cease": 6384,
      "coin": 6385,
      "mau": 6386,
      "sales": 6387,
      "ict": 6388,
      "perman": 6389,
      "buff": 6390,
      "discovery": 6391,
      "beats": 6392,
      "humans": 6393,
      "touching": 6394,
      "respects": 6395,
      "frighten": 6396,
      "assigned": 6397,
      "savage": 6398,
      "complicated": 6399,
      "av": 6400,
      "await": 6401,
      "karen": 6402,
      "piss": 6403,
      "issu": 6404,
      "goal": 6405,
      "chaney": 6406,
      "motel": 6407,
      "illes": 6408,
      "consequ": 6409,
      "betty": 6410,
      "joan": 6411,
      "apache": 6412,
      "clown": 6413,
      "supreme": 6414,
      "stepped": 6415,
      "bits": 6416,
      "charity": 6417,
      "lightning": 6418,
      "earned": 6419,
      "trem": 6420,
      "sounded": 6421,
      "salv": 6422,
      "jackie": 6423,
      "henri": 6424,
      "copper": 6425,
      "claus": 6426,
      "spending": 6427,
      "folk": 6428,
      "zoo": 6429,
      "wisdom": 6430,
      "tattoo": 6431,
      "relief": 6432,
      "reveal": 6433,
      "conquer": 6434,
      "elevator": 6435,
      "bach": 6436,
      "fid": 6437,
      "kok": 6438,
      "wart": 6439,
      "haul": 6440,
      "forgetting": 6441,
      "tak": 6442,
      "neath": 6443,
      "dez": 6444,
      "tons": 6445,
      "angeles": 6446,
      "sends": 6447,
      "victi": 6448,
      "nearby": 6449,
      "joining": 6450,
      "hyster": 6451,
      "publi": 6452,
      "basement": 6453,
      "chairman": 6454,
      "blessing": 6455,
      "argument": 6456,
      "glorious": 6457,
      "companion": 6458,
      "scale": 6459,
      "valuable": 6460,
      "cind": 6461,
      "dson": 6462,
      "hir": 6463,
      "kon": 6464,
      "ored": 6465,
      "reject": 6466,
      "sober": 6467,
      "coal": 6468,
      "ounced": 6469,
      "dix": 6470,
      "sessed": 6471,
      "cution": 6472,
      "bandit": 6473,
      "sku": 6474,
      "crush": 6475,
      "russell": 6476,
      "occhio": 6477,
      "thorough": 6478,
      "bike": 6479,
      "grounds": 6480,
      "slaughter": 6481,
      "explained": 6482,
      "flame": 6483,
      "claims": 6484,
      "status": 6485,
      "groom": 6486,
      "kor": 6487,
      "nical": 6488,
      "troy": 6489,
      "intru": 6490,
      "wheat": 6491,
      "wears": 6492,
      "ider": 6493,
      "unpleasant": 6494,
      "timate": 6495,
      "colo": 6496,
      "deed": 6497,
      "dearest": 6498,
      "illusion": 6499,
      "elphia": 6500,
      "provo": 6501,
      "gras": 6502,
      "ladelphia": 6503,
      "charm": 6504,
      "clin": 6505,
      "attacking": 6506,
      "stephen": 6507,
      "philadelphia": 6508,
      "arrival": 6509,
      "osity": 6510,
      "population": 6511,
      "journal": 6512,
      "cheek": 6513,
      "philippe": 6514,
      "persuade": 6515,
      "klingon": 6516,
      "naughty": 6517,
      "academy": 6518,
      "bio": 6519,
      "data": 6520,
      "lers": 6521,
      "smu": 6522,
      "tid": 6523,
      "vity": 6524,
      "toler": 6525,
      "metal": 6526,
      "seed": 6527,
      "hast": 6528,
      "quali": 6529,
      "confirm": 6530,
      "mule": 6531,
      "torped": 6532,
      "trigger": 6533,
      "counted": 6534,
      "listened": 6535,
      "tical": 6536,
      "generation": 6537,
      "ashley": 6538,
      "vincent": 6539,
      "passes": 6540,
      "satan": 6541,
      "eyed": 6542,
      "examine": 6543,
      "seats": 6544,
      "reverse": 6545,
      "doro": 6546,
      "relative": 6547,
      "explosion": 6548,
      "preacher": 6549,
      "maniac": 6550,
      "ignore": 6551,
      "poker": 6552,
      "democr": 6553,
      "behavior": 6554,
      "sacrific": 6555,
      "poirot": 6556,
      "torpedo": 6557,
      "34": 6558,
      "cable": 6559,
      "ias": 6560,
      "theo": 6561,
      "refu": 6562,
      "respec": 6563,
      "lewis": 6564,
      "lire": 6565,
      "alpha": 6566,
      "ceme": 6567,
      "willie": 6568,
      "boot": 6569,
      "ician": 6570,
      "igan": 6571,
      "ruins": 6572,
      "eats": 6573,
      "colon": 6574,
      "pical": 6575,
      "entering": 6576,
      "logan": 6577,
      "troop": 6578,
      "prayers": 6579,
      "raining": 6580,
      "pinocchio": 6581,
      "representative": 6582,
      "cooperate": 6583,
      "neutral": 6584,
      "scarlett": 6585,
      "bree": 6586,
      "bish": 6587,
      "gab": 6588,
      "sworn": 6589,
      "tone": 6590,
      "recover": 6591,
      "melan": 6592,
      "stam": 6593,
      "active": 6594,
      "admin": 6595,
      "abbot": 6596,
      "amusing": 6597,
      "molly": 6598,
      "entit": 6599,
      "anytime": 6600,
      "nap": 6601,
      "confir": 6602,
      "sorts": 6603,
      "senate": 6604,
      "events": 6605,
      "glas": 6606,
      "appet": 6607,
      "brick": 6608,
      "burgl": 6609,
      "testim": 6610,
      "defence": 6611,
      "wounds": 6612,
      "remained": 6613,
      "impulse": 6614,
      "pirates": 6615,
      "slightly": 6616,
      "explore": 6617,
      "objection": 6618,
      "analysis": 6619,
      "knives": 6620,
      "victims": 6621,
      "ei": 6622,
      "fled": 6623,
      "rhy": 6624,
      "": 6625,
      "tories": 6626,
      "isha": 6627,
      "whit": 6628,
      "oft": 6629,
      "hoor": 6630,
      "ceiling": 6631,
      "neat": 6632,
      "math": 6633,
      "offended": 6634,
      "marion": 6635,
      "spart": 6636,
      "carter": 6637,
      "sia": 6638,
      "fier": 6639,
      "dismissed": 6640,
      "merchant": 6641,
      "lords": 6642,
      "compared": 6643,
      "distingu": 6644,
      "devoted": 6645,
      "rounds": 6646,
      "identity": 6647,
      "collection": 6648,
      "relations": 6649,
      "lena": 6650,
      "sexual": 6651,
      "patients": 6652,
      "mummy": 6653,
      "ciao": 6654,
      "photographs": 6655,
      "barbara": 6656,
      "jessie": 6657,
      "gracious": 6658,
      "laundry": 6659,
      "exhausted": 6660,
      "junior": 6661,
      "cripple": 6662,
      "perfume": 6663,
      "searched": 6664,
      "appetite": 6665,
      "39": 6666,
      "ican": 6667,
      "jur": 6668,
      "scent": 6669,
      "inches": 6670,
      "behold": 6671,
      "lions": 6672,
      "chung": 6673,
      "ros": 6674,
      "tians": 6675,
      "coss": 6676,
      "deposit": 6677,
      "posing": 6678,
      "tram": 6679,
      "lloyd": 6680,
      "underneath": 6681,
      "cleared": 6682,
      "sigh": 6683,
      "phon": 6684,
      "chow": 6685,
      "opens": 6686,
      "primit": 6687,
      "angels": 6688,
      "freak": 6689,
      "dining": 6690,
      "jiang": 6691,
      "reception": 6692,
      "hypo": 6693,
      "slipped": 6694,
      "immediate": 6695,
      "whisper": 6696,
      "rubbish": 6697,
      "ancestors": 6698,
      "katsu": 6699,
      "candle": 6700,
      "peasants": 6701,
      "nichol": 6702,
      "cca": 6703,
      "ela": 6704,
      "fé": 6705,
      "vast": 6706,
      "iner": 6707,
      "ret": 6708,
      "chum": 6709,
      "accompany": 6710,
      "hov": 6711,
      "tick": 6712,
      "nails": 6713,
      "uls": 6714,
      "embass": 6715,
      "shift": 6716,
      "senses": 6717,
      "hush": 6718,
      "persons": 6719,
      "distant": 6720,
      "laying": 6721,
      "delivery": 6722,
      "casino": 6723,
      "congress": 6724,
      "intelle": 6725,
      "shining": 6726,
      "rascal": 6727,
      "pacific": 6728,
      "hooray": 6729,
      "bind": 6730,
      "pis": 6731,
      "tac": 6732,
      "rehears": 6733,
      "lem": 6734,
      "het": 6735,
      "liang": 6736,
      "riz": 6737,
      "altar": 6738,
      "lowe": 6739,
      "usive": 6740,
      "shor": 6741,
      "ived": 6742,
      "plu": 6743,
      "perse": 6744,
      "inet": 6745,
      "tool": 6746,
      "mayumi": 6747,
      "lucas": 6748,
      "dishes": 6749,
      "blos": 6750,
      "chased": 6751,
      "singer": 6752,
      "troubles": 6753,
      "patrick": 6754,
      "tomas": 6755,
      "solved": 6756,
      "starve": 6757,
      "machines": 6758,
      "deliber": 6759,
      "winds": 6760,
      "structure": 6761,
      "barracks": 6762,
      "benefit": 6763,
      "required": 6764,
      "assassin": 6765,
      "cun": 6766,
      "retain": 6767,
      "leo": 6768,
      "heath": 6769,
      "tach": 6770,
      "abor": 6771,
      "usions": 6772,
      "amuse": 6773,
      "romul": 6774,
      "agers": 6775,
      "commen": 6776,
      "berries": 6777,
      "shakes": 6778,
      "parade": 6779,
      "voices": 6780,
      "compass": 6781,
      "flow": 6782,
      "schools": 6783,
      "operate": 6784,
      "interrupt": 6785,
      "distress": 6786,
      "hatred": 6787,
      "neighbour": 6788,
      "andrei": 6789,
      "gradu": 6790,
      "kidnapped": 6791,
      "bent": 6792,
      "battles": 6793,
      "fon": 6794,
      "uced": 6795,
      "eras": 6796,
      "toe": 6797,
      "lecture": 6798,
      "lovers": 6799,
      "ads": 6800,
      "hil": 6801,
      "pest": 6802,
      "boston": 6803,
      "ohh": 6804,
      "impressed": 6805,
      "greed": 6806,
      "mines": 6807,
      "actress": 6808,
      "gao": 6809,
      "jew": 6810,
      "prior": 6811,
      "privile": 6812,
      "juan": 6813,
      "crum": 6814,
      "pattern": 6815,
      "bao": 6816,
      "graphy": 6817,
      "fortunate": 6818,
      "zzo": 6819,
      "fatty": 6820,
      "experiment": 6821,
      "snap": 6822,
      "reporting": 6823,
      "candles": 6824,
      "visitors": 6825,
      "methods": 6826,
      "preparing": 6827,
      "autum": 6828,
      "squeeze": 6829,
      "bureau": 6830,
      "privilege": 6831,
      "48": 6832,
      "ez": 6833,
      "isse": 6834,
      "leans": 6835,
      "vege": 6836,
      "quill": 6837,
      "expression": 6838,
      "woo": 6839,
      "trash": 6840,
      "previous": 6841,
      "ously": 6842,
      "chiat": 6843,
      "luo": 6844,
      "ladder": 6845,
      "parti": 6846,
      "dresses": 6847,
      "sincere": 6848,
      "blackmail": 6849,
      "crimes": 6850,
      "attacks": 6851,
      "facing": 6852,
      "seventh": 6853,
      "flour": 6854,
      "slap": 6855,
      "humor": 6856,
      "organization": 6857,
      "psychiat": 6858,
      "survived": 6859,
      "arrangements": 6860,
      "critic": 6861,
      "bilities": 6862,
      "embassy": 6863,
      "intellect": 6864,
      "faint": 6865,
      "kus": 6866,
      "mick": 6867,
      "rul": 6868,
      "rors": 6869,
      "wend": 6870,
      "rels": 6871,
      "gown": 6872,
      "chie": 6873,
      "alfred": 6874,
      "lope": 6875,
      "nearest": 6876,
      "pockets": 6877,
      "raph": 6878,
      "bolt": 6879,
      "backs": 6880,
      "elwood": 6881,
      "wai": 6882,
      "shogun": 6883,
      "commod": 6884,
      "clum": 6885,
      "treason": 6886,
      "treating": 6887,
      "dropping": 6888,
      "mbur": 6889,
      "completed": 6890,
      "rising": 6891,
      "translat": 6892,
      "wagons": 6893,
      "jacob": 6894,
      "elimin": 6895,
      "congratulate": 6896,
      "develop": 6897,
      "insisted": 6898,
      "gloria": 6899,
      "transferred": 6900,
      "survivor": 6901,
      "poetry": 6902,
      "taylor": 6903,
      "dap": 6904,
      "kang": 6905,
      "nig": 6906,
      "sé": 6907,
      "meters": 6908,
      "stim": 6909,
      "haun": 6910,
      "lik": 6911,
      "rig": 6912,
      "aco": 6913,
      "tile": 6914,
      "ups": 6915,
      "artists": 6916,
      "imper": 6917,
      "spar": 6918,
      "crete": 6919,
      "traged": 6920,
      "brew": 6921,
      "bloom": 6922,
      "scal": 6923,
      "scandal": 6924,
      "drain": 6925,
      "valent": 6926,
      "octo": 6927,
      "burns": 6928,
      "islands": 6929,
      "frozen": 6930,
      "architect": 6931,
      "length": 6932,
      "gratitude": 6933,
      "dignity": 6934,
      "penalty": 6935,
      "entitled": 6936,
      "autumn": 6937,
      "55": 6938,
      "avenge": 6939,
      "eleg": 6940,
      "vain": 6941,
      "yah": 6942,
      "error": 6943,
      "anni": 6944,
      "lody": 6945,
      "unexpected": 6946,
      "cello": 6947,
      "soil": 6948,
      "manny": 6949,
      "permitted": 6950,
      "tools": 6951,
      "improve": 6952,
      "mario": 6953,
      "brass": 6954,
      "olga": 6955,
      "carpen": 6956,
      "gathered": 6957,
      "pud": 6958,
      "borne": 6959,
      "glen": 6960,
      "quarrel": 6961,
      "doubts": 6962,
      "considering": 6963,
      "knee": 6964,
      "location": 6965,
      "slut": 6966,
      "possession": 6967,
      "guessed": 6968,
      "forgiveness": 6969,
      "eagle": 6970,
      "kilome": 6971,
      "excitement": 6972,
      "buffalo": 6973,
      "cemetery": 6974,
      "vell": 6975,
      "assem": 6976,
      "ablo": 6977,
      "cope": 6978,
      "cows": 6979,
      "mote": 6980,
      "eline": 6981,
      "ishing": 6982,
      "madness": 6983,
      "fighters": 6984,
      "fined": 6985,
      "desi": 6986,
      "nixon": 6987,
      "dragged": 6988,
      "passengers": 6989,
      "interrup": 6990,
      "subst": 6991,
      "treaty": 6992,
      "examination": 6993,
      "christop": 6994,
      "wilder": 6995,
      "schol": 6996,
      "digging": 6997,
      "farmers": 6998,
      "reporter": 6999,
      "european": 7000,
      "assistance": 7001,
      "continues": 7002,
      "elliot": 7003,
      "elaine": 7004,
      "october": 7005,
      "ec": 7006,
      "nino": 7007,
      "tere": 7008,
      "vod": 7009,
      "vable": 7010,
      "theless": 7011,
      "resem": 7012,
      "lict": 7013,
      "wick": 7014,
      "mankind": 7015,
      "sages": 7016,
      "predic": 7017,
      "proced": 7018,
      "bucket": 7019,
      "giu": 7020,
      "medal": 7021,
      "florence": 7022,
      "wednes": 7023,
      "formation": 7024,
      "returns": 7025,
      "tests": 7026,
      "douglas": 7027,
      "romeo": 7028,
      "controls": 7029,
      "greet": 7030,
      "snakes": 7031,
      "gifts": 7032,
      "voyage": 7033,
      "neighbors": 7034,
      "chapter": 7035,
      "temporary": 7036,
      "blonde": 7037,
      "respectable": 7038,
      "administr": 7039,
      "primitive": 7040,
      "eth": 7041,
      "ethan": 7042,
      "kit": 7043,
      "lith": 7044,
      "lime": 7045,
      "allied": 7046,
      "hiya": 7047,
      "shepher": 7048,
      "plug": 7049,
      "ilities": 7050,
      "ahh": 7051,
      "minus": 7052,
      "handy": 7053,
      "phony": 7054,
      "sensible": 7055,
      "merc": 7056,
      "fritz": 7057,
      "drops": 7058,
      "scotch": 7059,
      "armies": 7060,
      "praying": 7061,
      "bearing": 7062,
      "apollo": 7063,
      "clai": 7064,
      "cooked": 7065,
      "cruc": 7066,
      "weakness": 7067,
      "criminals": 7068,
      "connected": 7069,
      "separated": 7070,
      "taxes": 7071,
      "prophet": 7072,
      "mobile": 7073,
      "testimony": 7074,
      "ake": 7075,
      "gay": 7076,
      "inte": 7077,
      "ishi": 7078,
      "dos": 7079,
      "tific": 7080,
      "coo": 7081,
      "potion": 7082,
      "raft": 7083,
      "boil": 7084,
      "cons": 7085,
      "background": 7086,
      "pted": 7087,
      "freezing": 7088,
      "painter": 7089,
      "straighten": 7090,
      "response": 7091,
      "niece": 7092,
      "packed": 7093,
      "superman": 7094,
      "tracy": 7095,
      "identified": 7096,
      "december": 7097,
      "concentration": 7098,
      "principle": 7099,
      "feathers": 7100,
      "recognise": 7101,
      "condem": 7102,
      "corridor": 7103,
      "dorothy": 7104,
      "award": 7105,
      "cate": 7106,
      "dall": 7107,
      "hits": 7108,
      "sang": 7109,
      "quir": 7110,
      "marines": 7111,
      "umber": 7112,
      "dizzy": 7113,
      "cargo": 7114,
      "cio": 7115,
      "careless": 7116,
      "omic": 7117,
      "creation": 7118,
      "owns": 7119,
      "deadly": 7120,
      "studied": 7121,
      "beggar": 7122,
      "aircraft": 7123,
      "visited": 7124,
      "signature": 7125,
      "closely": 7126,
      "ballet": 7127,
      "deserves": 7128,
      "claire": 7129,
      "hammond": 7130,
      "actions": 7131,
      "grim": 7132,
      "photos": 7133,
      "rubber": 7134,
      "collins": 7135,
      "executed": 7136,
      "civilians": 7137,
      "symbol": 7138,
      "zheng": 7139,
      "rooster": 7140,
      "fooled": 7141,
      "infantry": 7142,
      "christopher": 7143,
      "pson": 7144,
      "rina": 7145,
      "zel": 7146,
      "arte": 7147,
      "lein": 7148,
      "leaf": 7149,
      "dome": 7150,
      "advert": 7151,
      "homer": 7152,
      "coch": 7153,
      "aming": 7154,
      "maggie": 7155,
      "razor": 7156,
      "suite": 7157,
      "anya": 7158,
      "nathan": 7159,
      "exit": 7160,
      "immortal": 7161,
      "pao": 7162,
      "capac": 7163,
      "fuji": 7164,
      "barry": 7165,
      "bald": 7166,
      "apply": 7167,
      "sixth": 7168,
      "faced": 7169,
      "prayed": 7170,
      "tails": 7171,
      "romans": 7172,
      "basic": 7173,
      "stabbed": 7174,
      "indicate": 7175,
      "bapt": 7176,
      "mall": 7177,
      "shima": 7178,
      "ues": 7179,
      "tobac": 7180,
      "isy": 7181,
      "orleans": 7182,
      "hambur": 7183,
      "access": 7184,
      "abra": 7185,
      "pope": 7186,
      "bois": 7187,
      "convent": 7188,
      "mars": 7189,
      "prey": 7190,
      "spark": 7191,
      "finan": 7192,
      "clar": 7193,
      "harsh": 7194,
      "kenned": 7195,
      "interests": 7196,
      "salary": 7197,
      "regulations": 7198,
      "fortunately": 7199,
      "goro": 7200,
      "appearance": 7201,
      "crowded": 7202,
      "vengeance": 7203,
      "sissy": 7204,
      "squadron": 7205,
      "continued": 7206,
      "severe": 7207,
      "bamboo": 7208,
      "impressive": 7209,
      "tragedy": 7210,
      "vodka": 7211,
      "33": 7212,
      "econ": 7213,
      "jah": 7214,
      "jade": 7215,
      "punk": 7216,
      "sper": 7217,
      "republic": 7218,
      "stump": 7219,
      "nood": 7220,
      "seal": 7221,
      "hath": 7222,
      "rico": 7223,
      "lola": 7224,
      "nels": 7225,
      "pooh": 7226,
      "liest": 7227,
      "carpet": 7228,
      "bark": 7229,
      "dug": 7230,
      "payment": 7231,
      "sunset": 7232,
      "shuttle": 7233,
      "heavi": 7234,
      "yuan": 7235,
      "boxes": 7236,
      "packing": 7237,
      "skipper": 7238,
      "miracles": 7239,
      "roberto": 7240,
      "initi": 7241,
      "carpenter": 7242,
      "wednesday": 7243,
      "kennedy": 7244,
      "250": 7245,
      "cough": 7246,
      "hound": 7247,
      "kal": 7248,
      "pag": 7249,
      "pond": 7250,
      "swore": 7251,
      "rowed": 7252,
      "allah": 7253,
      "hips": 7254,
      "tab": 7255,
      "yee": 7256,
      "boa": 7257,
      "boom": 7258,
      "shang": 7259,
      "exhibit": 7260,
      "brat": 7261,
      "nicely": 7262,
      "chains": 7263,
      "pigeon": 7264,
      "baxter": 7265,
      "expedition": 7266,
      "villain": 7267,
      "interview": 7268,
      "saloon": 7269,
      "micro": 7270,
      "grows": 7271,
      "suggested": 7272,
      "cherry": 7273,
      "recognized": 7274,
      "tastes": 7275,
      "pearls": 7276,
      "stinking": 7277,
      "loyalty": 7278,
      "culture": 7279,
      "nicole": 7280,
      "sensors": 7281,
      "manuelle": 7282,
      "specimen": 7283,
      "drunken": 7284,
      "42": 7285,
      "git": 7286,
      "rhe": 7287,
      "rated": 7288,
      "ske": 7289,
      "ηe": 7290,
      "reich": 7291,
      "sei": 7292,
      "hee": 7293,
      "beware": 7294,
      "hog": 7295,
      "til": 7296,
      "usa": 7297,
      "presume": 7298,
      "shocked": 7299,
      "gerald": 7300,
      "northern": 7301,
      "ggling": 7302,
      "honored": 7303,
      "philli": 7304,
      "allows": 7305,
      "feeding": 7306,
      "pillow": 7307,
      "pointing": 7308,
      "adams": 7309,
      "wrapped": 7310,
      "creek": 7311,
      "avenue": 7312,
      "gimme": 7313,
      "alcohol": 7314,
      "skull": 7315,
      "bout": 7316,
      "bicy": 7317,
      "pul": 7318,
      "qi": 7319,
      "erie": 7320,
      "ender": 7321,
      "stun": 7322,
      "butler": 7323,
      "antony": 7324,
      "rake": 7325,
      "bomber": 7326,
      "lette": 7327,
      "laughter": 7328,
      "agents": 7329,
      "elisa": 7330,
      "happier": 7331,
      "tryin": 7332,
      "madman": 7333,
      "dru": 7334,
      "gali": 7335,
      "bler": 7336,
      "mush": 7337,
      "laurie": 7338,
      "fairly": 7339,
      "imagined": 7340,
      "accep": 7341,
      "greece": 7342,
      "instruments": 7343,
      "leonard": 7344,
      "martini": 7345,
      "gathering": 7346,
      "despise": 7347,
      "insects": 7348,
      "fierce": 7349,
      "foun": 7350,
      "knot": 7351,
      "pod": 7352,
      "tad": 7353,
      "reply": 7354,
      "steven": 7355,
      "liz": 7356,
      "root": 7357,
      "rolls": 7358,
      "butch": 7359,
      "catho": 7360,
      "shun": 7361,
      "affection": 7362,
      "guine": 7363,
      "chew": 7364,
      "divid": 7365,
      "trib": 7366,
      "tribe": 7367,
      "sens": 7368,
      "commer": 7369,
      "crash": 7370,
      "murphy": 7371,
      "cuff": 7372,
      "smaller": 7373,
      "ringing": 7374,
      "accuse": 7375,
      "salute": 7376,
      "buildings": 7377,
      "fantomas": 7378,
      "passage": 7379,
      "boarding": 7380,
      "vargas": 7381,
      "assignment": 7382,
      "clinic": 7383,
      "teresa": 7384,
      "merciful": 7385,
      "catholic": 7386,
      "echo": 7387,
      "eager": 7388,
      "jas": 7389,
      "oid": 7390,
      "soda": 7391,
      "xim": 7392,
      "zza": 7393,
      "thouse": 7394,
      "rebel": 7395,
      "towel": 7396,
      "bess": 7397,
      "lick": 7398,
      "wizard": 7399,
      "moz": 7400,
      "pover": 7401,
      "shane": 7402,
      "convoy": 7403,
      "rue": 7404,
      "fian": 7405,
      "mothers": 7406,
      "harris": 7407,
      "jewish": 7408,
      "darn": 7409,
      "hitch": 7410,
      "massage": 7411,
      "fitz": 7412,
      "sarge": 7413,
      "zzle": 7414,
      "buster": 7415,
      "satisfy": 7416,
      "stinks": 7417,
      "boldly": 7418,
      "apologies": 7419,
      "heathcliff": 7420,
      "cord": 7421,
      "sic": 7422,
      "inhabit": 7423,
      "refresh": 7424,
      "toms": 7425,
      "arrog": 7426,
      "heil": 7427,
      "rosie": 7428,
      "caution": 7429,
      "pom": 7430,
      "rah": 7431,
      "nazi": 7432,
      "navig": 7433,
      "contribut": 7434,
      "ahan": 7435,
      "marius": 7436,
      "cheated": 7437,
      "monte": 7438,
      "cile": 7439,
      "mature": 7440,
      "despair": 7441,
      "tres": 7442,
      "smash": 7443,
      "johnnie": 7444,
      "obtain": 7445,
      "picnic": 7446,
      "kazu": 7447,
      "countryside": 7448,
      "numb": 7449,
      "sickbay": 7450,
      "virgil": 7451,
      "concert": 7452,
      "baseball": 7453,
      "booth": 7454,
      "experienced": 7455,
      "federal": 7456,
      "spiritual": 7457,
      "priests": 7458,
      "frog": 7459,
      "advanced": 7460,
      "communication": 7461,
      "description": 7462,
      "fashioned": 7463,
      "acquaint": 7464,
      "document": 7465,
      "cairo": 7466,
      "australia": 7467,
      "tobacco": 7468,
      "narrow": 7469,
      "pah": 7470,
      "swine": 7471,
      "anth": 7472,
      "tore": 7473,
      "meals": 7474,
      "ingen": 7475,
      "acres": 7476,
      "adjust": 7477,
      "tiles": 7478,
      "peach": 7479,
      "aggress": 7480,
      "gula": 7481,
      "sleeps": 7482,
      "hudson": 7483,
      "tremend": 7484,
      "scram": 7485,
      "compla": 7486,
      "johann": 7487,
      "towns": 7488,
      "halfway": 7489,
      "observe": 7490,
      "magne": 7491,
      "garth": 7492,
      "catching": 7493,
      "version": 7494,
      "wheels": 7495,
      "package": 7496,
      "potter": 7497,
      "planets": 7498,
      "modest": 7499,
      "arrangement": 7500,
      "egyp": 7501,
      "steiner": 7502,
      "slightest": 7503,
      "emotions": 7504,
      "occupation": 7505,
      "rusty": 7506,
      "confirmed": 7507,
      "ais": 7508,
      "vick": 7509,
      "rebell": 7510,
      "aspir": 7511,
      "wiped": 7512,
      "cells": 7513,
      "taels": 7514,
      "soo": 7515,
      "deer": 7516,
      "deeds": 7517,
      "poland": 7518,
      "pledge": 7519,
      "fton": 7520,
      "minded": 7521,
      "display": 7522,
      "disobey": 7523,
      "miri": 7524,
      "partners": 7525,
      "vik": 7526,
      "portra": 7527,
      "barber": 7528,
      "fireworks": 7529,
      "leroy": 7530,
      "apology": 7531,
      "flames": 7532,
      "swift": 7533,
      "collap": 7534,
      "demands": 7535,
      "specific": 7536,
      "sandwich": 7537,
      "costume": 7538,
      "47": 7539,
      "bren": 7540,
      "eous": 7541,
      "jor": 7542,
      "lis": 7543,
      "sasha": 7544,
      "yaku": 7545,
      "rena": 7546,
      "meter": 7547,
      "iser": 7548,
      "heap": 7549,
      "chou": 7550,
      "rocket": 7551,
      "vern": 7552,
      "outer": 7553,
      "cey": 7554,
      "sov": 7555,
      "cakes": 7556,
      "consent": 7557,
      "killers": 7558,
      "diary": 7559,
      "bub": 7560,
      "ransom": 7561,
      "gery": 7562,
      "owned": 7563,
      "syn": 7564,
      "commanding": 7565,
      "cursed": 7566,
      "bened": 7567,
      "interce": 7568,
      "crystal": 7569,
      "louder": 7570,
      "jumping": 7571,
      "suitable": 7572,
      "kuro": 7573,
      "zerland": 7574,
      "civilian": 7575,
      "celebration": 7576,
      "pilate": 7577,
      "described": 7578,
      "limited": 7579,
      "philosophy": 7580,
      "branch": 7581,
      "michelangelo": 7582,
      "casualties": 7583,
      "switzerland": 7584,
      "scoundrel": 7585,
      "4th": 7586,
      "dwell": 7587,
      "gur": 7588,
      "lés": 7589,
      "mant": 7590,
      "pablo": 7591,
      "witt": 7592,
      "zan": 7593,
      "zlo": 7594,
      "repay": 7595,
      "reservation": 7596,
      "tow": 7597,
      "stin": 7598,
      "seize": 7599,
      "fortress": 7600,
      "cano": 7601,
      "cancel": 7602,
      "socks": 7603,
      "sau": 7604,
      "ults": 7605,
      "wax": 7606,
      "marlowe": 7607,
      "leak": 7608,
      "dime": 7609,
      "mons": 7610,
      "cible": 7611,
      "luther": 7612,
      "ruby": 7613,
      "miami": 7614,
      "dammit": 7615,
      "damaged": 7616,
      "sleepy": 7617,
      "franç": 7618,
      "draft": 7619,
      "kai": 7620,
      "solar": 7621,
      "porter": 7622,
      "region": 7623,
      "rolled": 7624,
      "messenger": 7625,
      "owes": 7626,
      "basis": 7627,
      "gami": 7628,
      "suspected": 7629,
      "pirate": 7630,
      "crawling": 7631,
      "normally": 7632,
      "zhao": 7633,
      "granny": 7634,
      "800": 7635,
      "brow": 7636,
      "ik": 7637,
      "nit": 7638,
      "zap": 7639,
      "ouri": 7640,
      "inal": 7641,
      "tov": 7642,
      "inglés": 7643,
      "armor": 7644,
      "bean": 7645,
      "hallo": 7646,
      "hachi": 7647,
      "liu": 7648,
      "nowad": 7649,
      "unconscious": 7650,
      "mole": 7651,
      "peak": 7652,
      "mano": 7653,
      "sakes": 7654,
      "stove": 7655,
      "monaster": 7656,
      "spear": 7657,
      "writ": 7658,
      "household": 7659,
      "phen": 7660,
      "spoon": 7661,
      "sidney": 7662,
      "evident": 7663,
      "fication": 7664,
      "benjam": 7665,
      "faction": 7666,
      "element": 7667,
      "flank": 7668,
      "arriving": 7669,
      "fixing": 7670,
      "various": 7671,
      "jacqu": 7672,
      "jacques": 7673,
      "grabbed": 7674,
      "connect": 7675,
      "delightful": 7676,
      "voyages": 7677,
      "agawa": 7678,
      "tortured": 7679,
      "suspicion": 7680,
      "swordsman": 7681,
      "prosecution": 7682,
      "embarrassing": 7683,
      "hesitate": 7684,
      "elliott": 7685,
      "nowadays": 7686,
      "benjamin": 7687,
      "dill": 7688,
      "fitting": 7689,
      "gis": 7690,
      "rous": 7691,
      "vok": 7692,
      "wrest": 7693,
      "thal": 7694,
      "velt": 7695,
      "hah": 7696,
      "roose": 7697,
      "loser": 7698,
      "accus": 7699,
      "irish": 7700,
      "dong": 7701,
      "cole": 7702,
      "offend": 7703,
      "guido": 7704,
      "beau": 7705,
      "lighter": 7706,
      "judy": 7707,
      "spotted": 7708,
      "gestapo": 7709,
      "issance": 7710,
      "franklin": 7711,
      "considerable": 7712,
      "chickens": 7713,
      "fasc": 7714,
      "labour": 7715,
      "axel": 7716,
      "cured": 7717,
      "introduced": 7718,
      "amigo": 7719,
      "investigate": 7720,
      "tatsu": 7721,
      "buttons": 7722,
      "laboratory": 7723,
      "wolves": 7724,
      "conclusion": 7725,
      "clumsy": 7726,
      "claimed": 7727,
      "condemned": 7728,
      "roosevelt": 7729,
      "dane": 7730,
      "gap": 7731,
      "vlad": 7732,
      "thread": 7733,
      "invisible": 7734,
      "rely": 7735,
      "toby": 7736,
      "arian": 7737,
      "lod": 7738,
      "pets": 7739,
      "righteous": 7740,
      "compar": 7741,
      "prostit": 7742,
      "makeup": 7743,
      "triple": 7744,
      "damien": 7745,
      "merch": 7746,
      "horror": 7747,
      "realised": 7748,
      "floyd": 7749,
      "smashed": 7750,
      "opard": 7751,
      "unique": 7752,
      "hats": 7753,
      "sticking": 7754,
      "bluff": 7755,
      "banner": 7756,
      "skinny": 7757,
      "harmless": 7758,
      "karate": 7759,
      "session": 7760,
      "robinson": 7761,
      "activity": 7762,
      "engagement": 7763,
      "breeze": 7764,
      "elegant": 7765,
      "tribune": 7766,
      "mozart": 7767,
      "gle": 7768,
      "iy": 7769,
      "kie": 7770,
      "lac": 7771,
      "rita": 7772,
      "squire": 7773,
      "onna": 7774,
      "recovered": 7775,
      "token": 7776,
      "nov": 7777,
      "web": 7778,
      "acus": 7779,
      "ambush": 7780,
      "peasant": 7781,
      "misfortune": 7782,
      "carries": 7783,
      "trucks": 7784,
      "sentenced": 7785,
      "drift": 7786,
      "observation": 7787,
      "strain": 7788,
      "sickness": 7789,
      "fucker": 7790,
      "thorne": 7791,
      "larry": 7792,
      "romance": 7793,
      "18th": 7794,
      "dummy": 7795,
      "chairs": 7796,
      "poisoned": 7797,
      "cowboy": 7798,
      "paintings": 7799,
      "toys": 7800,
      "maximum": 7801,
      "warriors": 7802,
      "rebels": 7803,
      "brutal": 7804,
      "cunning": 7805,
      "acquaintance": 7806,
      "gill": 7807,
      "lant": 7808,
      "ogami": 7809,
      "pages": 7810,
      "ugh": 7811,
      "uly": 7812,
      "zier": 7813,
      "tomato": 7814,
      "enchant": 7815,
      "arse": 7816,
      "riot": 7817,
      "forts": 7818,
      "ading": 7819,
      "cancer": 7820,
      "manual": 7821,
      "caut": 7822,
      "wells": 7823,
      "naomi": 7824,
      "venus": 7825,
      "istry": 7826,
      "imprison": 7827,
      "marvell": 7828,
      "probe": 7829,
      "brus": 7830,
      "happily": 7831,
      "chips": 7832,
      "apt": 7833,
      "genu": 7834,
      "stron": 7835,
      "pointed": 7836,
      "lini": 7837,
      "villagers": 7838,
      "milton": 7839,
      "murderers": 7840,
      "miranda": 7841,
      "kerchief": 7842,
      "transmit": 7843,
      "slim": 7844,
      "approxim": 7845,
      "tana": 7846,
      "groups": 7847,
      "refuses": 7848,
      "deeper": 7849,
      "assured": 7850,
      "shields": 7851,
      "constantly": 7852,
      "compliments": 7853,
      "adventure": 7854,
      "radiation": 7855,
      "penetr": 7856,
      "aire": 7857,
      "fry": 7858,
      "vet": 7859,
      "beak": 7860,
      "weed": 7861,
      "eder": 7862,
      "doom": 7863,
      "canada": 7864,
      "dea": 7865,
      "safer": 7866,
      "compe": 7867,
      "trous": 7868,
      "guer": 7869,
      "grud": 7870,
      "chef": 7871,
      "missouri": 7872,
      "emili": 7873,
      "tens": 7874,
      "blocks": 7875,
      "studies": 7876,
      "elsewhere": 7877,
      "cuts": 7878,
      "beds": 7879,
      "floating": 7880,
      "aud": 7881,
      "nile": 7882,
      "sixteen": 7883,
      "iii": 7884,
      "election": 7885,
      "elements": 7886,
      "courtes": 7887,
      "phoen": 7888,
      "slippers": 7889,
      "devils": 7890,
      "appropri": 7891,
      "suggestion": 7892,
      "frightening": 7893,
      "appointed": 7894,
      "knocking": 7895,
      "satisfaction": 7896,
      "describe": 7897,
      "relieved": 7898,
      "kathy": 7899,
      "officials": 7900,
      "strictly": 7901,
      "sentimental": 7902,
      "difficulty": 7903,
      "coordinates": 7904,
      "noodles": 7905,
      "poverty": 7906,
      "jum": 7907,
      "shim": 7908,
      "enlist": 7909,
      "andr": 7910,
      "golf": 7911,
      "ayama": 7912,
      "omed": 7913,
      "lov": 7914,
      "ares": 7915,
      "myra": 7916,
      "tigers": 7917,
      "deter": 7918,
      "teleg": 7919,
      "lav": 7920,
      "endar": 7921,
      "elsa": 7922,
      "007": 7923,
      "diana": 7924,
      "carlos": 7925,
      "cared": 7926,
      "apples": 7927,
      "rendez": 7928,
      "understands": 7929,
      "tricked": 7930,
      "corrup": 7931,
      "colors": 7932,
      "muscle": 7933,
      "pressing": 7934,
      "arrives": 7935,
      "boxing": 7936,
      "coats": 7937,
      "climbing": 7938,
      "requires": 7939,
      "bbles": 7940,
      "cheerful": 7941,
      "wyatt": 7942,
      "wandering": 7943,
      "ifully": 7944,
      "thumb": 7945,
      "invented": 7946,
      "gloves": 7947,
      "pm": 7948,
      "ppe": 7949,
      "uk": 7950,
      "uke": 7951,
      "vital": 7952,
      "yach": 7953,
      "inner": 7954,
      "asse": 7955,
      "rill": 7956,
      "moto": 7957,
      "pepper": 7958,
      "text": 7959,
      "sauce": 7960,
      "shells": 7961,
      "whoo": 7962,
      "consult": 7963,
      "istered": 7964,
      "misery": 7965,
      "pawn": 7966,
      "apaches": 7967,
      "worker": 7968,
      "actual": 7969,
      "fucked": 7970,
      "traps": 7971,
      "miz": 7972,
      "cham": 7973,
      "attached": 7974,
      "scrub": 7975,
      "muscles": 7976,
      "clue": 7977,
      "clubs": 7978,
      "postp": 7979,
      "kyle": 7980,
      "scotland": 7981,
      "carson": 7982,
      "bourbon": 7983,
      "bruno": 7984,
      "bradley": 7985,
      "automatic": 7986,
      "related": 7987,
      "located": 7988,
      "receiving": 7989,
      "construction": 7990,
      "average": 7991,
      "province": 7992,
      "competition": 7993,
      "electricity": 7994,
      "complaint": 7995,
      "yakuza": 7996,
      "genuine": 7997,
      "bah": 7998,
      "ckey": 7999,
      "dared": 8000,
      "ego": 8001,
      "och": 8002,
      "attemp": 8003,
      "rejo": 8004,
      "mez": 8005,
      "envir": 8006,
      "whir": 8007,
      "loses": 8008,
      "unlike": 8009,
      "cans": 8010,
      "coins": 8011,
      "urge": 8012,
      "maine": 8013,
      "causing": 8014,
      "poly": 8015,
      "plates": 8016,
      "conver": 8017,
      "gum": 8018,
      "joel": 8019,
      "shade": 8020,
      "item": 8021,
      "sip": 8022,
      "phra": 8023,
      "genes": 8024,
      "coron": 8025,
      "drill": 8026,
      "promises": 8027,
      "owen": 8028,
      "operations": 8029,
      "larger": 8030,
      "films": 8031,
      "respected": 8032,
      "necessarily": 8033,
      "macy": 8034,
      "grip": 8035,
      "constable": 8036,
      "communications": 8037,
      "declared": 8038,
      "railway": 8039,
      "oblig": 8040,
      "institute": 8041,
      "reinforce": 8042,
      "jonas": 8043,
      "distinguished": 8044,
      "franço": 8045,
      "rendezvous": 8046,
      "environ": 8047,
      "7th": 8048,
      "jong": 8049,
      "mute": 8050,
      "nac": 8051,
      "plast": 8052,
      "pia": 8053,
      "site": 8054,
      "tren": 8055,
      "restore": 8056,
      "veta": 8057,
      "rogers": 8058,
      "altogether": 8059,
      "tible": 8060,
      "decks": 8061,
      "pean": 8062,
      "sheets": 8063,
      "worms": 8064,
      "compart": 8065,
      "misunderstanding": 8066,
      "spaces": 8067,
      "oline": 8068,
      "checks": 8069,
      "cheating": 8070,
      "furious": 8071,
      "corder": 8072,
      "sings": 8073,
      "julius": 8074,
      "angela": 8075,
      "curi": 8076,
      "cutor": 8077,
      "operating": 8078,
      "humanity": 8079,
      "armour": 8080,
      "suming": 8081,
      "cups": 8082,
      "bonnie": 8083,
      "protecting": 8084,
      "karin": 8085,
      "sweetie": 8086,
      "january": 8087,
      "beasts": 8088,
      "favourite": 8089,
      "oxy": 8090,
      "williams": 8091,
      "entertainment": 8092,
      "fabulous": 8093,
      "compliment": 8094,
      "rocco": 8095,
      "chimney": 8096,
      "florida": 8097,
      "circuit": 8098,
      "chauffe": 8099,
      "refuge": 8100,
      "dallas": 8101,
      "benedict": 8102,
      "ulysses": 8103,
      "marvellous": 8104,
      "ae": 8105,
      "dup": 8106,
      "kha": 8107,
      "sust": 8108,
      "skilled": 8109,
      "vass": 8110,
      "zhu": 8111,
      "eric": 8112,
      "tops": 8113,
      "keen": 8114,
      "chard": 8115,
      "unload": 8116,
      "withdraw": 8117,
      "ifican": 8118,
      "petr": 8119,
      "feared": 8120,
      "cau": 8121,
      "seeking": 8122,
      "mayo": 8123,
      "callahan": 8124,
      "bugs": 8125,
      "akes": 8126,
      "causes": 8127,
      "cary": 8128,
      "handkerchief": 8129,
      "rud": 8130,
      "trich": 8131,
      "hungar": 8132,
      "certific": 8133,
      "surgeon": 8134,
      "merci": 8135,
      "borrowed": 8136,
      "nier": 8137,
      "iana": 8138,
      "stark": 8139,
      "testing": 8140,
      "worthless": 8141,
      "radar": 8142,
      "recording": 8143,
      "hanoi": 8144,
      "isabella": 8145,
      "scary": 8146,
      "frau": 8147,
      "marching": 8148,
      "oppon": 8149,
      "skip": 8150,
      "disturbing": 8151,
      "rumors": 8152,
      "kyoto": 8153,
      "claude": 8154,
      "drums": 8155,
      "survival": 8156,
      "pumpkin": 8157,
      "klingons": 8158,
      "hollywood": 8159,
      "practise": 8160,
      "annoy": 8161,
      "haunted": 8162,
      "bicycle": 8163,
      "tremendous": 8164,
      "monastery": 8165,
      "31": 8166,
      "99": 8167,
      "jona": 8168,
      "kring": 8169,
      "pies": 8170,
      "races": 8171,
      "tta": 8172,
      "enka": 8173,
      "gossi": 8174,
      "dox": 8175,
      "uster": 8176,
      "amate": 8177,
      "mast": 8178,
      "nament": 8179,
      "conspir": 8180,
      "commiss": 8181,
      "wales": 8182,
      "nevertheless": 8183,
      "carri": 8184,
      "matches": 8185,
      "missus": 8186,
      "siu": 8187,
      "dietrich": 8188,
      "julia": 8189,
      "skirt": 8190,
      "denied": 8191,
      "follows": 8192,
      "simone": 8193,
      "musical": 8194,
      "dealer": 8195,
      "gladly": 8196,
      "garrison": 8197,
      "portion": 8198,
      "billion": 8199,
      "regain": 8200,
      "murders": 8201,
      "efforts": 8202,
      "strikes": 8203,
      "protected": 8204,
      "gasoline": 8205,
      "hospitality": 8206,
      "necklace": 8207,
      "instrument": 8208,
      "nuclear": 8209,
      "frame": 8210,
      "constit": 8211,
      "civilized": 8212,
      "racing": 8213,
      "zhou": 8214,
      "complaining": 8215,
      "shadows": 8216,
      "principal": 8217,
      "demonstration": 8218,
      "alternative": 8219,
      "descend": 8220,
      "approximately": 8221,
      "jonathan": 8222,
      "fbi": 8223,
      "oom": 8224,
      "tack": 8225,
      "uous": 8226,
      "anchor": 8227,
      "sting": 8228,
      "league": 8229,
      "alan": 8230,
      "alas": 8231,
      "added": 8232,
      "outrage": 8233,
      "rag": 8234,
      "saus": 8235,
      "consul": 8236,
      "imir": 8237,
      "marse": 8238,
      "proposal": 8239,
      "prosper": 8240,
      "mori": 8241,
      "bris": 8242,
      "helpful": 8243,
      "michi": 8244,
      "countries": 8245,
      "harbour": 8246,
      "jeep": 8247,
      "hunch": 8248,
      "fourteen": 8249,
      "messages": 8250,
      "sergei": 8251,
      "honorable": 8252,
      "blake": 8253,
      "fatal": 8254,
      "departure": 8255,
      "whisky": 8256,
      "correctly": 8257,
      "adore": 8258,
      "requested": 8259,
      "pension": 8260,
      "physician": 8261,
      "arrows": 8262,
      "educated": 8263,
      "apologise": 8264,
      "swedish": 8265,
      "civilization": 8266,
      "permanent": 8267,
      "cindere": 8268,
      "oxygen": 8269,
      "abe": 8270,
      "een": 8271,
      "hence": 8272,
      "omar": 8273,
      "pam": 8274,
      "pace": 8275,
      "yong": 8276,
      "anjin": 8277,
      "reserve": 8278,
      "toshi": 8279,
      "orche": 8280,
      "rivers": 8281,
      "richest": 8282,
      "ady": 8283,
      "soever": 8284,
      "poll": 8285,
      "typical": 8286,
      "shalt": 8287,
      "monu": 8288,
      "fulfill": 8289,
      "theirs": 8290,
      "pencil": 8291,
      "distr": 8292,
      "trains": 8293,
      "parach": 8294,
      "brett": 8295,
      "orderly": 8296,
      "swede": 8297,
      "jaw": 8298,
      "metro": 8299,
      "dowd": 8300,
      "questioning": 8301,
      "testify": 8302,
      "install": 8303,
      "pedro": 8304,
      "risky": 8305,
      "scientist": 8306,
      "nifer": 8307,
      "slide": 8308,
      "gardens": 8309,
      "sexy": 8310,
      "personality": 8311,
      "freddie": 8312,
      "decisions": 8313,
      "diction": 8314,
      "jennifer": 8315,
      "screenplay": 8316,
      "phase": 8317,
      "architecture": 8318,
      "yasu": 8319,
      "vehicle": 8320,
      "sympathy": 8321,
      "sensation": 8322,
      "aqu": 8323,
      "jup": 8324,
      "rh": 8325,
      "vag": 8326,
      "oui": 8327,
      "itto": 8328,
      "edie": 8329,
      "edgar": 8330,
      "dope": 8331,
      "rosen": 8332,
      "areas": 8333,
      "arena": 8334,
      "hostage": 8335,
      "mansion": 8336,
      "café": 8337,
      "entry": 8338,
      "suzie": 8339,
      "connor": 8340,
      "igner": 8341,
      "everyday": 8342,
      "leather": 8343,
      "paw": 8344,
      "needing": 8345,
      "needle": 8346,
      "mono": 8347,
      "luis": 8348,
      "chao": 8349,
      "harrison": 8350,
      "winston": 8351,
      "sunk": 8352,
      "passenger": 8353,
      "vanished": 8354,
      "awk": 8355,
      "rington": 8356,
      "salad": 8357,
      "secretly": 8358,
      "examined": 8359,
      "englishman": 8360,
      "jersey": 8361,
      "springs": 8362,
      "rupert": 8363,
      "pierce": 8364,
      "collar": 8365,
      "bruce": 8366,
      "technical": 8367,
      "thirteen": 8368,
      "locate": 8369,
      "regarding": 8370,
      "critical": 8371,
      "prosecutor": 8372,
      "solomon": 8373,
      "nazis": 8374,
      "circuits": 8375,
      "survivors": 8376,
      "integr": 8377,
      "65": 8378,
      "cers": 8379,
      "cody": 8380,
      "dag": 8381,
      "gand": 8382,
      "gul": 8383,
      "lished": 8384,
      "infer": 8385,
      "recon": 8386,
      "resign": 8387,
      "retired": 8388,
      "isance": 8389,
      "edi": 8390,
      "unbelie": 8391,
      "tales": 8392,
      "manu": 8393,
      "bothered": 8394,
      "shino": 8395,
      "marshall": 8396,
      "marnie": 8397,
      "brun": 8398,
      "clothing": 8399,
      "blond": 8400,
      "chall": 8401,
      "latin": 8402,
      "horace": 8403,
      "scul": 8404,
      "generations": 8405,
      "teachers": 8406,
      "natives": 8407,
      "sealed": 8408,
      "recorded": 8409,
      "consideration": 8410,
      "cardinal": 8411,
      "computers": 8412,
      "photographer": 8413,
      "magician": 8414,
      "nicer": 8415,
      "development": 8416,
      "candid": 8417,
      "colorado": 8418,
      "behaved": 8419,
      "combination": 8420,
      "jewelry": 8421,
      "breasts": 8422,
      "ctives": 8423,
      "crushed": 8424,
      "consequences": 8425,
      "vegetables": 8426,
      "procedure": 8427,
      "divided": 8428,
      "portrait": 8429,
      "98": 8430,
      "dried": 8431,
      "gag": 8432,
      "glow": 8433,
      "oz": 8434,
      "r2": 8435,
      "rut": 8436,
      "wages": 8437,
      "yay": 8438,
      "♪♪": 8439,
      "ingrad": 8440,
      "heels": 8441,
      "chart": 8442,
      "rib": 8443,
      "abroad": 8444,
      "amoto": 8445,
      "deleg": 8446,
      "poles": 8447,
      "nast": 8448,
      "offense": 8449,
      "morale": 8450,
      "spared": 8451,
      "tribun": 8452,
      "spoiled": 8453,
      "cesar": 8454,
      "ggins": 8455,
      "sixty": 8456,
      "danced": 8457,
      "gravity": 8458,
      "destination": 8459,
      "christina": 8460,
      "views": 8461,
      "pasha": 8462,
      "moonlight": 8463,
      "anabe": 8464,
      "scarce": 8465,
      "rabbi": 8466,
      "italians": 8467,
      "broadcast": 8468,
      "laszlo": 8469,
      "consciousness": 8470,
      "roots": 8471,
      "wretched": 8472,
      "hawk": 8473,
      "roberts": 8474,
      "ambition": 8475,
      "shrine": 8476,
      "residence": 8477,
      "independent": 8478,
      "dedicated": 8479,
      "virtue": 8480,
      "fiancé": 8481,
      "anthony": 8482,
      "miriam": 8483,
      "43": 8484,
      "gat": 8485,
      "jou": 8486,
      "jere": 8487,
      "kas": 8488,
      "smar": 8489,
      "tut": 8490,
      "ía": 8491,
      "onia": 8492,
      "melt": 8493,
      "orn": 8494,
      "leine": 8495,
      "assumed": 8496,
      "dore": 8497,
      "liza": 8498,
      "chok": 8499,
      "cheng": 8500,
      "vering": 8501,
      "soak": 8502,
      "cooperation": 8503,
      "depressed": 8504,
      "manchu": 8505,
      "poster": 8506,
      "rains": 8507,
      "yev": 8508,
      "venice": 8509,
      "comment": 8510,
      "marc": 8511,
      "proves": 8512,
      "chet": 8513,
      "handled": 8514,
      "sian": 8515,
      "sits": 8516,
      "chot": 8517,
      "badge": 8518,
      "diet": 8519,
      "resting": 8520,
      "aston": 8521,
      "beautifully": 8522,
      "hugo": 8523,
      "begged": 8524,
      "hearted": 8525,
      "commands": 8526,
      "blacksmith": 8527,
      "shotgun": 8528,
      "villages": 8529,
      "submit": 8530,
      "submarine": 8531,
      "stuffed": 8532,
      "alec": 8533,
      "screwed": 8534,
      "surprising": 8535,
      "surprises": 8536,
      "nuisance": 8537,
      "organized": 8538,
      "discussion": 8539,
      "convenience": 8540,
      "communicate": 8541,
      "repent": 8542,
      "sabrina": 8543,
      "eternity": 8544,
      "acquainted": 8545,
      "jett": 8546,
      "crisis": 8547,
      "absence": 8548,
      "issued": 8549,
      "capacity": 8550,
      "fountain": 8551,
      "phoenix": 8552,
      "lust": 8553,
      "vre": 8554,
      "yers": 8555,
      "tod": 8556,
      "mela": 8557,
      "tapes": 8558,
      "aby": 8559,
      "covers": 8560,
      "peggy": 8561,
      "mathem": 8562,
      "hercu": 8563,
      "indul": 8564,
      "ulated": 8565,
      "affer": 8566,
      "promotion": 8567,
      "umbre": 8568,
      "mornin": 8569,
      "gregg": 8570,
      "minh": 8571,
      "monica": 8572,
      "luz": 8573,
      "thoughtful": 8574,
      "tragic": 8575,
      "madeleine": 8576,
      "vian": 8577,
      "chal": 8578,
      "farther": 8579,
      "vow": 8580,
      "cycle": 8581,
      "drives": 8582,
      "starboard": 8583,
      "bender": 8584,
      "learnt": 8585,
      "confident": 8586,
      "bien": 8587,
      "pursuit": 8588,
      "largest": 8589,
      "squir": 8590,
      "sugata": 8591,
      "cabinet": 8592,
      "yankee": 8593,
      "spreading": 8594,
      "virginia": 8595,
      "customs": 8596,
      "bernad": 8597,
      "rarely": 8598,
      "intentions": 8599,
      "loomis": 8600,
      "holland": 8601,
      "solemn": 8602,
      "documents": 8603,
      "korea": 8604,
      "expense": 8605,
      "dolph": 8606,
      "nicholas": 8607,
      "abraham": 8608,
      "magnetic": 8609,
      "curiosity": 8610,
      "efficient": 8611,
      "galley": 8612,
      "hust": 8613,
      "rations": 8614,
      "ranger": 8615,
      "sought": 8616,
      "snat": 8617,
      "wad": 8618,
      "xton": 8619,
      "onor": 8620,
      "orient": 8621,
      "arnold": 8622,
      "leen": 8623,
      "sean": 8624,
      "goe": 8625,
      "coke": 8626,
      "exagger": 8627,
      "consu": 8628,
      "stores": 8629,
      "betting": 8630,
      "mini": 8631,
      "torment": 8632,
      "godfather": 8633,
      "gaston": 8634,
      "penn": 8635,
      "blink": 8636,
      "sinbad": 8637,
      "clam": 8638,
      "mery": 8639,
      "hug": 8640,
      "colas": 8641,
      "compound": 8642,
      "luckily": 8643,
      "invin": 8644,
      "dinosa": 8645,
      "porch": 8646,
      "uniforms": 8647,
      "grocer": 8648,
      "wager": 8649,
      "balboa": 8650,
      "possessed": 8651,
      "belgi": 8652,
      "gamble": 8653,
      "caligula": 8654,
      "threaten": 8655,
      "planted": 8656,
      "gallant": 8657,
      "bunny": 8658,
      "osaka": 8659,
      "limits": 8660,
      "rebecca": 8661,
      "platform": 8662,
      "pronounce": 8663,
      "cossack": 8664,
      "shepherd": 8665,
      "yacht": 8666,
      "chauffeur": 8667,
      "bernadette": 8668,
      "ckett": 8669,
      "dagger": 8670,
      "dentist": 8671,
      "fag": 8672,
      "lass": 8673,
      "mim": 8674,
      "uro": 8675,
      "vot": 8676,
      "wl": 8677,
      "oul": 8678,
      "ints": 8679,
      "onboard": 8680,
      "messi": 8681,
      "meets": 8682,
      "itsu": 8683,
      "goon": 8684,
      "dote": 8685,
      "lio": 8686,
      "ropes": 8687,
      "fork": 8688,
      "uss": 8689,
      "core": 8690,
      "rommel": 8691,
      "endless": 8692,
      "guill": 8693,
      "prospect": 8694,
      "erson": 8695,
      "joshu": 8696,
      "dith": 8697,
      "divisions": 8698,
      "ministry": 8699,
      "monkeys": 8700,
      "lasted": 8701,
      "hurst": 8702,
      "ferr": 8703,
      "dai": 8704,
      "astron": 8705,
      "craig": 8706,
      "treach": 8707,
      "linus": 8708,
      "ilde": 8709,
      "trooper": 8710,
      "hatch": 8711,
      "covering": 8712,
      "bothers": 8713,
      "sherry": 8714,
      "cruchot": 8715,
      "booze": 8716,
      "warmth": 8717,
      "frost": 8718,
      "delta": 8719,
      "custody": 8720,
      "racket": 8721,
      "revolutionary": 8722,
      "effects": 8723,
      "awaken": 8724,
      "insect": 8725,
      "nazare": 8726,
      "strategy": 8727,
      "deliberately": 8728,
      "baptist": 8729,
      "financial": 8730,
      "phrase": 8731,
      "françois": 8732,
      "cue": 8733,
      "dash": 8734,
      "oshi": 8735,
      "insol": 8736,
      "encies": 8737,
      "nova": 8738,
      "heck": 8739,
      "kei": 8740,
      "wiii": 8741,
      "roar": 8742,
      "acknowledge": 8743,
      "donkey": 8744,
      "sob": 8745,
      "defle": 8746,
      "cafe": 8747,
      "marcell": 8748,
      "stored": 8749,
      "spider": 8750,
      "grind": 8751,
      "shares": 8752,
      "dient": 8753,
      "oldest": 8754,
      "creed": 8755,
      "creator": 8756,
      "warsaw": 8757,
      "mild": 8758,
      "parking": 8759,
      "duchess": 8760,
      "vole": 8761,
      "pork": 8762,
      "logist": 8763,
      "joyce": 8764,
      "susy": 8765,
      "versary": 8766,
      "mickey": 8767,
      "controlled": 8768,
      "zawa": 8769,
      "battery": 8770,
      "posts": 8771,
      "tanner": 8772,
      "remaining": 8773,
      "executive": 8774,
      "subjects": 8775,
      "objects": 8776,
      "duncan": 8777,
      "arguing": 8778,
      "oregon": 8779,
      "delayed": 8780,
      "volunteer": 8781,
      "aburo": 8782,
      "elisabeth": 8783,
      "vladimir": 8784,
      "compartment": 8785,
      "messiah": 8786,
      "athe": 8787,
      "dive": 8788,
      "gins": 8789,
      "jab": 8790,
      "inspir": 8791,
      "erous": 8792,
      "theast": 8793,
      "resort": 8794,
      "torious": 8795,
      "encourage": 8796,
      "ofthe": 8797,
      "rik": 8798,
      "verdict": 8799,
      "unfair": 8800,
      "willy": 8801,
      "gott": 8802,
      "ultimate": 8803,
      "exposed": 8804,
      "margo": 8805,
      "downtown": 8806,
      "cheering": 8807,
      "chik": 8808,
      "watanabe": 8809,
      "rug": 8810,
      "fili": 8811,
      "davis": 8812,
      "blank": 8813,
      "beale": 8814,
      "classes": 8815,
      "deaths": 8816,
      "selena": 8817,
      "calcul": 8818,
      "bench": 8819,
      "interrog": 8820,
      "195": 8821,
      "izing": 8822,
      "mption": 8823,
      "continent": 8824,
      "boxer": 8825,
      "slipper": 8826,
      "nami": 8827,
      "piggy": 8828,
      "communists": 8829,
      "discussed": 8830,
      "sofia": 8831,
      "network": 8832,
      "nickel": 8833,
      "swamp": 8834,
      "bachel": 8835,
      "helena": 8836,
      "attempted": 8837,
      "edwardes": 8838,
      "grenade": 8839,
      "ignorant": 8840,
      "greedy": 8841,
      "telegraph": 8842,
      "jupiter": 8843,
      "tribunal": 8844,
      "invincible": 8845,
      "dus": 8846,
      "nay": 8847,
      "snu": 8848,
      "inquir": 8849,
      "anor": 8850,
      "atics": 8851,
      "reign": 8852,
      "remote": 8853,
      "ington": 8854,
      "seeds": 8855,
      "andro": 8856,
      "bels": 8857,
      "liable": 8858,
      "riel": 8859,
      "adult": 8860,
      "timing": 8861,
      "canal": 8862,
      "ushi": 8863,
      "cowards": 8864,
      "comedy": 8865,
      "fears": 8866,
      "boiling": 8867,
      "laure": 8868,
      "impatient": 8869,
      "guo": 8870,
      "underwear": 8871,
      "camel": 8872,
      "parole": 8873,
      "choo": 8874,
      "bushes": 8875,
      "julian": 8876,
      "visual": 8877,
      "comprom": 8878,
      "drawer": 8879,
      "sunshine": 8880,
      "danie": 8881,
      "graph": 8882,
      "19th": 8883,
      "octa": 8884,
      "flora": 8885,
      "frenchy": 8886,
      "panisse": 8887,
      "losses": 8888,
      "reaching": 8889,
      "jealousy": 8890,
      "thirst": 8891,
      "rabbits": 8892,
      "chuckles": 8893,
      "istics": 8894,
      "illegal": 8895,
      "receipt": 8896,
      "hendri": 8897,
      "wendy": 8898,
      "aspirin": 8899,
      "trousers": 8900,
      "orchestra": 8901,
      "dles": 8902,
      "kue": 8903,
      "qin": 8904,
      "sabo": 8905,
      "snif": 8906,
      "tung": 8907,
      "gomery": 8908,
      "hau": 8909,
      "doomed": 8910,
      "alt": 8911,
      "allan": 8912,
      "locks": 8913,
      "lodge": 8914,
      "admitted": 8915,
      "hob": 8916,
      "homic": 8917,
      "absor": 8918,
      "feature": 8919,
      "raising": 8920,
      "sheet": 8921,
      "shri": 8922,
      "excl": 8923,
      "atell": 8924,
      "istan": 8925,
      "offrey": 8926,
      "guitar": 8927,
      "mort": 8928,
      "shaft": 8929,
      "luxu": 8930,
      "matty": 8931,
      "emily": 8932,
      "simo": 8933,
      "paraly": 8934,
      "stefan": 8935,
      "dale": 8936,
      "childish": 8937,
      "sley": 8938,
      "stray": 8939,
      "strings": 8940,
      "supposing": 8941,
      "frust": 8942,
      "lawyers": 8943,
      "businessman": 8944,
      "quicker": 8945,
      "freely": 8946,
      "inviting": 8947,
      "owl": 8948,
      "couch": 8949,
      "resour": 8950,
      "registered": 8951,
      "conflict": 8952,
      "tailor": 8953,
      "cookie": 8954,
      "cognac": 8955,
      "amongst": 8956,
      "shooter": 8957,
      "superb": 8958,
      "elders": 8959,
      "reckless": 8960,
      "existed": 8961,
      "yanzi": 8962,
      "reliable": 8963,
      "rapid": 8964,
      "lungs": 8965,
      "montgomery": 8966,
      "contains": 8967,
      "established": 8968,
      "insulted": 8969,
      "officially": 8970,
      "equally": 8971,
      "valiant": 8972,
      "invention": 8973,
      "accomplish": 8974,
      "yagyu": 8975,
      "inheritance": 8976,
      "rhyth": 8977,
      "compassion": 8978,
      "appropriate": 8979,
      "sustain": 8980,
      "kun": 8981,
      "kol": 8982,
      "mice": 8983,
      "ober": 8984,
      "pars": 8985,
      "swo": 8986,
      "scor": 8987,
      "tink": 8988,
      "wud": 8989,
      "yield": 8990,
      "mete": 8991,
      "isle": 8992,
      "stac": 8993,
      "whel": 8994,
      "hazel": 8995,
      "editor": 8996,
      "livius": 8997,
      "lois": 8998,
      "hier": 8999,
      "lyde": 9000,
      "odor": 9001,
      "upside": 9002,
      "pots": 9003,
      "poten": 9004,
      "entists": 9005,
      "iche": 9006,
      "perce": 9007,
      "focus": 9008,
      "wah": 9009,
      "affir": 9010,
      "prefect": 9011,
      "chell": 9012,
      "grease": 9013,
      "minim": 9014,
      "drama": 9015,
      "ancey": 9016,
      "mative": 9017,
      "wrist": 9018,
      "writes": 9019,
      "broom": 9020,
      "brothel": 9021,
      "thrust": 9022,
      "lightly": 9023,
      "bara": 9024,
      "norma": 9025,
      "excess": 9026,
      "shipment": 9027,
      "generally": 9028,
      "patron": 9029,
      "freight": 9030,
      "gladi": 9031,
      "regards": 9032,
      "destroying": 9033,
      "guarded": 9034,
      "heroic": 9035,
      "isaac": 9036,
      "travelling": 9037,
      "tourists": 9038,
      "debbie": 9039,
      "swan": 9040,
      "austria": 9041,
      "foreigners": 9042,
      "kimchi": 9043,
      "expenses": 9044,
      "fantasy": 9045,
      "notify": 9046,
      "disguise": 9047,
      "publicity": 9048,
      "intellectual": 9049,
      "wilderness": 9050,
      "shanghai": 9051,
      "certificate": 9052,
      "wudang": 9053,
      "46": 9054,
      "claw": 9055,
      "gé": 9056,
      "lonel": 9057,
      "ovich": 9058,
      "yancey": 9059,
      "isen": 9060,
      "stum": 9061,
      "nomad": 9062,
      "wilf": 9063,
      "moore": 9064,
      "lazar": 9065,
      "endor": 9066,
      "compens": 9067,
      "overcome": 9068,
      "proposition": 9069,
      "prus": 9070,
      "morgue": 9071,
      "tyler": 9072,
      "monks": 9073,
      "turner": 9074,
      "believing": 9075,
      "slee": 9076,
      "harrington": 9077,
      "jection": 9078,
      "jug": 9079,
      "fund": 9080,
      "compare": 9081,
      "sunny": 9082,
      "grandson": 9083,
      "vicious": 9084,
      "victori": 9085,
      "midst": 9086,
      "clients": 9087,
      "striker": 9088,
      "judah": 9089,
      "kicking": 9090,
      "stret": 9091,
      "gardener": 9092,
      "practicing": 9093,
      "negle": 9094,
      "chambers": 9095,
      "desperately": 9096,
      "blasted": 9097,
      "creeps": 9098,
      "institution": 9099,
      "affected": 9100,
      "frederick": 9101,
      "dixie": 9102,
      "glenn": 9103,
      "halloween": 9104,
      "grudge": 9105,
      "environment": 9106,
      "opponent": 9107,
      "commissar": 9108,
      "dietrichson": 9109,
      "umbrella": 9110,
      "loneliness": 9111,
      "700": 9112,
      "dates": 9113,
      "ein": 9114,
      "fers": 9115,
      "gitt": 9116,
      "hup": 9117,
      "kry": 9118,
      "kris": 9119,
      "kram": 9120,
      "nn": 9121,
      "swa": 9122,
      "twin": 9123,
      "yow": 9124,
      "insp": 9125,
      "resent": 9126,
      "reserved": 9127,
      "ision": 9128,
      "stals": 9129,
      "leut": 9130,
      "assuming": 9131,
      "hawa": 9132,
      "welf": 9133,
      "dod": 9134,
      "robot": 9135,
      "irrit": 9136,
      "tien": 9137,
      "neil": 9138,
      "peare": 9139,
      "tease": 9140,
      "iece": 9141,
      "plor": 9142,
      "plac": 9143,
      "conclu": 9144,
      "trou": 9145,
      "waist": 9146,
      "promo": 9147,
      "wonka": 9148,
      "reads": 9149,
      "digest": 9150,
      "montana": 9151,
      "sery": 9152,
      "rented": 9153,
      "sinh": 9154,
      "diem": 9155,
      "franco": 9156,
      "husbands": 9157,
      "legit": 9158,
      "sunrise": 9159,
      "cuchill": 9160,
      "20th": 9161,
      "crystals": 9162,
      "instinct": 9163,
      "univer": 9164,
      "confusion": 9165,
      "tucker": 9166,
      "millionaire": 9167,
      "15th": 9168,
      "transmission": 9169,
      "concerns": 9170,
      "bonus": 9171,
      "gardiner": 9172,
      "suggesting": 9173,
      "inspection": 9174,
      "nursery": 9175,
      "sweets": 9176,
      "wilkes": 9177,
      "andrew": 9178,
      "execute": 9179,
      "hooked": 9180,
      "bacon": 9181,
      "titles": 9182,
      "pupil": 9183,
      "achieved": 9184,
      "philosopher": 9185,
      "announcement": 9186,
      "kurt": 9187,
      "nando": 9188,
      "clerk": 9189,
      "dramatic": 9190,
      "salvation": 9191,
      "shakespeare": 9192,
      "priority": 9193,
      "heavily": 9194,
      "arrogant": 9195,
      "gossip": 9196,
      "leutnant": 9197,
      "awaiting": 9198,
      "chel": 9199,
      "ctic": 9200,
      "malone": 9201,
      "mult": 9202,
      "nad": 9203,
      "atsu": 9204,
      "toto": 9205,
      "toss": 9206,
      "lique": 9207,
      "alphon": 9208,
      "iday": 9209,
      "utes": 9210,
      "tips": 9211,
      "terrace": 9212,
      "detach": 9213,
      "mock": 9214,
      "tet": 9215,
      "willow": 9216,
      "yevich": 9217,
      "marble": 9218,
      "waitin": 9219,
      "shared": 9220,
      "monsters": 9221,
      "handful": 9222,
      "files": 9223,
      "owners": 9224,
      "chaun": 9225,
      "sinu": 9226,
      "correspond": 9227,
      "skies": 9228,
      "flown": 9229,
      "ggled": 9230,
      "evna": 9231,
      "picks": 9232,
      "bail": 9233,
      "graham": 9234,
      "190": 9235,
      "izona": 9236,
      "crosses": 9237,
      "spectac": 9238,
      "birdie": 9239,
      "doubted": 9240,
      "filling": 9241,
      "cigars": 9242,
      "streak": 9243,
      "increasing": 9244,
      "massive": 9245,
      "rachel": 9246,
      "african": 9247,
      "ruthless": 9248,
      "grub": 9249,
      "bridges": 9250,
      "olymp": 9251,
      "evidently": 9252,
      "awkward": 9253,
      "hawaii": 9254,
      "alphonse": 9255,
      "1000": 9256,
      "dine": 9257,
      "jill": 9258,
      "kass": 9259,
      "slam": 9260,
      "envelo": 9261,
      "stack": 9262,
      "strom": 9263,
      "whale": 9264,
      "arizona": 9265,
      "veget": 9266,
      "veins": 9267,
      "sec": 9268,
      "rides": 9269,
      "lobby": 9270,
      "tagon": 9271,
      "illust": 9272,
      "saxon": 9273,
      "suz": 9274,
      "sula": 9275,
      "indis": 9276,
      "abouts": 9277,
      "ounge": 9278,
      "lah": 9279,
      "thinkin": 9280,
      "performed": 9281,
      "ulu": 9282,
      "fame": 9283,
      "aft": 9284,
      "mari": 9285,
      "morrison": 9286,
      "luci": 9287,
      "courts": 9288,
      "friar": 9289,
      "rubles": 9290,
      "fiance": 9291,
      "steer": 9292,
      "bitches": 9293,
      "ctors": 9294,
      "beamed": 9295,
      "drey": 9296,
      "astro": 9297,
      "prettier": 9298,
      "airplane": 9299,
      "bathing": 9300,
      "valerie": 9301,
      "sanct": 9302,
      "gesture": 9303,
      "differently": 9304,
      "phic": 9305,
      "tuck": 9306,
      "images": 9307,
      "announced": 9308,
      "heavenly": 9309,
      "colleague": 9310,
      "geese": 9311,
      "include": 9312,
      "pilar": 9313,
      "rational": 9314,
      "explosives": 9315,
      "stalin": 9316,
      "swallowed": 9317,
      "obedience": 9318,
      "convict": 9319,
      "accomplished": 9320,
      "shirts": 9321,
      "houston": 9322,
      "sighs": 9323,
      "ruler": 9324,
      "translator": 9325,
      "cuchillo": 9326,
      "72": 9327,
      "achi": 9328,
      "bates": 9329,
      "das": 9330,
      "fen": 9331,
      "flet": 9332,
      "iance": 9333,
      "ique": 9334,
      "kr": 9335,
      "mme": 9336,
      "ove": 9337,
      "tart": 9338,
      "thigh": 9339,
      "infinite": 9340,
      "rene": 9341,
      "ishes": 9342,
      "stine": 9343,
      "asu": 9344,
      "hap": 9345,
      "keyes": 9346,
      "tiest": 9347,
      "hilda": 9348,
      "hereby": 9349,
      "pled": 9350,
      "whores": 9351,
      "laus": 9352,
      "ieu": 9353,
      "wool": 9354,
      "tellin": 9355,
      "waa": 9356,
      "marcello": 9357,
      "preced": 9358,
      "mustache": 9359,
      "prob": 9360,
      "whipped": 9361,
      "apiece": 9362,
      "ranks": 9363,
      "mikey": 9364,
      "ffy": 9365,
      "float": 9366,
      "smack": 9367,
      "drivers": 9368,
      "excuses": 9369,
      "evacu": 9370,
      "signals": 9371,
      "calf": 9372,
      "decay": 9373,
      "bagh": 9374,
      "closest": 9375,
      "graves": 9376,
      "cries": 9377,
      "solitary": 9378,
      "opposed": 9379,
      "interpret": 9380,
      "throws": 9381,
      "climate": 9382,
      "climbed": 9383,
      "majority": 9384,
      "footsteps": 9385,
      "12th": 9386,
      "louisa": 9387,
      "targets": 9388,
      "instructed": 9389,
      "thompson": 9390,
      "rescu": 9391,
      "cottage": 9392,
      "pouring": 9393,
      "persist": 9394,
      "principles": 9395,
      "holidays": 9396,
      "warehouse": 9397,
      "signora": 9398,
      "tribute": 9399,
      "brigade": 9400,
      "branches": 9401,
      "accurate": 9402,
      "colored": 9403,
      "sacrificed": 9404,
      "consist": 9405,
      "phenomen": 9406,
      "strongest": 9407,
      "hungarian": 9408,
      "chauncey": 9409,
      "fuse": 9410,
      "slu": 9411,
      "uals": 9412,
      "atro": 9413,
      "toro": 9414,
      "issa": 9415,
      "aristo": 9416,
      "ripe": 9417,
      "forcing": 9418,
      "accent": 9419,
      "myr": 9420,
      "tam": 9421,
      "taker": 9422,
      "males": 9423,
      "cathe": 9424,
      "poses": 9425,
      "herod": 9426,
      "histori": 9427,
      "endure": 9428,
      "greg": 9429,
      "capri": 9430,
      "seryo": 9431,
[...]
