{
  "version": "1.0",
  "truncation": null,
  "padding": null,
  "added_tokens": [
    {
      "id": 0,
      "content": "[UNK]",
      "single_word": false,
      "lstrip": false,
      "rstrip": false,
      "normalized": false,
      "special": true
    },
    {
      "id": 1,
      "content": "[PAD]",
      "single_word": false,
      "lstrip": false,
      "rstrip": false,
      "normalized": false,
      "special": true
    },
    {
      "id": 2,
      "content": "sostoken",
      "single_word": false,
      "lstrip": false,
      "rstrip": false,
      "normalized": false,
      "special": true
    },
    {
      "id": 3,
      "content": "eostoken",
      "single_word": false,
      "lstrip": false,
      "rstrip": false,
      "normalized": false,
      "special": true
    }
  ],
  "normalizer": null,
  "pre_tokenizer": {
    "type": "Whitespace"
  },
  "post_processor": null,
  "decoder": null,
  "model": {
    "type": "BPE",
    "dropout": null,
    "unk_token": "[UNK]",
    "continuing_subword_prefix": null,
    "end_of_word_suffix": null,
    "fuse_unk": false,
    "byte_fallback": false,
    "ignore_merges": false,
    "vocab": {
      "[UNK]": 0,
      "[PAD]": 1,
      "sostoken": 2,
      "eostoken": 3,
      "!": 4,
      "#": 5,
      "$": 6,
      "%": 7,
      "'": 8,
      "(": 9,
      ")": 10,
      "*": 11,
      "+": 12,
      ",": 13,
      "-": 14,
      ".": 15,
      "/": 16,
      "0": 17,
      "1": 18,
      "2": 19,
      "3": 20,
      "4": 21,
      "5": 22,
      "6": 23,
      "7": 24,
      "8": 25,
      "9": 26,
      ":": 27,
      ";": 28,
      "=": 29,
      "?": 30,
      "@": 31,
      "[": 32,
      "\\": 33,
      "]": 34,
      "^": 35,
      "_": 36,
      "`": 37,
      "a": 38,
      "b": 39,
      "c": 40,
      "d": 41,
      "e": 42,
      "f": 43,
      "g": 44,
      "h": 45,
      "i": 46,
      "j": 47,
      "k": 48,
      "l": 49,
      "m": 50,
      "n": 51,
      "o": 52,
      "p": 53,
      "q": 54,
      "r": 55,
      "s": 56,
      "t": 57,
      "u": 58,
      "v": 59,
      "w": 60,
      "x": 61,
      "y": 62,
      "z": 63,
      "{": 64,
      "|": 65,
      "}": 66,
      "~": 67,
      "": 68,
      "": 69,
      "": 70,
      "": 71,
      "": 72,
      "": 73,
      "¡": 74,
      "¢": 75,
      "£": 76,
      "¤": 77,
      "¥": 78,
      "§": 79,
      "©": 80,
      "°": 81,
      "²": 82,
      "³": 83,
      "¶": 84,
      "·": 85,
      "¸": 86,
      "º": 87,
      "½": 88,
      "¿": 89,
      "×": 90,
      "ß": 91,
      "à": 92,
      "á": 93,
      "â": 94,
      "ã": 95,
      "ä": 96,
      "å": 97,
      "æ": 98,
      "ç": 99,
      "è": 100,
      "é": 101,
      "ê": 102,
      "ë": 103,
      "ì": 104,
      "í": 105,
      "î": 106,
      "ï": 107,
      "ð": 108,
      "ñ": 109,
      "ò": 110,
      "ó": 111,
      "ô": 112,
      "õ": 113,
      "ö": 114,
      "÷": 115,
      "ø": 116,
      "ù": 117,
      "ú": 118,
      "û": 119,
      "ü": 120,
      "ý": 121,
      "þ": 122,
      "ÿ": 123,
      "ā": 124,
      "ă": 125,
      "đ": 126,
      "ē": 127,
      "ĩ": 128,
      "ī": 129,
      "ĭ": 130,
      "ł": 131,
      "ń": 132,
      "ō": 133,
      "ő": 134,
      "œ": 135,
      "ř": 136,
      "š": 137,
      "ũ": 138,
      "ū": 139,
      "ž": 140,
      "ơ": 141,
      "ư": 142,
      "ȗ": 143,
      "ɢ": 144,
      "ɧ": 145,
      "ɪ": 146,
      "ɱ": 147,
      "ʝ": 148,
      "ʟ": 149,
      "̀": 150,
      "́": 151,
      "̃": 152,
      "̉": 153,
      "̔": 154,
      "̣": 155,
      "̀": 156,
      "́": 157,
      "͞": 158,
      "α": 159,
      "η": 160,
      "κ": 161,
      "μ": 162,
      "ν": 163,
      "ο": 164,
      "π": 165,
      "ρ": 166,
      "ς": 167,
      "σ": 168,
      "τ": 169,
      "ύ": 170,
      "а": 171,
      "б": 172,
      "в": 173,
      "г": 174,
      "д": 175,
      "е": 176,
      "ж": 177,
      "з": 178,
      "и": 179,
      "й": 180,
      "к": 181,
      "л": 182,
      "м": 183,
      "н": 184,
      "о": 185,
      "п": 186,
      "р": 187,
      "с": 188,
      "т": 189,
      "у": 190,
      "ф": 191,
      "х": 192,
      "ц": 193,
      "ч": 194,
      "ш": 195,
      "щ": 196,
      "ъ": 197,
      "ы": 198,
      "ь": 199,
      "э": 200,
      "ю": 201,
      "я": 202,
      "ё": 203,
      "ї": 204,
      "ࢮ": 205,
      "ࣰ": 206,
      "᯲": 207,
      "ạ": 208,
      "ả": 209,
      "ấ": 210,
      "ầ": 211,
      "ẩ": 212,
      "ẫ": 213,
      "ậ": 214,
      "ắ": 215,
      "ằ": 216,
      "ẳ": 217,
      "ẵ": 218,
      "ặ": 219,
      "ẹ": 220,
      "ẻ": 221,
      "ẽ": 222,
      "ế": 223,
      "ề": 224,
      "ể": 225,
      "ễ": 226,
      "ệ": 227,
      "ỉ": 228,
      "ị": 229,
      "ọ": 230,
      "ỏ": 231,
      "ố": 232,
      "ồ": 233,
      "ổ": 234,
      "ỗ": 235,
      "ộ": 236,
      "ớ": 237,
      "ờ": 238,
      "ở": 239,
      "ỡ": 240,
      "ợ": 241,
      "ụ": 242,
      "ủ": 243,
      "ứ": 244,
      "ừ": 245,
      "ử": 246,
      "ữ": 247,
      "ự": 248,
      "ỳ": 249,
      "ỵ": 250,
      "ỷ": 251,
      "ỹ": 252,
      "​": 253,
      "–": 254,
      "—": 255,
      "⁄": 256,
      "₩": 257,
      "₫": 258,
      "€": 259,
      "≈": 260,
      "─": 261,
      "☺": 262,
      "♥": 263,
      "♪": 264,
      "♫": 265,
      "⠀": 266,
      "。": 267,
      "「": 268,
      "」": 269,
      "一": 270,
      "不": 271,
      "丹": 272,
      "了": 273,
      "亮": 274,
      "人": 275,
      "住": 276,
      "你": 277,
      "來": 278,
      "們": 279,
      "傑": 280,
      "北": 281,
      "反": 282,
      "名": 283,
      "吧": 284,
      "呀": 285,
      "哇": 286,
      "哥": 287,
      "唉": 288,
      "唱": 289,
      "啊": 290,
      "喂": 291,
      "喬": 292,
      "嗓": 293,
      "大": 294,
      "天": 295,
      "套": 296,
      "好": 297,
      "安": 298,
      "小": 299,
      "就": 300,
      "嵐": 301,
      "己": 302,
      "帥": 303,
      "幫": 304,
      "強": 305,
      "心": 306,
      "怎": 307,
      "我": 308,
      "換": 309,
      "敦": 310,
      "方": 311,
      "早": 312,
      "是": 313,
      "晚": 314,
      "會": 315,
      "柯": 316,
      "森": 317,
      "槍": 318,
      "標": 319,
      "樣": 320,
      "正": 321,
      "歩": 322,
      "比": 323,
      "沒": 324,
      "清": 325,
      "準": 326,
      "漂": 327,
      "煌": 328,
      "玉": 329,
      "病": 330,
      "發": 331,
      "神": 332,
      "秦": 333,
      "空": 334,
      "簽": 335,
      "經": 336,
      "腔": 337,
      "荒": 338,
      "蕭": 339,
      "行": 340,
      "角": 341,
      "誓": 342,
      "走": 343,
      "起": 344,
      "跳": 345,
      "這": 346,
      "過": 347,
      "遠": 348,
      "都": 349,
      "金": 350,
      "銀": 351,
      "開": 352,
      "阿": 353,
      "靜": 354,
      "頂": 355,
      "飛": 356,
      "香": 357,
      "高": 358,
      "麼": 359,
      "궜": 360,
      "": 361,
      "﻿": 362,
      "！": 363,
      "，": 364,
      "？": 365,
      "�": 366,
      "ng": 367,
      "nh": 368,
      "ch": 369,
      "th": 370,
      "kh": 371,
      "ông": 372,
      "ôi": 373,
      "tôi": 374,
      "không": 375,
      "là": 376,
      "anh": 377,
      "tr": 378,
      "có": 379,
      "ph": 380,
      "ta": 381,
      "gi": 382,
      "đi": 383,
      "và": 384,
      "ên": 385,
      "ấy": 386,
      "nó": 387,
      "iế": 388,
      "ời": 389,
      "ột": 390,
      "một": 391,
      "nà": 392,
      "chú": 393,
      "qu": 394,
      "ới": 395,
      "sẽ": 396,
      "đư": 397,
      "đâ": 398,
      "đó": 399,
      "ủa": 400,
      "đã": 401,
      "của": 402,
      "cá": 403,
      "em": 404,
      "sa": 405,
      "ại": 406,
      "on": 407,
      "ngư": 408,
      "ải": 409,
      "như": 410,
      "ất": 411,
      "gì": 412,
      "chúng": 413,
      "cô": 414,
      "ợc": 415,
      "cho": 416,
      "được": 417,
      "người": 418,
      "uố": 419,
      "phải": 420,
      "ồi": 421,
      "uy": 422,
      "làm": 423,
      "ngh": 424,
      "iệ": 425,
      "đây": 426,
      "an": 427,
      "này": 428,
      "ai": 429,
      "iết": 430,
      "con": 431,
      "ay": 432,
      "rồi": 433,
      "nói": 434,
      "với": 435,
      "ra": 436,
      "sao": 437,
      "thể": 438,
      "biết": 439,
      "ong": 440,
      "vậ": 441,
      "ang": 442,
      "cả": 443,
      "in": 444,
      "ết": 445,
      "ều": 446,
      "vậy": 447,
      "lại": 448,
      "ần": 449,
      "ến": 450,
      "ình": 451,
      "để": 452,
      "mà": 453,
      "uốn": 454,
      "họ": 455,
      "muốn": 456,
      "nào": 457,
      "trong": 458,
      "thế": 459,
      "đến": 460,
      "ơn": 461,
      "ừng": 462,
      "nhưng": 463,
      "khi": 464,
      "ài": 465,
      "ướ": 466,
      "ơi": 467,
      "ưa": 468,
      "ân": 469,
      "ắn": 470,
      "uyệ": 471,
      "cái": 472,
      "đang": 473,
      "ững": 474,
      "những": 475,
      "về": 476,
      "ật": 477,
      "giờ": 478,
      "đâu": 479,
      "thấy": 480,
      "ác": 481,
      "chỉ": 482,
      "er": 483,
      "ti": 484,
      "ếu": 485,
      "nghĩ": 486,
      "nhi": 487,
      "các": 488,
      "tố": 489,
      "uyện": 490,
      "òn": 491,
      "ước": 492,
      "nếu": 493,
      "nữ": 494,
      "vào": 495,
      "cũ": 496,
      "ạn": 497,
      "ar": 498,
      "ho": 499,
      "ằng": 500,
      "còn": 501,
      "ậu": 502,
      "bị": 503,
      "bà": 504,
      "ầu": 505,
      "cũng": 506,
      "chuyện": 507,
      "ống": 508,
      "thì": 509,
      "ba": 510,
      "êu": 511,
      "cậu": 512,
      "úng": 513,
      "rất": 514,
      "ền": 515,
      "ọi": 516,
      "ây": 517,
      "việ": 518,
      "mình": 519,
      "àng": 520,
      "àn": 521,
      "điều": 522,
      "en": 523,
      "ờng": 524,
      "ắc": 525,
      "nữa": 526,
      "ận": 527,
      "thôi": 528,
      "ki": 529,
      "thật": 530,
      "ái": 531,
      "lo": 532,
      "hi": 533,
      "ăn": 534,
      "nhà": 535,
      "hã": 536,
      "chứ": 537,
      "vì": 538,
      "lên": 539,
      "ành": 540,
      "đừng": 541,
      "hắn": 542,
      "ùng": 543,
      "át": 544,
      "việc": 545,
      "li": 546,
      "ắt": 547,
      "ỏi": 548,
      "thứ": 549,
      "bạn": 550,
      "xin": 551,
      "hãy": 552,
      "từ": 553,
      "úc": 554,
      "to": 555,
      "iến": 556,
      "đúng": 557,
      "áng": 558,
      "ích": 559,
      "eo": 560,
      "tốt": 561,
      "nghe": 562,
      "sự": 563,
      "hơn": 564,
      "quá": 565,
      "tới": 566,
      "chưa": 567,
      "ính": 568,
      "òng": 569,
      "cứ": 570,
      "au": 571,
      "ội": 572,
      "đấy": 573,
      "ôn": 574,
      "áu": 575,
      "ươ": 576,
      "đồ": 577,
      "nhiều": 578,
      "ương": 579,
      "ổi": 580,
      "lu": 581,
      "ăm": 582,
      "cần": 583,
      "ối": 584,
      "đầu": 585,
      "ngài": 586,
      "trên": 587,
      "ánh": 588,
      "ộc": 589,
      "ày": 590,
      "mẹ": 591,
      "áo": 592,
      "bả": 593,
      "yêu": 594,
      "cảm": 595,
      "ào": 596,
      "ỗi": 597,
      "tại": 598,
      "ặp": 599,
      "âu": 600,
      "uống": 601,
      "ểu": 602,
      "ẫn": 603,
      "co": 604,
      "ực": 605,
      "âng": 606,
      "tiế": 607,
      "inh": 608,
      "chết": 609,
      "ưở": 610,
      "nên": 611,
      "thưa": 612,
      "gặp": 613,
      "trước": 614,
      "ngày": 615,
      "tất": 616,
      "ưởng": 617,
      "mọi": 618,
      "vâng": 619,
      "le": 620,
      "am": 621,
      "cu": 622,
      "ặt": 623,
      "công": 624,
      "ục": 625,
      "bao": 626,
      "ìn": 627,
      "ìm": 628,
      "ức": 629,
      "tin": 630,
      "sau": 631,
      "ọn": 632,
      "hai": 633,
      "ắm": 634,
      "ri": 635,
      "cháu": 636,
      "nhìn": 637,
      "êm": 638,
      "chắc": 639,
      "el": 640,
      "qua": 641,
      "tìm": 642,
      "theo": 643,
      "do": 644,
      "bu": 645,
      "ường": 646,
      "nhất": 647,
      "cha": 648,
      "la": 649,
      "ượ": 650,
      "khác": 651,
      "hay": 652,
      "ca": 653,
      "chị": 654,
      "rằng": 655,
      "đưa": 656,
      "sống": 657,
      "thích": 658,
      "ngay": 659,
      "ro": 660,
      "iệt": 661,
      "mày": 662,
      "ngo": 663,
      "vi": 664,
      "chào": 665,
      "ửa": 666,
      "cách": 667,
      "tên": 668,
      "cùng": 669,
      "án": 670,
      "đị": 671,
      "bây": 672,
      "ung": 673,
      "âm": 674,
      "bắt": 675,
      "chi": 676,
      "năm": 677,
      "ấu": 678,
      "lúc": 679,
      "lấy": 680,
      "ăng": 681,
      "xem": 682,
      "ấn": 683,
      "thành": 684,
      "ặc": 685,
      "ma": 686,
      "tu": 687,
      "thu": 688,
      "lỗi": 689,
      "ọng": 690,
      "di": 691,
      "vẫn": 692,
      "hiểu": 693,
      "tự": 694,
      "vu": 695,
      "quan": 696,
      "hết": 697,
      "bố": 698,
      "tiền": 699,
      "iện": 700,
      "mi": 701,
      "tay": 702,
      "giết": 703,
      "ách": 704,
      "mới": 705,
      "bi": 706,
      "sĩ": 707,
      "nay": 708,
      "ập": 709,
      "úp": 710,
      "ắng": 711,
      "lần": 712,
      "gọi": 713,
      "ộng": 714,
      "lắm": 715,
      "xuống": 716,
      "es": 717,
      "ẳng": 718,
      "khỏi": 719,
      "nhận": 720,
      "đường": 721,
      "xe": 722,
      "chính": 723,
      "ạnh": 724,
      "mu": 725,
      "cuộc": 726,
      "gia": 727,
      "ạm": 728,
      "đại": 729,
      "quy": 730,
      "bỏ": 731,
      "đứ": 732,
      "cơ": 733,
      "số": 734,
      "tao": 735,
      "nhân": 736,
      "giúp": 737,
      "cư": 738,
      "kho": 739,
      "ngươi": 740,
      "ám": 741,
      "nhiên": 742,
      "or": 743,
      "bọn": 744,
      "trở": 745,
      "chúa": 746,
      "00": 747,
      "giữ": 748,
      "ốc": 749,
      "phi": 750,
      "gái": 751,
      "ẩn": 752,
      "phòng": 753,
      "bảo": 754,
      "óc": 755,
      "ợi": 756,
      "ển": 757,
      "ẹp": 758,
      "mặt": 759,
      "ck": 760,
      "thời": 761,
      "định": 762,
      "ừa": 763,
      "da": 764,
      "hả": 765,
      "mất": 766,
      "chiến": 767,
      "chút": 768,
      "ngoài": 769,
      "bằng": 770,
      "ạc": 771,
      "tối": 772,
      "ểm": 773,
      "lời": 774,
      "vui": 775,
      "ảy": 776,
      "nơi": 777,
      "thực": 778,
      "ệnh": 779,
      "ạy": 780,
      "nước": 781,
      "re": 782,
      "luôn": 783,
      "bất": 784,
      "ởi": 785,
      "vị": 786,
      "ạo": 787,
      "đẹp": 788,
      "se": 789,
      "nhau": 790,
      "bé": 791,
      "ầm": 792,
      "đánh": 793,
      "út": 794,
      "áy": 795,
      "ổng": 796,
      "hỏi": 797,
      "đồng": 798,
      "trả": 799,
      "ản": 800,
      "iệu": 801,
      "chu": 802,
      "tình": 803,
      "nhanh": 804,
      "ngủ": 805,
      "al": 806,
      "tiếp": 807,
      "bộ": 808,
      "bác": 809,
      "phụ": 810,
      "nhớ": 811,
      "vô": 812,
      "bên": 813,
      "àu": 814,
      "trưởng": 815,
      "lẽ": 816,
      "chiế": 817,
      "quay": 818,
      "nhé": 819,
      "hàng": 820,
      "lý": 821,
      "gh": 822,
      "chuy": 823,
      "cố": 824,
      "chẳng": 825,
      "lớ": 826,
      "từng": 827,
      "sáng": 828,
      "chờ": 829,
      "sát": 830,
      "kia": 831,
      "chỗ": 832,
      "cổ": 833,
      "tâm": 834,
      "động": 835,
      "ầy": 836,
      "sợ": 837,
      "quân": 838,
      "giống": 839,
      "ấp": 840,
      "hành": 841,
      "ni": 842,
      "tho": 843,
      "toàn": 844,
      "ồng": 845,
      "biệt": 846,
      "ắp": 847,
      "ồn": 848,
      "đo": 849,
      "kẻ": 850,
      "báo": 851,
      "ly": 852,
      "khó": 853,
      "hô": 854,
      "gian": 855,
      "học": 856,
      "mấy": 857,
      "vụ": 858,
      "cảnh": 859,
      "trai": 860,
      "uyệt": 861,
      "đủ": 862,
      "đêm": 863,
      "ảnh": 864,
      "mar": 865,
      "chơi": 866,
      "lâu": 867,
      "oh": 868,
      "dư": 869,
      "cầu": 870,
      "lớn": 871,
      "tàu": 872,
      "tiếng": 873,
      "tuyệt": 874,
      "ượng": 875,
      "thi": 876,
      "sinh": 877,
      "đợi": 878,
      "cửa": 879,
      "vài": 880,
      "đàn": 881,
      "ou": 882,
      "phá": 883,
      "ét": 884,
      "te": 885,
      "đều": 886,
      "mang": 887,
      "sư": 888,
      "uối": 889,
      "trẻ": 890,
      "trung": 891,
      "ít": 892,
      "su": 893,
      "ốn": 894,
      "ha": 895,
      "si": 896,
      "ướng": 897,
      "ngồi": 898,
      "nhỏ": 899,
      "đáng": 900,
      "đề": 901,
      "hôm": 902,
      "ter": 903,
      "hiện": 904,
      "kết": 905,
      "chủ": 906,
      "xa": 907,
      "bởi": 908,
      "chiếc": 909,
      "ne": 910,
      "tưởng": 911,
      "vừa": 912,
      "ạt": 913,
      "trọng": 914,
      "ảng": 915,
      "huy": 916,
      "ọc": 917,
      "phí": 918,
      "tra": 919,
      "trời": 920,
      "lòng": 921,
      "bắn": 922,
      "viên": 923,
      "chịu": 924,
      "kiế": 925,
      "na": 926,
      "bo": 927,
      "dù": 928,
      "tội": 929,
      "ổn": 930,
      "thằng": 931,
      "bình": 932,
      "ép": 933,
      "đối": 934,
      "thương": 935,
      "coi": 936,
      "giới": 937,
      "me": 938,
      "máy": 939,
      "ìa": 940,
      "hình": 941,
      "ko": 942,
      "thường": 943,
      "vợ": 944,
      "thân": 945,
      "xu": 946,
      "câu": 947,
      "vẻ": 948,
      "and": 949,
      "iệm": 950,
      "ựa": 951,
      "lã": 952,
      "ễn": 953,
      "tiên": 954,
      "chạy": 955,
      "ếp": 956,
      "điệ": 957,
      "thêm": 958,
      "cứu": 959,
      "hoặc": 960,
      "uyền": 961,
      "đất": 962,
      "cám": 963,
      "ạng": 964,
      "đứng": 965,
      "ke": 966,
      "quý": 967,
      "gần": 968,
      "cuối": 969,
      "xảy": 970,
      "ợp": 971,
      "thần": 972,
      "ấm": 973,
      "mai": 974,
      "đời": 975,
      "de": 976,
      "ịch": 977,
      "ụng": 978,
      "óng": 979,
      "súng": 980,
      "hợp": 981,
      "giải": 982,
      "dưới": 983,
      "us": 984,
      "no": 985,
      "po": 986,
      "đội": 987,
      "chắn": 988,
      "rõ": 989,
      "so": 990,
      "hội": 991,
      "giá": 992,
      "bản": 993,
      "quên": 994,
      "chí": 995,
      "vọng": 996,
      "thị": 997,
      "tử": 998,
      "nghi": 999,
      "uyên": 1000,
      "im": 1001,
      "thay": 1002,
      "ạch": 1003,
      "ặng": 1004,
      "hoàn": 1005,
      "trông": 1006,
      "thủ": 1007,
      "is": 1008,
      "tạm": 1009,
      "thông": 1010,
      "trường": 1011,
      "đứa": 1012,
      "bay": 1013,
      "tt": 1014,
      "mắt": 1015,
      "kỳ": 1016,
      "tớ": 1017,
      "thư": 1018,
      "be": 1019,
      "kiếm": 1020,
      "hoàng": 1021,
      "ka": 1022,
      "cao": 1023,
      "phát": 1024,
      "đức": 1025,
      "chân": 1026,
      "vấn": 1027,
      "quyết": 1028,
      "go": 1029,
      "yên": 1030,
      "điên": 1031,
      "ry": 1032,
      "hôn": 1033,
      "son": 1034,
      "khách": 1035,
      "may": 1036,
      "ùa": 1037,
      "mã": 1038,
      "iệp": 1039,
      "xác": 1040,
      "kìa": 1041,
      "mời": 1042,
      "ton": 1043,
      "mở": 1044,
      "phía": 1045,
      "kể": 1046,
      "già": 1047,
      "ru": 1048,
      "ữa": 1049,
      "dừng": 1050,
      "mua": 1051,
      "dùng": 1052,
      "tháng": 1053,
      "thức": 1054,
      "liên": 1055,
      "ẵn": 1056,
      "hy": 1057,
      "đôi": 1058,
      "ậy": 1059,
      "đu": 1060,
      "dễ": 1061,
      "iếu": 1062,
      "đổi": 1063,
      "lệnh": 1064,
      "ll": 1065,
      "lư": 1066,
      "ớm": 1067,
      "điện": 1068,
      "tính": 1069,
      "rượ": 1070,
      "trái": 1071,
      "phần": 1072,
      "nghĩa": 1073,
      "tục": 1074,
      "buổi": 1075,
      "sh": 1076,
      "sẵn": 1077,
      "đặt": 1078,
      "phép": 1079,
      "rượu": 1080,
      "chuyển": 1081,
      "dân": 1082,
      "thử": 1083,
      "rời": 1084,
      "ber": 1085,
      "sắp": 1086,
      "ộn": 1087,
      "cây": 1088,
      "ce": 1089,
      "phục": 1090,
      "vật": 1091,
      "mặc": 1092,
      "khu": 1093,
      "loại": 1094,
      "dự": 1095,
      "diễn": 1096,
      "gã": 1097,
      "minh": 1098,
      "ngon": 1099,
      "òa": 1100,
      "hoa": 1101,
      "sai": 1102,
      "ngựa": 1103,
      "hạ": 1104,
      "bệnh": 1105,
      "đấu": 1106,
      "tha": 1107,
      "quyền": 1108,
      "man": 1109,
      "va": 1110,
      "phút": 1111,
      "pe": 1112,
      "ran": 1113,
      "chúc": 1114,
      "ậm": 1115,
      "mỗi": 1116,
      "xong": 1117,
      "tuần": 1118,
      "ga": 1119,
      "tù": 1120,
      "the": 1121,
      "lạ": 1122,
      "chứng": 1123,
      "tranh": 1124,
      "nổi": 1125,
      "tiến": 1126,
      "ĩnh": 1127,
      "ve": 1128,
      "trí": 1129,
      "mạnh": 1130,
      "chàng": 1131,
      "lực": 1132,
      "đau": 1133,
      "ảm": 1134,
      "úi": 1135,
      "uốc": 1136,
      "pháp": 1137,
      "sức": 1138,
      "đơn": 1139,
      "nhiêu": 1140,
      "ngốc": 1141,
      "bài": 1142,
      "sớm": 1143,
      "khỏ": 1144,
      "ban": 1145,
      "tư": 1146,
      "tá": 1147,
      "điểm": 1148,
      "sàng": 1149,
      "biến": 1150,
      "nghỉ": 1151,
      "viết": 1152,
      "wi": 1153,
      "bàn": 1154,
      "éo": 1155,
      "đô": 1156,
      "hu": 1157,
      "tệ": 1158,
      "tuổi": 1159,
      "đá": 1160,
      "giáo": 1161,
      "thú": 1162,
      "ằm": 1163,
      "mừng": 1164,
      "mau": 1165,
      "kinh": 1166,
      "ứng": 1167,
      "hơi": 1168,
      "ge": 1169,
      "khỏe": 1170,
      "chà": 1171,
      "thuốc": 1172,
      "hộ": 1173,
      "ảo": 1174,
      "nam": 1175,
      "mo": 1176,
      "nàng": 1177,
      "tinh": 1178,
      "pa": 1179,
      "chồng": 1180,
      "năng": 1181,
      "thuyền": 1182,
      "vời": 1183,
      "jo": 1184,
      "you": 1185,
      "ngu": 1186,
      "thanh": 1187,
      "quả": 1188,
      "hạnh": 1189,
      "êng": 1190,
      "dẫn": 1191,
      "nhỉ": 1192,
      "ửi": 1193,
      "cười": 1194,
      "trò": 1195,
      "phố": 1196,
      "mỹ": 1197,
      "vũ": 1198,
      "pi": 1199,
      "ụi": 1200,
      "dụng": 1201,
      "tập": 1202,
      "xấu": 1203,
      "10": 1204,
      "mong": 1205,
      "vàng": 1206,
      "thiếu": 1207,
      "đọc": 1208,
      "độ": 1209,
      "thắng": 1210,
      "du": 1211,
      "úy": 1212,
      "luật": 1213,
      "bán": 1214,
      "quốc": 1215,
      "xuất": 1216,
      "tế": 1217,
      "tài": 1218,
      "khá": 1219,
      "xử": 1220,
      "he": 1221,
      "duy": 1222,
      "vệ": 1223,
      "nè": 1224,
      "ja": 1225,
      "ard": 1226,
      "wa": 1227,
      "khốn": 1228,
      "ứa": 1229,
      "ốt": 1230,
      "dậy": 1231,
      "uốt": 1232,
      "lính": 1233,
      "rối": 1234,
      "mư": 1235,
      "lão": 1236,
      "thiên": 1237,
      "đình": 1238,
      "kế": 1239,
      "tức": 1240,
      "joh": 1241,
      "chuẩn": 1242,
      "danh": 1243,
      "tấn": 1244,
      "thoát": 1245,
      "lan": 1246,
      "tiêu": 1247,
      "sếp": 1248,
      "khí": 1249,
      "car": 1250,
      "tránh": 1251,
      "000": 1252,
      "kiểm": 1253,
      "nằm": 1254,
      "giữa": 1255,
      "thúc": 1256,
      "ngôi": 1257,
      "tri": 1258,
      "trang": 1259,
      "hiệu": 1260,
      "biển": 1261,
      "gửi": 1262,
      "đầy": 1263,
      "chó": 1264,
      "lập": 1265,
      "cáo": 1266,
      "văn": 1267,
      "phiền": 1268,
      "giả": 1269,
      "thiết": 1270,
      "ỉnh": 1271,
      "chọn": 1272,
      "ón": 1273,
      "đóng": 1274,
      "john": 1275,
      "trốn": 1276,
      "bước": 1277,
      "nhiệm": 1278,
      "har": 1279,
      "mon": 1280,
      "hát": 1281,
      "địa": 1282,
      "nhật": 1283,
      "đoàn": 1284,
      "hứa": 1285,
      "ủng": 1286,
      "lin": 1287,
      "ượt": 1288,
      "khoảng": 1289,
      "ny": 1290,
      "chừng": 1291,
      "lạc": 1292,
      "les": 1293,
      "lắng": 1294,
      "thận": 1295,
      "thống": 1296,
      "sử": 1297,
      "trình": 1298,
      "sách": 1299,
      "ver": 1300,
      "hướng": 1301,
      "èn": 1302,
      "tuy": 1303,
      "vòng": 1304,
      "tượng": 1305,
      "ẩm": 1306,
      "quanh": 1307,
      "can": 1308,
      "phạm": 1309,
      "cẩn": 1310,
      "khiến": 1311,
      "ế": 1312,
      "dy": 1313,
      "giỏi": 1314,
      "dài": 1315,
      "tướng": 1316,
      "nhảy": 1317,
      "buồn": 1318,
      "shi": 1319,
      "tí": 1320,
      "thuộc": 1321,
      "fran": 1322,
      "huynh": 1323,
      "đạo": 1324,
      "đem": 1325,
      "mục": 1326,
      "hiểm": 1327,
      "càng": 1328,
      "kéo": 1329,
      "căn": 1330,
      "dám": 1331,
      "phúc": 1332,
      "đám": 1333,
      "phản": 1334,
      "ty": 1335,
      "sơ": 1336,
      "mạng": 1337,
      "èo": 1338,
      "ci": 1339,
      "che": 1340,
      "mù": 1341,
      "ah": 1342,
      "trận": 1343,
      "bữa": 1344,
      "binh": 1345,
      "bức": 1346,
      "cưới": 1347,
      "nghiệp": 1348,
      "óm": 1349,
      "đặc": 1350,
      "giao": 1351,
      "gắng": 1352,
      "ém": 1353,
      "lie": 1354,
      "hồ": 1355,
      "suy": 1356,
      "tĩnh": 1357,
      "thầy": 1358,
      "gây": 1359,
      "viện": 1360,
      "tham": 1361,
      "riêng": 1362,
      "tụi": 1363,
      "đông": 1364,
      "tiếc": 1365,
      "cấp": 1366,
      "óa": 1367,
      "don": 1368,
      "hại": 1369,
      "suốt": 1370,
      "ẩu": 1371,
      "ell": 1372,
      "trừ": 1373,
      "lượng": 1374,
      "lửa": 1375,
      "́i": 1376,
      "dành": 1377,
      "tạo": 1378,
      "chuyến": 1379,
      "thẳng": 1380,
      "mơ": 1381,
      "cánh": 1382,
      "san": 1383,
      "tim": 1384,
      "dạy": 1385,
      "quần": 1386,
      "màu": 1387,
      "ký": 1388,
      "trị": 1389,
      "nhạc": 1390,
      "ngờ": 1391,
      "bánh": 1392,
      "thù": 1393,
      "thậm": 1394,
      "ris": 1395,
      "ẹn": 1396,
      "máu": 1397,
      "đuổi": 1398,
      "dối": 1399,
      "liệu": 1400,
      "chống": 1401,
      "ley": 1402,
      "đoán": 1403,
      "mãi": 1404,
      "bóng": 1405,
      "nóng": 1406,
      "ed": 1407,
      "char": 1408,
      "mắn": 1409,
      "ủy": 1410,
      "gu": 1411,
      "rắc": 1412,
      "bốn": 1413,
      "kiến": 1414,
      "quen": 1415,
      "đa": 1416,
      "quái": 1417,
      "ệt": 1418,
      "thánh": 1419,
      "cầm": 1420,
      "tòa": 1421,
      "kiểu": 1422,
      "lạnh": 1423,
      "lũ": 1424,
      "ghét": 1425,
      "ướp": 1426,
      "ãi": 1427,
      "tai": 1428,
      "̀i": 1429,
      "ót": 1430,
      "dấu": 1431,
      "ặn": 1432,
      "ềm": 1433,
      "nửa": 1434,
      "đổ": 1435,
      "spo": 1436,
      "nguy": 1437,
      "đỏ": 1438,
      "hồi": 1439,
      "trại": 1440,
      "vua": 1441,
      "cướp": 1442,
      "phim": 1443,
      "mũ": 1444,
      "ói": 1445,
      "tiệt": 1446,
      "20": 1447,
      "ok": 1448,
      "tác": 1449,
      "hề": 1450,
      "khủng": 1451,
      "par": 1452,
      "spock": 1453,
      "độc": 1454,
      "đằng": 1455,
      "tây": 1456,
      "ỏa": 1457,
      "pha": 1458,
      "món": 1459,
      "trấn": 1460,
      "băng": 1461,
      "giác": 1462,
      "ẳn": 1463,
      "thuật": 1464,
      "dan": 1465,
      "mật": 1466,
      "nguyên": 1467,
      "trách": 1468,
      "lợi": 1469,
      "ỡi": 1470,
      "tiểu": 1471,
      "là": 1472,
      "my": 1473,
      "thất": 1474,
      "đùa": 1475,
      "nhóc": 1476,
      "vùng": 1477,
      "iếp": 1478,
      "lái": 1479,
      "bar": 1480,
      "thái": 1481,
      "thả": 1482,
      "linh": 1483,
      "for": 1484,
      "cắt": 1485,
      "ngoại": 1486,
      "by": 1487,
      "đệ": 1488,
      "tổng": 1489,
      "lá": 1490,
      "lệ": 1491,
      "khóa": 1492,
      "lối": 1493,
      "chăm": 1494,
      "ju": 1495,
      "sco": 1496,
      "bí": 1497,
      "hệ": 1498,
      "cà": 1499,
      "ậ": 1500,
      "lịch": 1501,
      "sở": 1502,
      "đỡ": 1503,
      "buộc": 1504,
      "chia": 1505,
      "òi": 1506,
      "thịt": 1507,
      "dây": 1508,
      "hẹn": 1509,
      "ấ": 1510,
      "nhờ": 1511,
      "ạp": 1512,
      "lặng": 1513,
      "ẩy": 1514,
      "đế": 1515,
      "nghị": 1516,
      "muộn": 1517,
      "ben": 1518,
      "lễ": 1519,
      "lly": 1520,
      "quỷ": 1521,
      "ff": 1522,
      "chấp": 1523,
      "nổ": 1524,
      "hầu": 1525,
      "thoại": 1526,
      "triệu": 1527,
      "ld": 1528,
      "tóc": 1529,
      "chim": 1530,
      "gan": 1531,
      "ia": 1532,
      "tan": 1533,
      "mùa": 1534,
      "khóc": 1535,
      "sản": 1536,
      "za": 1537,
      "hẳn": 1538,
      "mái": 1539,
      "đảm": 1540,
      "sáu": 1541,
      "ine": 1542,
      "iệng": 1543,
      "50": 1544,
      "hóa": 1545,
      "jim": 1546,
      "lừa": 1547,
      "khăn": 1548,
      "giường": 1549,
      "19": 1550,
      "say": 1551,
      "od": 1552,
      "đen": 1553,
      "ku": 1554,
      "st": 1555,
      "thăm": 1556,
      "miệng": 1557,
      "đảo": 1558,
      "rơi": 1559,
      "ya": 1560,
      "đạn": 1561,
      "hòa": 1562,
      "quán": 1563,
      "bò": 1564,
      "xi": 1565,
      "cưng": 1566,
      "nguyện": 1567,
      "ste": 1568,
      "khẩu": 1569,
      "giấy": 1570,
      "nạn": 1571,
      "trắng": 1572,
      "nặng": 1573,
      "ẫu": 1574,
      "dì": 1575,
      "phương": 1576,
      "ghi": 1577,
      "chất": 1578,
      "tổ": 1579,
      "mệt": 1580,
      "áp": 1581,
      "núi": 1582,
      "30": 1583,
      "nghiêm": 1584,
      "yo": 1585,
      "ỏng": 1586,
      "đài": 1587,
      "bận": 1588,
      "ộm": 1589,
      "xếp": 1590,
      "sông": 1591,
      "chung": 1592,
      "hoạch": 1593,
      "it": 1594,
      "̣c": 1595,
      "đươ": 1596,
      "ger": 1597,
      "per": 1598,
      "́ng": 1599,
      "đói": 1600,
      "chiều": 1601,
      "lai": 1602,
      "tương": 1603,
      "võ": 1604,
      "tăng": 1605,
      "hủy": 1606,
      "khoan": 1607,
      "kích": 1608,
      "mười": 1609,
      "et": 1610,
      "đón": 1611,
      "thủy": 1612,
      "kính": 1613,
      "khả": 1614,
      "tắm": 1615,
      "xúc": 1616,
      "truyền": 1617,
      "kêu": 1618,
      "we": 1619,
      "hổ": 1620,
      "kỹ": 1621,
      "her": 1622,
      "vượt": 1623,
      "sang": 1624,
      "sóc": 1625,
      "tiết": 1626,
      "khổ": 1627,
      "wo": 1628,
      "bạc": 1629,
      "tước": 1630,
      "ịp": 1631,
      "cộng": 1632,
      "cuốn": 1633,
      "khắp": 1634,
      "tận": 1635,
      "cử": 1636,
      "lầm": 1637,
      "tấm": 1638,
      "ấc": 1639,
      "phu": 1640,
      "nhắc": 1641,
      "sổ": 1642,
      "lãnh": 1643,
      "uyết": 1644,
      "nha": 1645,
      "phê": 1646,
      "́c": 1647,
      "ràng": 1648,
      "diện": 1649,
      "trộm": 1650,
      "rút": 1651,
      "bắc": 1652,
      "ler": 1653,
      "̀ng": 1654,
      "chức": 1655,
      "lau": 1656,
      "hồng": 1657,
      "túi": 1658,
      "nu": 1659,
      "van": 1660,
      "chế": 1661,
      "xinh": 1662,
      "rừng": 1663,
      "ngăn": 1664,
      "dịch": 1665,
      "12": 1666,
      "15": 1667,
      "nga": 1668,
      "geo": 1669,
      "quản": 1670,
      "thề": 1671,
      "phù": 1672,
      "ỡng": 1673,
      "ss": 1674,
      "iệc": 1675,
      "lương": 1676,
      "hiệp": 1677,
      "hậu": 1678,
      "ọt": 1679,
      "ném": 1680,
      "hồn": 1681,
      "ngàn": 1682,
      "thuyết": 1683,
      "phủ": 1684,
      "giận": 1685,
      "vương": 1686,
      "ther": 1687,
      "biểu": 1688,
      "der": 1689,
      "yếu": 1690,
      "lành": 1691,
      "ữu": 1692,
      "̀n": 1693,
      "sạch": 1694,
      "loài": 1695,
      "hữu": 1696,
      "tiệc": 1697,
      "nghiệm": 1698,
      "kim": 1699,
      "thượng": 1700,
      "phong": 1701,
      "ren": 1702,
      "kỷ": 1703,
      "ye": 1704,
      "giản": 1705,
      "khai": 1706,
      "bại": 1707,
      "tờ": 1708,
      "nỗi": 1709,
      "dĩ": 1710,
      "đèn": 1711,
      "có": 1712,
      "xanh": 1713,
      "tom": 1714,
      "hen": 1715,
      "xét": 1716,
      "châu": 1717,
      "chả": 1718,
      "tô": 1719,
      "mm": 1720,
      "nã": 1721,
      "tôn": 1722,
      "pri": 1723,
      "as": 1724,
      "new": 1725,
      "tỉnh": 1726,
      "luyện": 1727,
      "thơ": 1728,
      "treo": 1729,
      "fi": 1730,
      "vận": 1731,
      "geor": 1732,
      "hoạt": 1733,
      "cung": 1734,
      "joe": 1735,
      "hài": 1736,
      "ứt": 1737,
      "vo": 1738,
      "lon": 1739,
      "dương": 1740,
      "lưng": 1741,
      "dàng": 1742,
      "mor": 1743,
      "tàn": 1744,
      "việt": 1745,
      "nhóm": 1746,
      "dạ": 1747,
      "trợ": 1748,
      "vĩ": 1749,
      "thừa": 1750,
      "sạn": 1751,
      "sửa": 1752,
      "sâu": 1753,
      "thờ": 1754,
      "lli": 1755,
      "mô": 1756,
      "phân": 1757,
      "bảy": 1758,
      "cạnh": 1759,
      "lô": 1760,
      "vết": 1761,
      "thua": 1762,
      "phóng": 1763,
      "lang": 1764,
      "đột": 1765,
      "tín": 1766,
      "ờn": 1767,
      "je": 1768,
      "đào": 1769,
      "chớ": 1770,
      "nhẫn": 1771,
      "ngạc": 1772,
      "nợ": 1773,
      "tích": 1774,
      "đốc": 1775,
      "sân": 1776,
      "ngoan": 1777,
      "thuận": 1778,
      "cơn": 1779,
      "mức": 1780,
      "bon": 1781,
      "ặm": 1782,
      "gà": 1783,
      "õi": 1784,
      "chương": 1785,
      "sha": 1786,
      "uh": 1787,
      "wal": 1788,
      "hút": 1789,
      "săn": 1790,
      "̉i": 1791,
      "mc": 1792,
      "mũi": 1793,
      "hào": 1794,
      "ie": 1795,
      "thang": 1796,
      "chán": 1797,
      "tiện": 1798,
      "nhập": 1799,
      "giàu": 1800,
      "cờ": 1801,
      "frank": 1802,
      "bờ": 1803,
      "ker": 1804,
      "mùi": 1805,
      "diệt": 1806,
      "̣i": 1807,
      "niềm": 1808,
      "trăm": 1809,
      "bert": 1810,
      "lou": 1811,
      "vai": 1812,
      "ane": 1813,
      "đẩy": 1814,
      "rk": 1815,
      "phán": 1816,
      "quà": 1817,
      "thuê": 1818,
      "kịch": 1819,
      "bụng": 1820,
      "ji": 1821,
      "jack": 1822,
      "hưởng": 1823,
      "mắc": 1824,
      "làng": 1825,
      "trễ": 1826,
      "fe": 1827,
      "vinh": 1828,
      "kiếp": 1829,
      "chạm": 1830,
      "cháy": 1831,
      "gió": 1832,
      "ãn": 1833,
      "dựng": 1834,
      "sắc": 1835,
      "giấu": 1836,
      "chặt": 1837,
      "tồi": 1838,
      "tường": 1839,
      "thiệt": 1840,
      "đập": 1841,
      "ngân": 1842,
      "dòng": 1843,
      "ụp": 1844,
      "tầm": 1845,
      "hư": 1846,
      "tro": 1847,
      "dọn": 1848,
      "nội": 1849,
      "lộ": 1850,
      "lục": 1851,
      "xây": 1852,
      "vực": 1853,
      "giấc": 1854,
      "mến": 1855,
      "ồm": 1856,
      "trà": 1857,
      "sta": 1858,
      "giây": 1859,
      "chối": 1860,
      "thẩm": 1861,
      "red": 1862,
      "đà": 1863,
      "paris": 1864,
      "mẫu": 1865,
      "gar": 1866,
      "dặm": 1867,
      "chiếm": 1868,
      "hải": 1869,
      "ẫy": 1870,
      "len": 1871,
      "ky": 1872,
      "tắt": 1873,
      "xo": 1874,
      "bom": 1875,
      "ùi": 1876,
      "tốc": 1877,
      "george": 1878,
      "ngọn": 1879,
      "ể": 1880,
      "khắc": 1881,
      "charlie": 1882,
      "hà": 1883,
      "dường": 1884,
      "100": 1885,
      "bra": 1886,
      "mer": 1887,
      "kiện": 1888,
      "nắm": 1889,
      "ầng": 1890,
      "at": 1891,
      "dữ": 1892,
      "nghệ": 1893,
      "dao": 1894,
      "nie": 1895,
      "thưởng": 1896,
      "ork": 1897,
      "lưu": 1898,
      "chai": 1899,
      "trưa": 1900,
      "màn": 1901,
      "thỏa": 1902,
      "mê": 1903,
      "harry": 1904,
      "̣n": 1905,
      "long": 1906,
      "of": 1907,
      "ọa": 1908,
      "khiếp": 1909,
      "chris": 1910,
      "tty": 1911,
      "iếng": 1912,
      "bel": 1913,
      "sy": 1914,
      "nhẹ": 1915,
      "mối": 1916,
      "phạt": 1917,
      "bri": 1918,
      "hạn": 1919,
      "trạng": 1920,
      "enter": 1921,
      "nà": 1922,
      "bang": 1923,
      "tặng": 1924,
      "luận": 1925,
      "nông": 1926,
      "chữa": 1927,
      "nor": 1928,
      "đốt": 1929,
      "tsu": 1930,
      "nô": 1931,
      "̣t": 1932,
      "khởi": 1933,
      "bè": 1934,
      "gen": 1935,
      "mưa": 1936,
      "sam": 1937,
      "thợ": 1938,
      "vư": 1939,
      "vội": 1940,
      "bá": 1941,
      "davi": 1942,
      "dị": 1943,
      "kẹ": 1944,
      "york": 1945,
      "chữ": 1946,
      "chậm": 1947,
      "ấy": 1948,
      "bẩn": 1949,
      "chìa": 1950,
      "hộp": 1951,
      "tầng": 1952,
      "hảo": 1953,
      "trụ": 1954,
      "han": 1955,
      "hạm": 1956,
      "tch": 1957,
      "ur": 1958,
      "đòi": 1959,
      "ad": 1960,
      "bạo": 1961,
      "tồn": 1962,
      "lao": 1963,
      "ven": 1964,
      "sar": 1965,
      "bur": 1966,
      "than": 1967,
      "mộ": 1968,
      "tống": 1969,
      "lar": 1970,
      "địch": 1971,
      "bầu": 1972,
      "trống": 1973,
      "én": 1974,
      "kirk": 1975,
      "soát": 1976,
      "cởi": 1977,
      "vẽ": 1978,
      "ừm": 1979,
      "hoang": 1980,
      "ham": 1981,
      "́t": 1982,
      "hỏng": 1983,
      "die": 1984,
      "đích": 1985,
      "11": 1986,
      "ớt": 1987,
      "thiện": 1988,
      "one": 1989,
      "dõi": 1990,
      "il": 1991,
      "kin": 1992,
      "ượn": 1993,
      "nuôi": 1994,
      "ngừng": 1995,
      "tỏ": 1996,
      "ựng": 1997,
      "prise": 1998,
      "hầm": 1999,
      "trải": 2000,
      "lỗ": 2001,
      "bó": 2002,
      "hùng": 2003,
      "nghề": 2004,
      "xã": 2005,
      "enterprise": 2006,
      "cực": 2007,
      "rô": 2008,
      "ngơi": 2009,
      "giọng": 2010,
      "và": 2011,
      "lớp": 2012,
      "tung": 2013,
      "xuyên": 2014,
      "pau": 2015,
      "vỡ": 2016,
      "thiệu": 2017,
      "cy": 2018,
      "phẩm": 2019,
      "ichi": 2020,
      "́n": 2021,
      "chuyên": 2022,
      "bro": 2023,
      "vin": 2024,
      "khám": 2025,
      "rộng": 2026,
      "ýt": 2027,
      "giám": 2028,
      "đựng": 2029,
      "môn": 2030,
      "nhầm": 2031,
      "trực": 2032,
      "bia": 2033,
      "ghế": 2034,
      "loạn": 2035,
      "ght": 2036,
      "thoải": 2037,
      "fu": 2038,
      "thở": 2039,
      "phận": 2040,
      "èm": 2041,
      "chặn": 2042,
      "tùy": 2043,
      "bãi": 2044,
      "cam": 2045,
      "trần": 2046,
      "bơi": 2047,
      "xung": 2048,
      "land": 2049,
      "cụ": 2050,
      "sứ": 2051,
      "cú": 2052,
      "yu": 2053,
      "lui": 2054,
      "ale": 2055,
      "ing": 2056,
      "18": 2057,
      "canh": 2058,
      "sen": 2059,
      "ủi": 2060,
      "bội": 2061,
      "biên": 2062,
      "jam": 2063,
      "bệ": 2064,
      "hel": 2065,
      "pháo": 2066,
      "bông": 2067,
      "sho": 2068,
      "kí": 2069,
      "that": 2070,
      "hãi": 2071,
      "lựa": 2072,
      "dính": 2073,
      "lôi": 2074,
      "tộc": 2075,
      "đoạn": 2076,
      "leo": 2077,
      "xứng": 2078,
      "miễn": 2079,
      "40": 2080,
      "ngục": 2081,
      "đua": 2082,
      "ũng": 2083,
      "đống": 2084,
      "phó": 2085,
      "mệnh": 2086,
      "ết": 2087,
      "lạy": 2088,
      "giày": 2089,
      "bếp": 2090,
      "let": 2091,
      "david": 2092,
      "rửa": 2093,
      "ngược": 2094,
      "lát": 2095,
      "mèo": 2096,
      "hấp": 2097,
      "hét": 2098,
      "ner": 2099,
      "sót": 2100,
      "sie": 2101,
      "câm": 2102,
      "ốm": 2103,
      "whi": 2104,
      "pin": 2105,
      "gác": 2106,
      "kịp": 2107,
      "mảnh": 2108,
      "rai": 2109,
      "lãng": 2110,
      "quê": 2111,
      "--": 2112,
      "vườn": 2113,
      "tán": 2114,
      "trao": 2115,
      "giam": 2116,
      "đeo": 2117,
      "tuyết": 2118,
      "las": 2119,
      "ama": 2120,
      "đồn": 2121,
      "trứng": 2122,
      "sẽ": 2123,
      "wil": 2124,
      "dạng": 2125,
      "max": 2126,
      "tám": 2127,
      "rome": 2128,
      "lí": 2129,
      "hoan": 2130,
      "mad": 2131,
      "ùm": 2132,
      "toán": 2133,
      "ray": 2134,
      "họa": 2135,
      "cứng": 2136,
      "johnny": 2137,
      "nghèo": 2138,
      "ếm": 2139,
      "tuyên": 2140,
      "cất": 2141,
      "khoa": 2142,
      "lẫn": 2143,
      "chụp": 2144,
      "khỉ": 2145,
      "cãi": 2146,
      "úa": 2147,
      "chôn": 2148,
      "ina": 2149,
      "răng": 2150,
      "tz": 2151,
      "cục": 2152,
      "dung": 2153,
      "ngã": 2154,
      "cắp": 2155,
      "ngại": 2156,
      "ngắn": 2157,
      "hương": 2158,
      "chuột": 2159,
      "đạt": 2160,
      "cặp": 2161,
      "đồi": 2162,
      "ỗng": 2163,
      "tóm": 2164,
      "dầu": 2165,
      "cập": 2166,
      "xứ": 2167,
      "ời": 2168,
      "miền": 2169,
      "dụ": 2170,
      "thảm": 2171,
      "họp": 2172,
      "all": 2173,
      "peter": 2174,
      "tổn": 2175,
      "ề": 2176,
      "gre": 2177,
      "vé": 2178,
      "ghê": 2179,
      "franc": 2180,
      "os": 2181,
      "xưa": 2182,
      "bã": 2183,
      "ngang": 2184,
      "dạo": 2185,
      "well": 2186,
      "ward": 2187,
      "giáng": 2188,
      "hân": 2189,
      "khuyên": 2190,
      "br": 2191,
      "dọa": 2192,
      "thí": 2193,
      "chín": 2194,
      "bật": 2195,
      "dũng": 2196,
      "tor": 2197,
      "ngũ": 2198,
      "tơ": 2199,
      "mas": 2200,
      "nấu": 2201,
      "gra": 2202,
      "̣î": 2203,
      "thấp": 2204,
      "trăng": 2205,
      "khát": 2206,
      "đáp": 2207,
      "mì": 2208,
      "gấp": 2209,
      "triển": 2210,
      "zo": 2211,
      "cản": 2212,
      "đương": 2213,
      "hey": 2214,
      "yeah": 2215,
      "fa": 2216,
      "ôm": 2217,
      "are": 2218,
      "mike": 2219,
      "ali": 2220,
      "lông": 2221,
      "gì": 2222,
      "hỗ": 2223,
      "wood": 2224,
      "doanh": 2225,
      "cược": 2226,
      "được": 2227,
      "bou": 2228,
      "jer": 2229,
      "now": 2230,
      "chở": 2231,
      "chiếu": 2232,
      "lộn": 2233,
      "ano": 2234,
      "xương": 2235,
      "khiêu": 2236,
      "ướt": 2237,
      "khuôn": 2238,
      "mẽ": 2239,
      "trúng": 2240,
      "miếng": 2241,
      "bob": 2242,
      "giảm": 2243,
      "flo": 2244,
      "mari": 2245,
      "hối": 2246,
      "mỏi": 2247,
      "đã": 2248,
      "sơn": 2249,
      "hạt": 2250,
      "jes": 2251,
      "lĩnh": 2252,
      "quảng": 2253,
      "nát": 2254,
      "dục": 2255,
      "táo": 2256,
      "cor": 2257,
      "điệu": 2258,
      "dã": 2259,
      "thụ": 2260,
      "thổi": 2261,
      "nguồn": 2262,
      "phải": 2263,
      "sữa": 2264,
      "khôn": 2265,
      "mary": 2266,
      "hèn": 2267,
      "un": 2268,
      "íå": 2269,
      "rồi": 2270,
      "̉a": 2271,
      "cấm": 2272,
      "den": 2273,
      "paul": 2274,
      "ngọc": 2275,
      "khẩn": 2276,
      "25": 2277,
      "cỡ": 2278,
      "cút": 2279,
      "hè": 2280,
      "ken": 2281,
      "tạp": 2282,
      "bảng": 2283,
      "tắc": 2284,
      "tải": 2285,
      "ngton": 2286,
      "iếm": 2287,
      "mươi": 2288,
      "sắt": 2289,
      "ghé": 2290,
      "nền": 2291,
      "wn": 2292,
      "nhắn": 2293,
      "mụ": 2294,
      "tia": 2295,
      "chảy": 2296,
      "rock": 2297,
      "way": 2298,
      "anna": 2299,
      "scott": 2300,
      "fred": 2301,
      "um": 2302,
      "ghen": 2303,
      "cỏ": 2304,
      "cổng": 2305,
      "váy": 2306,
      "ngọt": 2307,
      "khiển": 2308,
      "kiên": 2309,
      "tuân": 2310,
      "làm": 2311,
      "james": 2312,
      "đâm": 2313,
      "ana": 2314,
      "val": 2315,
      "16": 2316,
      "vầy": 2317,
      "vic": 2318,
      "ngón": 2319,
      "llo": 2320,
      "zu": 2321,
      "ví": 2322,
      "tre": 2323,
      "hứng": 2324,
      "nhiệt": 2325,
      "17": 2326,
      "sky": 2327,
      "íà": 2328,
      "tine": 2329,
      "này": 2330,
      "xuân": 2331,
      "chuông": 2332,
      "giơ": 2333,
      "căng": 2334,
      "lùi": 2335,
      "min": 2336,
      "đậu": 2337,
      "cận": 2338,
      "ưng": 2339,
      "thám": 2340,
      "rich": 2341,
      "muội": 2342,
      "hỏa": 2343,
      "kar": 2344,
      "mông": 2345,
      "rắn": 2346,
      "đỉnh": 2347,
      "lle": 2348,
      "túc": 2349,
      "đấm": 2350,
      "cải": 2351,
      "thảo": 2352,
      "phiên": 2353,
      "dẹp": 2354,
      "kì": 2355,
      "trôi": 2356,
      "mưu": 2357,
      "lỡ": 2358,
      "mark": 2359,
      "bụi": 2360,
      "trạm": 2361,
      "fer": 2362,
      "góc": 2363,
      "bin": 2364,
      "mượn": 2365,
      "vớ": 2366,
      "ở": 2367,
      "tony": 2368,
      "bê": 2369,
      "dứt": 2370,
      "khô": 2371,
      "mạc": 2372,
      "14": 2373,
      "mes": 2374,
      "bs": 2375,
      "cốc": 2376,
      "thy": 2377,
      "nes": 2378,
      "niệm": 2379,
      "ỉu": 2380,
      "khứ": 2381,
      "200": 2382,
      "chấm": 2383,
      "buông": 2384,
      "fan": 2385,
      "sóng": 2386,
      "tươi": 2387,
      "pu": 2388,
      "̀nh": 2389,
      "eli": 2390,
      "ễu": 2391,
      "đàng": 2392,
      "ớn": 2393,
      "trừng": 2394,
      "tốn": 2395,
      "cal": 2396,
      "maria": 2397,
      "đền": 2398,
      "ằn": 2399,
      "truy": 2400,
      "24": 2401,
      "tách": 2402,
      "đó": 2403,
      "lê": 2404,
      "xí": 2405,
      "nhắm": 2406,
      "lâm": 2407,
      "chóng": 2408,
      "thùng": 2409,
      "khoang": 2410,
      "bồi": 2411,
      "bám": 2412,
      "mỏ": 2413,
      "mát": 2414,
      "cừ": 2415,
      "cương": 2416,
      "run": 2417,
      "lưỡi": 2418,
      "zi": 2419,
      "kẹt": 2420,
      "đe": 2421,
      "siêu": 2422,
      "ợn": 2423,
      "ậu": 2424,
      "̃ng": 2425,
      "hal": 2426,
      "não": 2427,
      "ser": 2428,
      "tạ": 2429,
      "thèm": 2430,
      "gương": 2431,
      "est": 2432,
      "ze": 2433,
      "sti": 2434,
      "tỷ": 2435,
      "que": 2436,
      "chứa": 2437,
      "ts": 2438,
      "khoản": 2439,
      "thỏ": 2440,
      "bẫy": 2441,
      "của": 2442,
      "500": 2443,
      "lượt": 2444,
      "xô": 2445,
      "ợt": 2446,
      "thô": 2447,
      "đảng": 2448,
      "hòn": 2449,
      "dựa": 2450,
      "hạng": 2451,
      "tả": 2452,
      "ami": 2453,
      "nhu": 2454,
      "tuyến": 2455,
      "cậu": 2456,
      "đĩ": 2457,
      "chìm": 2458,
      "niên": 2459,
      "del": 2460,
      "nho": 2461,
      "cân": 2462,
      "wor": 2463,
      "thur": 2464,
      "trì": 2465,
      "tler": 2466,
      "thách": 2467,
      "khoác": 2468,
      "gởi": 2469,
      "hat": 2470,
      "dâu": 2471,
      "jon": 2472,
      "kov": 2473,
      "sốt": 2474,
      "charles": 2475,
      "bóp": 2476,
      "cro": 2477,
      "đếm": 2478,
      "dáng": 2479,
      "mr": 2480,
      "cảng": 2481,
      "cắn": 2482,
      "nương": 2483,
      "ất": 2484,
      "nâng": 2485,
      "râu": 2486,
      "nhát": 2487,
      "lia": 2488,
      "your": 2489,
      "cai": 2490,
      "lùng": 2491,
      "anne": 2492,
      "ling": 2493,
      "hung": 2494,
      "cae": 2495,
      "ao": 2496,
      "đụng": 2497,
      "billy": 2498,
      "điệp": 2499,
      "một": 2500,
      "ưu": 2501,
      "cự": 2502,
      "rus": 2503,
      "vang": 2504,
      "ngắm": 2505,
      "nhục": 2506,
      "vơ": 2507,
      "quang": 2508,
      "nghiên": 2509,
      "win": 2510,
      "sto": 2511,
      "thổ": 2512,
      "má": 2513,
      "she": 2514,
      "henry": 2515,
      "mel": 2516,
      "mạo": 2517,
      "mạch": 2518,
      "tter": 2519,
      "phái": 2520,
      "nãy": 2521,
      "heo": 2522,
      "nhốt": 2523,
      "trùng": 2524,
      "ney": 2525,
      "london": 2526,
      "bày": 2527,
      "liền": 2528,
      "vở": 2529,
      "ến": 2530,
      "caesar": 2531,
      "day": 2532,
      "bù": 2533,
      "dần": 2534,
      "pen": 2535,
      "tân": 2536,
      "chúng": 2537,
      "gãy": 2538,
      "fo": 2539,
      "men": 2540,
      "mập": 2541,
      "xoay": 2542,
      "lẻ": 2543,
      "ria": 2544,
      "war": 2545,
      "tru": 2546,
      "giành": 2547,
      "thỉnh": 2548,
      "mà": 2549,
      "huấn": 2550,
      "người": 2551,
      "mộng": 2552,
      "xăng": 2553,
      "lò": 2554,
      "ston": 2555,
      "rồ": 2556,
      "thế": 2557,
      "cus": 2558,
      "nối": 2559,
      "gỗ": 2560,
      "kem": 2561,
      "lầu": 2562,
      "ngớ": 2563,
      "taxi": 2564,
      "đăng": 2565,
      "liều": 2566,
      "alex": 2567,
      "kém": 2568,
      "vĩnh": 2569,
      "ấng": 2570,
      "bão": 2571,
      "res": 2572,
      "tte": 2573,
      "cả": 2574,
      "xích": 2575,
      "nhị": 2576,
      "tầu": 2577,
      "triều": 2578,
      "13": 2579,
      "cột": 2580,
      "ïî": 2581,
      "xơ": 2582,
      "lem": 2583,
      "nụ": 2584,
      "ngẩn": 2585,
      "mac": 2586,
      "móc": 2587,
      "trinh": 2588,
      "môi": 2589,
      "thỉu": 2590,
      "robert": 2591,
      "mồ": 2592,
      "♪♪": 2593,
      "trói": 2594,
      "rie": 2595,
      "qui": 2596,
      "ẫm": 2597,
      "ey": 2598,
      "gấu": 2599,
      "hoại": 2600,
      "sàn": 2601,
      "kê": 2602,
      "rũ": 2603,
      "kín": 2604,
      "rin": 2605,
      "thăng": 2606,
      "ngưỡng": 2607,
      "liệt": 2608,
      "non": 2609,
      "will": 2610,
      "nan": 2611,
      "phiếu": 2612,
      "cen": 2613,
      "thor": 2614,
      "fri": 2615,
      "vẩn": 2616,
      "jose": 2617,
      "bối": 2618,
      "vắng": 2619,
      "ậy": 2620,
      "gon": 2621,
      "bie": 2622,
      "rác": 2623,
      "ino": 2624,
      "andre": 2625,
      "sch": 2626,
      "mond": 2627,
      "ngữ": 2628,
      "thập": 2629,
      "điếm": 2630,
      "rah": 2631,
      "danny": 2632,
      "lay": 2633,
      "what": 2634,
      "xâm": 2635,
      "ten": 2636,
      "ưởi": 2637,
      "kệ": 2638,
      "ol": 2639,
      "tang": 2640,
      "íî": 2641,
      "đấng": 2642,
      "chư": 2643,
      "bốc": 2644,
      "pan": 2645,
      "rư": 2646,
      "ella": 2647,
      "ble": 2648,
      "lor": 2649,
      "ander": 2650,
      "mãn": 2651,
      "ện": 2652,
      "́y": 2653,
      "nia": 2654,
      "gai": 2655,
      "ngôn": 2656,
      "bill": 2657,
      "cạo": 2658,
      "tủ": 2659,
      "micha": 2660,
      "nắng": 2661,
      "hitler": 2662,
      "mạn": 2663,
      "tam": 2664,
      "cừu": 2665,
      "60": 2666,
      "giai": 2667,
      "gor": 2668,
      "vân": 2669,
      "coy": 2670,
      "cas": 2671,
      "mét": 2672,
      "nói": 2673,
      "quét": 2674,
      "báu": 2675,
      "dd": 2676,
      "thối": 2677,
      "cali": 2678,
      "ron": 2679,
      "martin": 2680,
      "pier": 2681,
      "cạn": 2682,
      "vậy": 2683,
      "khích": 2684,
      "nướng": 2685,
      "trọ": 2686,
      "thiệp": 2687,
      "gg": 2688,
      "hận": 2689,
      "vây": 2690,
      "åí": 2691,
      "michael": 2692,
      "clar": 2693,
      "nộ": 2694,
      "quí": 2695,
      "mò": 2696,
      "đớn": 2697,
      "chỉnh": 2698,
      "mat": 2699,
      "thoảng": 2700,
      "mccoy": 2701,
      "wan": 2702,
      "bề": 2703,
      "hôi": 2704,
      "sẻ": 2705,
      "điển": 2706,
      "ted": 2707,
      "thà": 2708,
      "lam": 2709,
      "sợi": 2710,
      "vel": 2711,
      "dio": 2712,
      "đè": 2713,
      "hoảng": 2714,
      "êà": 2715,
      "chăng": 2716,
      "tròn": 2717,
      "tái": 2718,
      "xé": 2719,
      "truyện": 2720,
      "phức": 2721,
      "mexi": 2722,
      "phấn": 2723,
      "đuối": 2724,
      "wen": 2725,
      "ữ": 2726,
      "ậc": 2727,
      "ếch": 2728,
      "andy": 2729,
      "ggi": 2730,
      "cóc": 2731,
      "giãn": 2732,
      "buôn": 2733,
      "khùng": 2734,
      "khói": 2735,
      "richard": 2736,
      "lợn": 2737,
      "quỹ": 2738,
      "kie": 2739,
      "lip": 2740,
      "suýt": 2741,
      "kyo": 2742,
      "manh": 2743,
      "đuôi": 2744,
      "mexico": 2745,
      "đî": 2746,
      "ởm": 2747,
      "cát": 2748,
      "lee": 2749,
      "với": 2750,
      "des": 2751,
      "sel": 2752,
      "trượt": 2753,
      "roger": 2754,
      "hiến": 2755,
      "mồm": 2756,
      "rẻ": 2757,
      "đạp": 2758,
      "gói": 2759,
      "beth": 2760,
      "kel": 2761,
      "vờ": 2762,
      "ral": 2763,
      "kan": 2764,
      "ford": 2765,
      "smi": 2766,
      "tiệm": 2767,
      "biết": 2768,
      "xà": 2769,
      "chăn": 2770,
      "trật": 2771,
      "toa": 2772,
      "here": 2773,
      "kiệt": 2774,
      "sói": 2775,
      "los": 2776,
      "cuồng": 2777,
      "norman": 2778,
      "ẹo": 2779,
      "bla": 2780,
      "dịp": 2781,
      "fre": 2782,
      "̣p": 2783,
      "khuy": 2784,
      "tràn": 2785,
      "leon": 2786,
      "dor": 2787,
      "nick": 2788,
      "bực": 2789,
      "ngực": 2790,
      "not": 2791,
      "rưỡi": 2792,
      "ot": 2793,
      "var": 2794,
      "bậc": 2795,
      "tar": 2796,
      "ỡn": 2797,
      "nguyền": 2798,
      "quyến": 2799,
      "bre": 2800,
      "washi": 2801,
      "stein": 2802,
      "jen": 2803,
      "hol": 2804,
      "lại": 2805,
      "dại": 2806,
      "chel": 2807,
      "gốc": 2808,
      "nd": 2809,
      "trá": 2810,
      "stan": 2811,
      "wer": 2812,
      "king": 2813,
      "hiếp": 2814,
      "tụ": 2815,
      "âà": 2816,
      "ốn": 2817,
      "hoài": 2818,
      "dưỡng": 2819,
      "nó": 2820,
      "tes": 2821,
      "ṇ̃": 2822,
      "with": 2823,
      "ật": 2824,
      "wai": 2825,
      "côn": 2826,
      "bào": 2827,
      "bến": 2828,
      "py": 2829,
      "ngô": 2830,
      "ame": 2831,
      "sey": 2832,
      "gỡ": 2833,
      "xì": 2834,
      "gối": 2835,
      "francis": 2836,
      "arthur": 2837,
      "washington": 2838,
      "cra": 2839,
      "cre": 2840,
      "cher": 2841,
      "trương": 2842,
      "dọc": 2843,
      "pro": 2844,
      "ster": 2845,
      "cơm": 2846,
      "sulu": 2847,
      "òm": 2848,
      "thao": 2849,
      "bơ": 2850,
      "điếu": 2851,
      "isa": 2852,
      "ise": 2853,
      "hiếm": 2854,
      "bồ": 2855,
      "đòn": 2856,
      "tháo": 2857,
      "bổ": 2858,
      "ttle": 2859,
      "mos": 2860,
      "dra": 2861,
      "sô": 2862,
      "thể": 2863,
      "khúc": 2864,
      "hang": 2865,
      "phe": 2866,
      "cia": 2867,
      "tởm": 2868,
      "thung": 2869,
      "thạch": 2870,
      "gồm": 2871,
      "sỹ": 2872,
      "tta": 2873,
      "tảng": 2874,
      "vững": 2875,
      "lus": 2876,
      "ii": 2877,
      "nhặt": 2878,
      "elli": 2879,
      "sir": 2880,
      "̉ng": 2881,
      "̣å": 2882,
      "nhàng": 2883,
      "tháp": 2884,
      "bal": 2885,
      "muối": 2886,
      "rốt": 2887,
      "but": 2888,
      "dùm": 2889,
      "ps": 2890,
      "helen": 2891,
      "đẻ": 2892,
      "jane": 2893,
      "äà": 2894,
      "kẹo": 2895,
      "bớt": 2896,
      "rào": 2897,
      "béo": 2898,
      "nào": 2899,
      "dai": 2900,
      "vich": 2901,
      "đê": 2902,
      "đinh": 2903,
      "emi": 2904,
      "cường": 2905,
      "lf": 2906,
      "đến": 2907,
      "ngào": 2908,
      "key": 2909,
      "huh": 2910,
      "mồi": 2911,
      "mây": 2912,
      "ăî": 2913,
      "thai": 2914,
      "muốn": 2915,
      "lều": 2916,
      "chọc": 2917,
      "our": 2918,
      "lũng": 2919,
      "brad": 2920,
      "dar": 2921,
      "ngưng": 2922,
      "ore": 2923,
      "rick": 2924,
      "hun": 2925,
      "get": 2926,
      "quỳ": 2927,
      "cái": 2928,
      "lạp": 2929,
      "hmm": 2930,
      "suke": 2931,
      "have": 2932,
      "biện": 2933,
      "lố": 2934,
      "old": 2935,
      "chợ": 2936,
      "cưỡi": 2937,
      "rey": 2938,
      "voi": 2939,
      "gõ": 2940,
      "ninh": 2941,
      "súc": 2942,
      "ngầm": 2943,
      "trục": 2944,
      "giỡn": 2945,
      "eri": 2946,
      "jac": 2947,
      "dịu": 2948,
      "tớ": 2949,
      "gắn": 2950,
      "von": 2951,
      "good": 2952,
      "ễm": 2953,
      "chă": 2954,
      "dâm": 2955,
      "tịch": 2956,
      "êî": 2957,
      "đấy": 2958,
      "300": 2959,
      "chiêu": 2960,
      "diệu": 2961,
      "vạn": 2962,
      "jeff": 2963,
      "đĩa": 2964,
      "ần": 2965,
      "come": 2966,
      "ple": 2967,
      "eddie": 2968,
      "ván": 2969,
      "shu": 2970,
      "thụy": 2971,
      "mềm": 2972,
      "để": 2973,
      "rose": 2974,
      "viễn": 2975,
      "big": 2976,
      "texa": 2977,
      "jus": 2978,
      "tị": 2979,
      "song": 2980,
      "cúi": 2981,
      "gus": 2982,
      "texas": 2983,
      "vỏ": 2984,
      "ều": 2985,
      "dày": 2986,
      "nữ": 2987,
      "sin": 2988,
      "tv": 2989,
      "quấy": 2990,
      "bond": 2991,
      "mọc": 2992,
      "́m": 2993,
      "chén": 2994,
      "trúc": 2995,
      "ươm": 2996,
      "ruột": 2997,
      "bát": 2998,
      "rand": 2999,
      "cưỡng": 3000,
      "scotty": 3001,
      "bru": 3002,
      "dàn": 3003,
      "gợi": 3004,
      "gậy": 3005,
      "thói": 3006,
      "chuồng": 3007,
      "steve": 3008,
      "hỗn": 3009,
      "giang": 3010,
      "ester": 3011,
      "45": 3012,
      "hỡi": 3013,
      "đáo": 3014,
      "nghìn": 3015,
      "cker": 3016,
      "vả": 3017,
      "ëà": 3018,
      "khổng": 3019,
      "chuyện": 3020,
      "jones": 3021,
      "bai": 3022,
      "bồn": 3023,
      "ski": 3024,
      "tti": 3025,
      "thiếp": 3026,
      "huống": 3027,
      "́ch": 3028,
      "howard": 3029,
      "ak": 3030,
      "nút": 3031,
      "thuế": 3032,
      "đứt": 3033,
      "thiêu": 3034,
      "jean": 3035,
      "sốc": 3036,
      "nger": 3037,
      "jan": 3038,
      "vứt": 3039,
      "cel": 3040,
      "ever": 3041,
      "múa": 3042,
      "khen": 3043,
      "ari": 3044,
      "thiêng": 3045,
      "pierre": 3046,
      "rộn": 3047,
      "up": 3048,
      "choàng": 3049,
      "ngoái": 3050,
      "ning": 3051,
      "khối": 3052,
      "ange": 3053,
      "dge": 3054,
      "ddy": 3055,
      "lồ": 3056,
      "yan": 3057,
      "quận": 3058,
      "dee": 3059,
      "shin": 3060,
      "kháng": 3061,
      "giảng": 3062,
      "linda": 3063,
      "trú": 3064,
      "iếc": 3065,
      "willi": 3066,
      "joseph": 3067,
      "banh": 3068,
      "bắp": 3069,
      "ëè": 3070,
      "nhã": 3071,
      "low": 3072,
      "vul": 3073,
      "muôn": 3074,
      "gánh": 3075,
      "äå": 3076,
      "pho": 3077,
      "gián": 3078,
      "goro": 3079,
      "bự": 3080,
      "far": 3081,
      "use": 3082,
      "ds": 3083,
      "gục": 3084,
      "ir": 3085,
      "xông": 3086,
      "khấu": 3087,
      "mur": 3088,
      "khoẻ": 3089,
      "gas": 3090,
      "âî": 3091,
      "hiền": 3092,
      "dou": 3093,
      "bor": 3094,
      "thật": 3095,
      "kỵ": 3096,
      "nuốt": 3097,
      "̣ng": 3098,
      "kichi": 3099,
      "thẻ": 3100,
      "samu": 3101,
      "know": 3102,
      "giặt": 3103,
      "ann": 3104,
      "bern": 3105,
      "johnson": 3106,
      "rủa": 3107,
      "chèo": 3108,
      "hoãn": 3109,
      "amen": 3110,
      "was": 3111,
      "dỗ": 3112,
      "kay": 3113,
      "mp": 3114,
      "sung": 3115,
      "tứ": 3116,
      "tion": 3117,
      "see": 3118,
      "there": 3119,
      "gọn": 3120,
      "gạt": 3121,
      "mou": 3122,
      "ssi": 3123,
      "xóa": 3124,
      "jerry": 3125,
      "đạc": 3126,
      "đầm": 3127,
      "quyển": 3128,
      "rence": 3129,
      "stu": 3130,
      "vốn": 3131,
      "nhấn": 3132,
      "blan": 3133,
      "om": 3134,
      "rẽ": 3135,
      "walter": 3136,
      "sâm": 3137,
      "̣ü": 3138,
      "vulcan": 3139,
      "27": 3140,
      "rgi": 3141,
      "vải": 3142,
      "đãi": 3143,
      "sarah": 3144,
      "dò": 3145,
      "gươm": 3146,
      "kes": 3147,
      "móng": 3148,
      "rỗng": 3149,
      "sướng": 3150,
      "xạ": 3151,
      "thắc": 3152,
      "nón": 3153,
      "art": 3154,
      "bột": 3155,
      "té": 3156,
      "ngụ": 3157,
      "lock": 3158,
      "bạch": 3159,
      "ụt": 3160,
      "mình": 3161,
      "thing": 3162,
      "đàm": 3163,
      "ei": 3164,
      "còn": 3165,
      "thì": 3166,
      "int": 3167,
      "lyn": 3168,
      "clark": 3169,
      "nộp": 3170,
      "iel": 3171,
      "về": 3172,
      "luke": 3173,
      "robin": 3174,
      "sé": 3175,
      "ẻo": 3176,
      "chóc": 3177,
      "row": 3178,
      "thuần": 3179,
      "tommy": 3180,
      "tò": 3181,
      "love": 3182,
      "philip": 3183,
      "suất": 3184,
      "star": 3185,
      "cớ": 3186,
      "sương": 3187,
      "khéo": 3188,
      "giê": 3189,
      "kee": 3190,
      "lược": 3191,
      "lặn": 3192,
      "xá": 3193,
      "đần": 3194,
      "radio": 3195,
      "nico": 3196,
      "ller": 3197,
      "thơm": 3198,
      "clau": 3199,
      "ivan": 3200,
      "chổ": 3201,
      "ville": 3202,
      "joey": 3203,
      "holmes": 3204,
      "gal": 3205,
      "cũng": 3206,
      "por": 3207,
      "làn": 3208,
      "buồng": 3209,
      "buýt": 3210,
      "bones": 3211,
      "victor": 3212,
      "cậy": 3213,
      "oli": 3214,
      "vay": 3215,
      "phật": 3216,
      "giật": 3217,
      "ary": 3218,
      "cứt": 3219,
      "ellen": 3220,
      "bể": 3221,
      "ngửi": 3222,
      "bara": 3223,
      "chica": 3224,
      "ath": 3225,
      "rạp": 3226,
      "chinh": 3227,
      "23": 3228,
      "cống": 3229,
      "nọ": 3230,
      "khán": 3231,
      "rocky": 3232,
      "hằng": 3233,
      "nhảm": 3234,
      "thác": 3235,
      "col": 3236,
      "elle": 3237,
      "dia": 3238,
      "thomas": 3239,
      "fro": 3240,
      "xỉ": 3241,
      "íè": 3242,
      "trồng": 3243,
      "jake": 3244,
      "io": 3245,
      "óp": 3246,
      "ngập": 3247,
      "nhiễm": 3248,
      "cỗ": 3249,
      "lla": 3250,
      "thôn": 3251,
      "tráng": 3252,
      "tina": 3253,
      "william": 3254,
      "anton": 3255,
      "khoai": 3256,
      "sụp": 3257,
      "chicago": 3258,
      "dâng": 3259,
      "khinh": 3260,
      "via": 3261,
      "bỏng": 3262,
      "194": 3263,
      "smith": 3264,
      "jor": 3265,
      "omi": 3266,
      "ers": 3267,
      "some": 3268,
      "laura": 3269,
      "dê": 3270,
      "km": 3271,
      "sưởi": 3272,
      "xóm": 3273,
      "80": 3274,
      "tùng": 3275,
      "giáp": 3276,
      "lưới": 3277,
      "fornia": 3278,
      "nữa": 3279,
      "́p": 3280,
      "gui": 3281,
      "cớm": 3282,
      "eu": 3283,
      "ves": 3284,
      "độn": 3285,
      "terry": 3286,
      "ếu": 3287,
      "rio": 3288,
      "eld": 3289,
      "hái": 3290,
      "pper": 3291,
      "đáy": 3292,
      "marie": 3293,
      "35": 3294,
      "tur": 3295,
      "this": 3296,
      "lót": 3297,
      "thắt": 3298,
      "nghĩ": 3299,
      "berlin": 3300,
      "california": 3301,
      "giùm": 3302,
      "điền": 3303,
      "kiêu": 3304,
      "doc": 3305,
      "xót": 3306,
      "rosa": 3307,
      "matsu": 3308,
      "khoảnh": 3309,
      "dro": 3310,
      "hàn": 3311,
      "lặp": 3312,
      "nỗ": 3313,
      "cham": 3314,
      "tiêm": 3315,
      "ela": 3316,
      "ruồi": 3317,
      "cey": 3318,
      "vào": 3319,
      "ash": 3320,
      "dở": 3321,
      "ráng": 3322,
      "chan": 3323,
      "ona": 3324,
      "how": 3325,
      "burg": 3326,
      "din": 3327,
      "ãng": 3328,
      "̉n": 3329,
      "kha": 3330,
      "ruth": 3331,
      "rung": 3332,
      "tland": 3333,
      "xế": 3334,
      "chuộc": 3335,
      "ks": 3336,
      "rau": 3337,
      "khoái": 3338,
      "tàng": 3339,
      "sườn": 3340,
      "blo": 3341,
      "lồng": 3342,
      "rảnh": 3343,
      "́nh": 3344,
      "tokyo": 3345,
      "belle": 3346,
      "bẻ": 3347,
      "dào": 3348,
      "mớ": 3349,
      "mòn": 3350,
      "basti": 3351,
      "cuộn": 3352,
      "right": 3353,
      "mont": 3354,
      "syl": 3355,
      "bưu": 3356,
      "dặn": 3357,
      "hố": 3358,
      "ranh": 3359,
      "ỵt": 3360,
      "​​": 3361,
      "chằm": 3362,
      "city": 3363,
      "rủi": 3364,
      "chém": 3365,
      "hiển": 3366,
      "dược": 3367,
      "christine": 3368,
      "lt": 3369,
      "nàn": 3370,
      "rad": 3371,
      "chủng": 3372,
      "sher": 3373,
      "dun": 3374,
      "duyên": 3375,
      "mỉ": 3376,
      "chỉ": 3377,
      "daniel": 3378,
      "ggie": 3379,
      "à": 3380,
      "cle": 3381,
      "ns": 3382,
      "yến": 3383,
      "hãnh": 3384,
      "tui": 3385,
      "bir": 3386,
      "berg": 3387,
      "therine": 3388,
      "90": 3389,
      "nở": 3390,
      "đắn": 3391,
      "nhạy": 3392,
      "ena": 3393,
      "thew": 3394,
      "ab": 3395,
      "dắt": 3396,
      "góp": 3397,
      "lúa": 3398,
      "túy": 3399,
      "vú": 3400,
      "vong": 3401,
      "khao": 3402,
      "annie": 3403,
      "hello": 3404,
      "21": 3405,
      "buồm": 3406,
      "marty": 3407,
      "vali": 3408,
      "lina": 3409,
      "rem": 3410,
      "chốt": 3411,
      "tana": 3412,
      "nhường": 3413,
      "bà": 3414,
      "loạt": 3415,
      "súp": 3416,
      "law": 3417,
      "dick": 3418,
      "simon": 3419,
      "huyền": 3420,
      "wilson": 3421,
      "cắm": 3422,
      "gran": 3423,
      "lật": 3424,
      "rầy": 3425,
      "thước": 3426,
      "quầy": 3427,
      "ini": 3428,
      "morgan": 3429,
      "cli": 3430,
      "hò": 3431,
      "tỉ": 3432,
      "yes": 3433,
      "̃n": 3434,
      "nhổ": 3435,
      "phẫu": 3436,
      "just": 3437,
      "blu": 3438,
      "dơ": 3439,
      "ngành": 3440,
      "chấn": 3441,
      "phỏng": 3442,
      "gard": 3443,
      "com": 3444,
      "margar": 3445,
      "ound": 3446,
      "matthew": 3447,
      "chép": 3448,
      "thải": 3449,
      "roy": 3450,
      "boy": 3451,
      "lột": 3452,
      "çà": 3453,
      "ếng": 3454,
      "virgi": 3455,
      "22": 3456,
      "tật": 3457,
      "tát": 3458,
      "nhí": 3459,
      "khờ": 3460,
      "đoạt": 3461,
      "out": 3462,
      "beau": 3463,
      "xíu": 3464,
      "gne": 3465,
      "pal": 3466,
      "tẩu": 3467,
      "nhịp": 3468,
      "những": 3469,
      "họ": 3470,
      "lix": 3471,
      "ding": 3472,
      "line": 3473,
      "hàm": 3474,
      "giờ": 3475,
      "worth": 3476,
      "kênh": 3477,
      "samurai": 3478,
      "gau": 3479,
      "nạ": 3480,
      "ẹt": 3481,
      "nhe": 3482,
      "trùm": 3483,
      "take": 3484,
      "louis": 3485,
      "eve": 3486,
      "fin": 3487,
      "oc": 3488,
      "bút": 3489,
      "mực": 3490,
      "nấp": 3491,
      "ằng": 3492,
      "̃y": 3493,
      "chui": 3494,
      "bee": 3495,
      "adam": 3496,
      "tỏa": 3497,
      "xưởng": 3498,
      "him": 3499,
      "like": 3500,
      "chiên": 3501,
      "okay": 3502,
      "cấu": 3503,
      "sánh": 3504,
      "swe": 3505,
      "̀u": 3506,
      "̃i": 3507,
      "ngột": 3508,
      "thầm": 3509,
      "phú": 3510,
      "lim": 3511,
      "buck": 3512,
      "suỵt": 3513,
      "alice": 3514,
      "hước": 3515,
      "lén": 3516,
      "nhì": 3517,
      "kid": 3518,
      "lis": 3519,
      "vincen": 3520,
      "nâu": 3521,
      "pla": 3522,
      "tê": 3523,
      "âå": 3524,
      "đắt": 3525,
      "giếng": 3526,
      "củi": 3527,
      "khơi": 3528,
      "giọt": 3529,
      "ani": 3530,
      "ring": 3531,
      "eliza": 3532,
      "dem": 3533,
      "ion": 3534,
      "lăn": 3535,
      "lấp": 3536,
      "nốt": 3537,
      "yama": 3538,
      "́u": 3539,
      "thép": 3540,
      "vịt": 3541,
      "ryo": 3542,
      "edi": 3543,
      "rót": 3544,
      "sôi": 3545,
      "àm": 3546,
      "âû": 3547,
      "äî": 3548,
      "ắn": 3549,
      "nhằm": 3550,
      "phô": 3551,
      "tọa": 3552,
      "caro": 3553,
      "cer": 3554,
      "hệt": 3555,
      "nạp": 3556,
      "đai": 3557,
      "phước": 3558,
      "luci": 3559,
      "fla": 3560,
      "̀o": 3561,
      "́î": 3562,
      "ớp": 3563,
      "gin": 3564,
      "bịch": 3565,
      "catherine": 3566,
      "soạn": 3567,
      "bọc": 3568,
      "vã": 3569,
      "họng": 3570,
      "lot": 3571,
      "các": 3572,
      "pache": 3573,
      "kèn": 3574,
      "ov": 3575,
      "xài": 3576,
      "giu": 3577,
      "enna": 3578,
      "martha": 3579,
      "kelly": 3580,
      "bầy": 3581,
      "dập": 3582,
      "whoa": 3583,
      "yd": 3584,
      "ền": 3585,
      "ting": 3586,
      "sand": 3587,
      "julie": 3588,
      "yoshi": 3589,
      "bùn": 3590,
      "̀m": 3591,
      "chì": 3592,
      "aron": 3593,
      "they": 3594,
      "green": 3595,
      "căm": 3596,
      "mổ": 3597,
      "mại": 3598,
      "xter": 3599,
      "hãng": 3600,
      "louise": 3601,
      "margaret": 3602,
      "hít": 3603,
      "who": 3604,
      "ras": 3605,
      "hill": 3606,
      "chị": 3607,
      "fort": 3608,
      "há": 3609,
      "lắc": 3610,
      "when": 3611,
      "ống": 3612,
      "ngắt": 3613,
      "triết": 3614,
      "trân": 3615,
      "lười": 3616,
      "vey": 3617,
      "kiệm": 3618,
      "trích": 3619,
      "little": 3620,
      "edward": 3621,
      "hiếu": 3622,
      "more": 3623,
      "jesus": 3624,
      "hor": 3625,
      "hãy": 3626,
      "xui": 3627,
      "tton": 3628,
      "bastian": 3629,
      "apache": 3630,
      "lăng": 3631,
      "rách": 3632,
      "sáo": 3633,
      "tem": 3634,
      "zz": 3635,
      "ngất": 3636,
      "ngợi": 3637,
      "got": 3638,
      "jimmy": 3639,
      "196": 3640,
      "francisco": 3641,
      "bùa": 3642,
      "gel": 3643,
      "rập": 3644,
      "đå": 3645,
      "quá": 3646,
      "kins": 3647,
      "bour": 3648,
      "kli": 3649,
      "đính": 3650,
      "phy": 3651,
      "sal": 3652,
      "tie": 3653,
      "400": 3654,
      "gro": 3655,
      "ges": 3656,
      "lụ": 3657,
      "tus": 3658,
      "lơ": 3659,
      "lầy": 3660,
      "nếu": 3661,
      "sòng": 3662,
      "xon": 3663,
      "tal": 3664,
      "tuệ": 3665,
      "cana": 3666,
      "gene": 3667,
      "moses": 3668,
      "cò": 3669,
      "két": 3670,
      "rể": 3671,
      "sse": 3672,
      "ant": 3673,
      "tiễn": 3674,
      "ước": 3675,
      "vịnh": 3676,
      "sebastian": 3677,
      "nhà": 3678,
      "chứ": 3679,
      "glo": 3680,
      "if": 3681,
      "ëü": 3682,
      "ngây": 3683,
      "trộn": 3684,
      "mie": 3685,
      "huyết": 3686,
      "ận": 3687,
      "nầy": 3688,
      "ngộ": 3689,
      "nhét": 3690,
      "cối": 3691,
      "xộn": 3692,
      "đẳng": 3693,
      "nghếch": 3694,
      "migu": 3695,
      "field": 3696,
      "thorn": 3697,
      "gri": 3698,
      "gạo": 3699,
      "gna": 3700,
      "mờ": 3701,
      "rỉ": 3702,
      "vất": 3703,
      "ựî": 3704,
      "trèo": 3705,
      "tain": 3706,
      "bei": 3707,
      "bes": 3708,
      "rỗi": 3709,
      "wis": 3710,
      "ợm": 3711,
      "ợng": 3712,
      "matt": 3713,
      "mitch": 3714,
      "carl": 3715,
      "chekov": 3716,
      "dãy": 3717,
      "ele": 3718,
      "đợt": 3719,
      "thảy": 3720,
      "nghịch": 3721,
      "miss": 3722,
      "albert": 3723,
      "pete": 3724,
      "klingon": 3725,
      "cọ": 3726,
      "láo": 3727,
      "suối": 3728,
      "tần": 3729,
      "âè": 3730,
      "hiro": 3731,
      "cky": 3732,
      "nis": 3733,
      "28": 3734,
      "gớm": 3735,
      "hở": 3736,
      "nhích": 3737,
      "khôi": 3738,
      "miles": 3739,
      "zato": 3740,
      "kra": 3741,
      "nến": 3742,
      "sét": 3743,
      "châm": 3744,
      "ans": 3745,
      "cài": 3746,
      "lánh": 3747,
      "sảnh": 3748,
      "vy": 3749,
      "đẽ": 3750,
      "quãng": 3751,
      "cur": 3752,
      "cathy": 3753,
      "michel": 3754,
      "never": 3755,
      "juli": 3756,
      "jackson": 3757,
      "70": 3758,
      "clay": 3759,
      "nôn": 3760,
      "xám": 3761,
      "nhạo": 3762,
      "chục": 3763,
      "bea": 3764,
      "piano": 3765,
      "góa": 3766,
      "kane": 3767,
      "nếm": 3768,
      "rớt": 3769,
      "oni": 3770,
      "time": 3771,
      "arm": 3772,
      "26": 3773,
      "78": 3774,
      "còi": 3775,
      "rồng": 3776,
      "rot": 3777,
      "mẹ": 3778,
      "nấm": 3779,
      "́a": 3780,
      "thịnh": 3781,
      "hưu": 3782,
      "cru": 3783,
      "ùn": 3784,
      "air": 3785,
      "bạn": 3786,
      "lum": 3787,
      "sil": 3788,
      "gun": 3789,
      "cửu": 3790,
      "jacqu": 3791,
      "dinh": 3792,
      "đành": 3793,
      "kitty": 3794,
      "sea": 3795,
      "night": 3796,
      "harri": 3797,
      "ralph": 3798,
      "xưng": 3799,
      "khiếu": 3800,
      "trữ": 3801,
      "trưng": 3802,
      "lisa": 3803,
      "sia": 3804,
      "zatoichi": 3805,
      "cin": 3806,
      "oka": 3807,
      "vách": 3808,
      "̀a": 3809,
      "nhúc": 3810,
      "phàn": 3811,
      "vì": 3812,
      "alô": 3813,
      "leslie": 3814,
      "khuya": 3815,
      "bọ": 3816,
      "stra": 3817,
      "marcus": 3818,
      "hara": 3819,
      "nancy": 3820,
      "dri": 3821,
      "lẹ": 3822,
      "won": 3823,
      "ëî": 3824,
      "hoạn": 3825,
      "liễu": 3826,
      "ald": 3827,
      "shima": 3828,
      "pre": 3829,
      "vặt": 3830,
      "bịt": 3831,
      "baby": 3832,
      "vis": 3833,
      "đúng": 3834,
      "guy": 3835,
      "ngỗng": 3836,
      "chồn": 3837,
      "quin": 3838,
      "black": 3839,
      "búp": 3840,
      "grand": 3841,
      "sỉ": 3842,
      "sờ": 3843,
      "tản": 3844,
      "vác": 3845,
      "ñå": 3846,
      "nhấc": 3847,
      "thấy": 3848,
      "lowe": 3849,
      "chie": 3850,
      "madame": 3851,
      "clai": 3852,
      "dam": 3853,
      "trọn": 3854,
      "mal": 3855,
      "chua": 3856,
      "every": 3857,
      "dội": 3858,
      "khăng": 3859,
      "roi": 3860,
      "hank": 3861,
      "chẳng": 3862,
      "hâm": 3863,
      "jin": 3864,
      "rã": 3865,
      "rất": 3866,
      "str": 3867,
      "̣nh": 3868,
      "fanny": 3869,
      "rực": 3870,
      "rèn": 3871,
      "tăm": 3872,
      "thắn": 3873,
      "đừng": 3874,
      "cou": 3875,
      "boris": 3876,
      "harvey": 3877,
      "bô": 3878,
      "cay": 3879,
      "lỏng": 3880,
      "pp": 3881,
      "đan": 3882,
      "ện": 3883,
      "holly": 3884,
      "mus": 3885,
      "phiêu": 3886,
      "net": 3887,
      "mann": 3888,
      "bậy": 3889,
      "kĩ": 3890,
      "ênh": 3891,
      "ball": 3892,
      "khoe": 3893,
      "napo": 3894,
      "wat": 3895,
      "bout": 3896,
      "aga": 3897,
      "hon": 3898,
      "tể": 3899,
      "ĩa": 3900,
      "̀y": 3901,
      "nhai": 3902,
      "khảo": 3903,
      "phổ": 3904,
      "sas": 3905,
      "sally": 3906,
      "hãm": 3907,
      "sing": 3908,
      "ushi": 3909,
      "carlo": 3910,
      "dang": 3911,
      "ree": 3912,
      "cốt": 3913,
      "manu": 3914,
      "miguel": 3915,
      "mộc": 3916,
      "emil": 3917,
      "amy": 3918,
      "sei": 3919,
      "marcel": 3920,
      "tốt": 3921,
      "chớp": 3922,
      "lă": 3923,
      "nin": 3924,
      "vuốt": 3925,
      "то": 3926,
      "khiêm": 3927,
      "lei": 3928,
      "dney": 3929,
      "mă": 3930,
      "vna": 3931,
      "phối": 3932,
      "gio": 3933,
      "diêm": 3934,
      "sic": 3935,
      "patri": 3936,
      "santa": 3937,
      "yuki": 3938,
      "bobby": 3939,
      "cựu": 3940,
      "alexander": 3941,
      "ac": 3942,
      "dưa": 3943,
      "dồn": 3944,
      "oto": 3945,
      "sem": 3946,
      "xách": 3947,
      "ẫn": 3948,
      "khe": 3949,
      "cong": 3950,
      "cõi": 3951,
      "gă": 3952,
      "nét": 3953,
      "æå": 3954,
      "khung": 3955,
      "vio": 3956,
      "kawa": 3957,
      "sonny": 3958,
      "32": 3959,
      "about": 3960,
      "hử": 3961,
      "ñü": 3962,
      "khẳng": 3963,
      "end": 3964,
      "luân": 3965,
      "gawa": 3966,
      "vera": 3967,
      "russ": 3968,
      "bách": 3969,
      "gầy": 3970,
      "skey": 3971,
      "tú": 3972,
      "vạch": 3973,
      "ếc": 3974,
      "nhạt": 3975,
      "saint": 3976,
      "lucy": 3977,
      "dow": 3978,
      "lady": 3979,
      "bị": 3980,
      "chuck": 3981,
      "hur": 3982,
      "tông": 3983,
      "vặn": 3984,
      "chen": 3985,
      "baker": 3986,
      "miller": 3987,
      "phie": 3988,
      "tts": 3989,
      "brown": 3990,
      "ea": 3991,
      "hé": 3992,
      "đắm": 3993,
      "trầm": 3994,
      "mura": 3995,
      "music": 3996,
      "white": 3997,
      "bơm": 3998,
      "bernard": 3999,
      "xỉn": 4000,
      "côi": 4001,
      "ẻm": 4002,
      "berto": 4003,
      "harold": 4004,
      "29": 4005,
      "gạch": 4006,
      "sừng": 4007,
      "vạt": 4008,
      "̣à": 4009,
      "his": 4010,
      "lea": 4011,
      "chuỗi": 4012,
      "chuồn": 4013,
      "polly": 4014,
      "pat": 4015,
      "đao": 4016,
      "lự": 4017,
      "vẫy": 4018,
      "yle": 4019,
      "́à": 4020,
      "не": 4021,
      "điếc": 4022,
      "chào": 4023,
      "rou": 4024,
      "thoáng": 4025,
      "khuất": 4026,
      "charley": 4027,
      "bỉ": 4028,
      "lắp": 4029,
      "ori": 4030,
      "ois": 4031,
      "over": 4032,
      "zie": 4033,
      "̣m": 4034,
      "thâm": 4035,
      "did": 4036,
      "phara": 4037,
      "bye": 4038,
      "mỉm": 4039,
      "bỗng": 4040,
      "fle": 4041,
      "trào": 4042,
      "xuôi": 4043,
      "pop": 4044,
      "mori": 4045,
      "cỡi": 4046,
      "rương": 4047,
      "tà": 4048,
      "áî": 4049,
      "cán": 4050,
      "liêng": 4051,
      "mil": 4052,
      "đoan": 4053,
      "shaw": 4054,
      "38": 4055,
      "75": 4056,
      "kỉ": 4057,
      "umi": 4058,
      "uhu": 4059,
      "đực": 4060,
      "đít": 4061,
      "ngự": 4062,
      "thê": 4063,
      "doro": 4064,
      "cap": 4065,
      "dave": 4066,
      "kara": 4067,
      "aah": 4068,
      "ice": 4069,
      "nảy": 4070,
      "ệc": 4071,
      "khớp": 4072,
      "ess": 4073,
      "had": 4074,
      "felix": 4075,
      "jesse": 4076,
      "ope": 4077,
      "tặc": 4078,
      "chốn": 4079,
      "trêu": 4080,
      "phổi": 4081,
      "ram": 4082,
      "rett": 4083,
      "chur": 4084,
      "vụng": 4085,
      "uhura": 4086,
      "bren": 4087,
      "cặn": 4088,
      "ex": 4089,
      "kông": 4090,
      "nề": 4091,
      "spar": 4092,
      "tẩy": 4093,
      "vòi": 4094,
      "yểm": 4095,
      "chải": 4096,
      "chánh": 4097,
      "thin": 4098,
      "shel": 4099,
      "pharaoh": 4100,
      "dỡ": 4101,
      "lượn": 4102,
      "ní": 4103,
      "ệt": 4104,
      "pher": 4105,
      "gic": 4106,
      "kiku": 4107,
      "doyle": 4108,
      "ned": 4109,
      "ryan": 4110,
      "huệ": 4111,
      "séc": 4112,
      "36": 4113,
      "aki": 4114,
      "lọ": 4115,
      "nai": 4116,
      "ppe": 4117,
      "́o": 4118,
      "thừng": 4119,
      "angel": 4120,
      "sus": 4121,
      "susan": 4122,
      "khỏa": 4123,
      "donald": 4124,
      "ette": 4125,
      "whiskey": 4126,
      "antonio": 4127,
      "ear": 4128,
      "ngậm": 4129,
      "chốc": 4130,
      "cour": 4131,
      "ving": 4132,
      "chitty": 4133,
      "bong": 4134,
      "vỗ": 4135,
      "thấu": 4136,
      "taro": 4137,
      "bun": 4138,
      "boa": 4139,
      "huân": 4140,
      "steph": 4141,
      "bba": 4142,
      "ré": 4143,
      "đam": 4144,
      "nhở": 4145,
      "boong": 4146,
      "raymond": 4147,
      "tới": 4148,
      "elizabeth": 4149,
      "bướ": 4150,
      "dre": 4151,
      "iv": 4152,
      "west": 4153,
      "xăm": 4154,
      "chợt": 4155,
      "ins": 4156,
      "pike": 4157,
      "sieur": 4158,
      "whisky": 4159,
      "sắm": 4160,
      "ngạo": 4161,
      "chanh": 4162,
      "quăng": 4163,
      "tuế": 4164,
      "mick": 4165,
      "ruộng": 4166,
      "từ": 4167,
      "sten": 4168,
      "doug": 4169,
      "lụa": 4170,
      "cca": 4171,
      "lda": 4172,
      "nar": 4173,
      "rưởi": 4174,
      "spe": 4175,
      "ura": 4176,
      "ềng": 4177,
      "khan": 4178,
      "nghiệt": 4179,
      "dad": 4180,
      "body": 4181,
      "thủng": 4182,
      "aney": 4183,
      "feet": 4184,
      "cảm": 4185,
      "jenny": 4186,
      "150": 4187,
      "ct": 4188,
      "hừm": 4189,
      "mánh": 4190,
      "sẹo": 4191,
      "äè": 4192,
      "gìn": 4193,
      "nhiều": 4194,
      "lupin": 4195,
      "mack": 4196,
      "lling": 4197,
      "serge": 4198,
      "eva": 4199,
      "fal": 4200,
      "ut": 4201,
      "viếng": 4202,
      "ëå": 4203,
      "tic": 4204,
      "dol": 4205,
      "grant": 4206,
      "ara": 4207,
      "ft": 4208,
      "nst": 4209,
      "oe": 4210,
      "rợ": 4211,
      "colo": 4212,
      "chao": 4213,
      "susie": 4214,
      "nghiền": 4215,
      "rum": 4216,
      "pip": 4217,
      "monsieur": 4218,
      "tuyển": 4219,
      "pert": 4220,
      "morris": 4221,
      "1000": 4222,
      "dốc": 4223,
      "hẻm": 4224,
      "lề": 4225,
      "ũi": 4226,
      "ượm": 4227,
      "rea": 4228,
      "lận": 4229,
      "xiếc": 4230,
      "zar": 4231,
      "sara": 4232,
      "kitô": 4233,
      "mãnh": 4234,
      "kansas": 4235,
      "gặp": 4236,
      "bôi": 4237,
      "dán": 4238,
      "hắn": 4239,
      "nel": 4240,
      "sài": 4241,
      "xẻ": 4242,
      "xen": 4243,
      "ịt": 4244,
      "chĩa": 4245,
      "nghiện": 4246,
      "any": 4247,
      "house": 4248,
      "lung": 4249,
      "phun": 4250,
      "opera": 4251,
      "bùng": 4252,
      "hông": 4253,
      "kèm": 4254,
      "rỡ": 4255,
      "sập": 4256,
      "tian": 4257,
      "lison": 4258,
      "cháu": 4259,
      "bọn": 4260,
      "lẫy": 4261,
      "mạt": 4262,
      "tết": 4263,
      "ñÿ": 4264,
      "đả": 4265,
      "ơî": 4266,
      "dal": 4267,
      "sự": 4268,
      "hap": 4269,
      "kaji": 4270,
      "walker": 4271,
      "ểu": 4272,
      "came": 4273,
      "bailey": 4274,
      "lắm": 4275,
      "fren": 4276,
      "pon": 4277,
      "tle": 4278,
      "vẹn": 4279,
      "giở": 4280,
      "cora": 4281,
      "allen": 4282,
      "haw": 4283,
      "ush": 4284,
      "mosco": 4285,
      "lộng": 4286,
      "lọc": 4287,
      "neo": 4288,
      "xít": 4289,
      "chặng": 4290,
      "chester": 4291,
      "điêu": 4292,
      "tis": 4293,
      "sun": 4294,
      "sim": 4295,
      "pollo": 4296,
      "gold": 4297,
      "hyah": 4298,
      "wie": 4299,
      "ssy": 4300,
      "oscar": 4301,
      "lawrence": 4302,
      "biếng": 4303,
      "dt": 4304,
      "hắc": 4305,
      "kg": 4306,
      "meo": 4307,
      "zen": 4308,
      "đắc": 4309,
      "chùa": 4310,
      "quậy": 4311,
      "toi": 4312,
      "lena": 4313,
      "angelo": 4314,
      "vincent": 4315,
      "moscow": 4316,
      "báng": 4317,
      "cành": 4318,
      "gli": 4319,
      "osa": 4320,
      "rậm": 4321,
      "sủa": 4322,
      "ngó": 4323,
      "ngai": 4324,
      "god": 4325,
      "manion": 4326,
      "brian": 4327,
      "warp": 4328,
      "canada": 4329,
      "fon": 4330,
      "lăm": 4331,
      "vướng": 4332,
      "yn": 4333,
      "zer": 4334,
      "chô": 4335,
      "diễu": 4336,
      "allison": 4337,
      "ous": 4338,
      "sue": 4339,
      "fuji": 4340,
      "lẻn": 4341,
      "oliver": 4342,
      "bướm": 4343,
      "bóc": 4344,
      "búa": 4345,
      "cla": 4346,
      "edo": 4347,
      "fit": 4348,
      "đới": 4349,
      "nhơ": 4350,
      "loan": 4351,
      "alvin": 4352,
      "travis": 4353,
      "lưỡng": 4354,
      "berna": 4355,
      "tya": 4356,
      "want": 4357,
      "nhé": 4358,
      "mck": 4359,
      "thắp": 4360,
      "rado": 4361,
      "màng": 4362,
      "dis": 4363,
      "phia": 4364,
      "soi": 4365,
      "nghiêng": 4366,
      "kenne": 4367,
      "eh": 4368,
      "gầm": 4369,
      "lé": 4370,
      "lanh": 4371,
      "mỡ": 4372,
      "scar": 4373,
      "äó": 4374,
      "thự": 4375,
      "thon": 4376,
      "then": 4377,
      "emma": 4378,
      "ernst": 4379,
      "look": 4380,
      "bian": 4381,
      "katsu": 4382,
      "gata": 4383,
      "franz": 4384,
      "barney": 4385,
      "xoa": 4386,
      "florence": 4387,
      "hunter": 4388,
      "blanche": 4389,
      "jordan": 4390,
      "nell": 4391,
      "pes": 4392,
      "why": 4393,
      "xéo": 4394,
      "áû": 4395,
      "đắp": 4396,
      "̉o": 4397,
      "khiết": 4398,
      "toran": 4399,
      "chio": 4400,
      "ould": 4401,
      "has": 4402,
      "randa": 4403,
      "lựu": 4404,
      "37": 4405,
      "bli": 4406,
      "chật": 4407,
      "chửi": 4408,
      "nhào": 4409,
      "toà": 4410,
      "ringo": 4411,
      "vius": 4412,
      "daddy": 4413,
      "thứ": 4414,
      "hei": 4415,
      "blue": 4416,
      "dus": 4417,
      "hin": 4418,
      "ix": 4419,
      "lướt": 4420,
      "oo": 4421,
      "xư": 4422,
      "trán": 4423,
      "gie": 4424,
      "cua": 4425,
      "sưu": 4426,
      "mmm": 4427,
      "bron": 4428,
      "violet": 4429,
      "củ": 4430,
      "nồi": 4431,
      "ox": 4432,
      "vãn": 4433,
      "vượn": 4434,
      "yon": 4435,
      "baba": 4436,
      "việc": 4437,
      "tựa": 4438,
      "soái": 4439,
      "carrie": 4440,
      "lester": 4441,
      "bẩm": 4442,
      "dải": 4443,
      "kong": 4444,
      "kam": 4445,
      "stri": 4446,
      "tell": 4447,
      "uni": 4448,
      "на": 4449,
      "nhượng": 4450,
      "ely": 4451,
      "chill": 4452,
      "bol": 4453,
      "poi": 4454,
      "wich": 4455,
      "jaco": 4456,
      "moni": 4457,
      "herbie": 4458,
      "yuri": 4459,
      "brand": 4460,
      "gordon": 4461,
      "nín": 4462,
      "bổn": 4463,
      "fia": 4464,
      "gòn": 4465,
      "gam": 4466,
      "hẹp": 4467,
      "lùa": 4468,
      "léo": 4469,
      "lùn": 4470,
      "mỏng": 4471,
      "núp": 4472,
      "rên": 4473,
      "would": 4474,
      "nhủ": 4475,
      "nhọc": 4476,
      "cáu": 4477,
      "loo": 4478,
      "ghe": 4479,
      "gera": 4480,
      "shiro": 4481,
      "parker": 4482,
      "zawa": 4483,
      "frances": 4484,
      "watson": 4485,
      "sou": 4486,
      "where": 4487,
      "đậy": 4488,
      "̣û": 4489,
      "ẽm": 4490,
      "anto": 4491,
      "ens": 4492,
      "med": 4493,
      "ish": 4494,
      "toranaga": 4495,
      "cày": 4496,
      "hăng": 4497,
      "đố": 4498,
      "coo": 4499,
      "diana": 4500,
      "kẻo": 4501,
      "nold": 4502,
      "gue": 4503,
      "lệch": 4504,
      "deri": 4505,
      "christian": 4506,
      "french": 4507,
      "bell": 4508,
      "gru": 4509,
      "gami": 4510,
      "lde": 4511,
      "rành": 4512,
      "nhức": 4513,
      "phàm": 4514,
      "lya": 4515,
      "karl": 4516,
      "from": 4517,
      "sylvia": 4518,
      "bít": 4519,
      "kai": 4520,
      "lờ": 4521,
      "plan": 4522,
      "xẻo": 4523,
      "đùi": 4524,
      "ẳm": 4525,
      "ửng": 4526,
      "aine": 4527,
      "town": 4528,
      "late": 4529,
      "mah": 4530,
      "xuẩn": 4531,
      "sophie": 4532,
      "very": 4533,
      "tôm": 4534,
      "oster": 4535,
      "churchill": 4536,
      "34": 4537,
      "fra": 4538,
      "lọt": 4539,
      "nêu": 4540,
      "rong": 4541,
      "reo": 4542,
      "sẳn": 4543,
      "ý": 4544,
      "ũa": 4545,
      "pey": 4546,
      "pagne": 4547,
      "sandy": 4548,
      "cần": 4549,
      "găng": 4550,
      "hụt": 4551,
      "ita": 4552,
      "nít": 4553,
      "chaney": 4554,
      "back": 4555,
      "hiên": 4556,
      "kuro": 4557,
      "yasu": 4558,
      "karen": 4559,
      "angeles": 4560,
      "caroline": 4561,
      "bb": 4562,
      "bái": 4563,
      "clu": 4564,
      "nản": 4565,
      "sấm": 4566,
      "íó": 4567,
      "show": 4568,
      "champagne": 4569,
      "39": 4570,
      "55": 4571,
      "alo": 4572,
      "cé": 4573,
      "ose": 4574,
      "rơ": 4575,
      "đắng": 4576,
      "vienna": 4577,
      "gom": 4578,
      "ping": 4579,
      "samson": 4580,
      "ett": 4581,
      "kẹp": 4582,
      "lm": 4583,
      "rer": 4584,
      "tto": 4585,
      "yam": 4586,
      "điềm": 4587,
      "bad": 4588,
      "tos": 4589,
      "alla": 4590,
      "vụn": 4591,
      "lini": 4592,
      "**": 4593,
      "ep": 4594,
      "siết": 4595,
      "nhỡ": 4596,
      "chày": 4597,
      "aya": 4598,
      "hoo": 4599,
      "phila": 4600,
      "dean": 4601,
      "mọi": 4602,
      "joan": 4603,
      "llis": 4604,
      "rain": 4605,
      "stone": 4606,
      "otto": 4607,
      "ngụy": 4608,
      "cliff": 4609,
      "600": 4610,
      "dell": 4611,
      "nồng": 4612,
      "sk": 4613,
      "xôi": 4614,
      "xảo": 4615,
      "yer": 4616,
      "ïđî": 4617,
      "õng": 4618,
      "đă": 4619,
      "по": 4620,
      "thẹn": 4621,
      "salo": 4622,
      "aye": 4623,
      "ars": 4624,
      "loa": 4625,
      "bow": 4626,
      "brook": 4627,
      "marion": 4628,
      "lloyd": 4629,
      "poirot": 4630,
      "bích": 4631,
      "nực": 4632,
      "ëåí": 4633,
      "đẫm": 4634,
      "ngẫu": 4635,
      "trặc": 4636,
      "khiên": 4637,
      "bịa": 4638,
      "lio": 4639,
      "cock": 4640,
      "eline": 4641,
      "down": 4642,
      "carter": 4643,
      "wolf": 4644,
      "willie": 4645,
      "zio": 4646,
      "ià": 4647,
      "lội": 4648,
      "oy": 4649,
      "đỗ": 4650,
      "ngâm": 4651,
      "khử": 4652,
      "trượng": 4653,
      "hoành": 4654,
      "baxter": 4655,
      "mag": 4656,
      "kei": 4657,
      "nom": 4658,
      "líu": 4659,
      "philadel": 4660,
      "42": 4661,
      "cằn": 4662,
      "ek": 4663,
      "gger": 4664,
      "hòng": 4665,
      "lữ": 4666,
      "mắng": 4667,
      "rúp": 4668,
      "ún": 4669,
      "thọ": 4670,
      "thét": 4671,
      "choáng": 4672,
      "nhiễu": 4673,
      "too": 4674,
      "bus": 4675,
      "chuyền": 4676,
      "stella": 4677,
      "christo": 4678,
      "pinoc": 4679,
      "philadelphia": 4680,
      "cẩu": 4681,
      "dời": 4682,
      "mẻ": 4683,
      "spa": 4684,
      "stre": 4685,
      "gieo": 4686,
      "bén": 4687,
      "phụng": 4688,
      "dum": 4689,
      "water": 4690,
      "henri": 4691,
      "48": 4692,
      "cúng": 4693,
      "kon": 4694,
      "lậu": 4695,
      "rình": 4696,
      "điều": 4697,
      "quấn": 4698,
      "bach": 4699,
      "kiều": 4700,
      "lucas": 4701,
      "papa": 4702,
      "nhịn": 4703,
      "ggy": 4704,
      "pinocchio": 4705,
      "250": 4706,
      "33": 4707,
      "bấy": 4708,
      "gũi": 4709,
      "hán": 4710,
      "mị": 4711,
      "náu": 4712,
      "ñè": 4713,
      "nhồi": 4714,
      "try": 4715,
      "phiến": 4716,
      "lad": 4717,
      "nicho": 4718,
      "bella": 4719,
      "silver": 4720,
      "hê": 4721,
      "pres": 4722,
      "zan": 4723,
      "nham": 4724,
      "đãng": 4725,
      "tov": 4726,
      "cuô": 4727,
      "roc": 4728,
      "mir": 4729,
      "thích": 4730,
      "nguội": 4731,
      "hưng": 4732,
      "khuyến": 4733,
      "dột": 4734,
      "lẩn": 4735,
      "xả": 4736,
      "zil": 4737,
      "taka": 4738,
      "kir": 4739,
      "tino": 4740,
      "romu": 4741,
      "roman": 4742,
      "made": 4743,
      "cứ": 4744,
      "boo": 4745,
      "dette": 4746,
      "mayumi": 4747,
      "jackie": 4748,
      "philippe": 4749,
      "bừa": 4750,
      "bấm": 4751,
      "cưa": 4752,
      "gài": 4753,
      "hm": 4754,
      "lượm": 4755,
      "rằng": 4756,
      "vắt": 4757,
      "đúc": 4758,
      "trơn": 4759,
      "logan": 4760,
      "ross": 4761,
      "masa": 4762,
      "taylor": 4763,
      "barbara": 4764,
      "patrick": 4765,
      "russell": 4766,
      "ashi": 4767,
      "mìn": 4768,
      "rủ": 4769,
      "rãi": 4770,
      "sor": 4771,
      "zzo": 4772,
      "quặc": 4773,
      "lire": 4774,
      "coll": 4775,
      "lett": 4776,
      "viêm": 4777,
      "xua": 4778,
      "kate": 4779,
      "kazu": 4780,
      "vers": 4781,
      "atlan": 4782,
      "jessie": 4783,
      "bì": 4784,
      "bế": 4785,
      "gy": 4786,
      "nder": 4787,
      "tâu": 4788,
      "tụng": 4789,
      "ïđè": 4790,
      "õm": 4791,
      "ắt": 4792,
      "́è": 4793,
      "phơi": 4794,
      "life": 4795,
      "bảnh": 4796,
      "dock": 4797,
      "dev": 4798,
      "brus": 4799,
      "antoine": 4800,
      "năn": 4801,
      "nắp": 4802,
      "oly": 4803,
      "rl": 4804,
      "sùng": 4805,
      "vần": 4806,
      "yen": 4807,
      "ờ": 4808,
      "them": 4809,
      "quẩn": 4810,
      "ene": 4811,
      "elaine": 4812,
      "romeo": 4813,
      "thiểu": 4814,
      "truồng": 4815,
      "chắc": 4816,
      "gloria": 4817,
      "claire": 4818,
      "stephen": 4819,
      "cào": 4820,
      "dơi": 4821,
      "mốt": 4822,
      "off": 4823,
      "chổi": 4824,
      "give": 4825,
      "lewis": 4826,
      "phil": 4827,
      "philli": 4828,
      "nixon": 4829,
      "betty": 4830,
      "mario": 4831,
      "moun": 4832,
      "scarlett": 4833,
      "dẫu": 4834,
      "gào": 4835,
      "nạt": 4836,
      "̉y": 4837,
      "ка": 4838,
      "elwood": 4839,
      "vie": 4840,
      "alfred": 4841,
      "shall": 4842,
      "wald": 4843,
      "ful": 4844,
      "hunt": 4845,
      "bble": 4846,
      "cau": 4847,
      "ius": 4848,
      "mép": 4849,
      "tẻ": 4850,
      "tman": 4851,
      "đôn": 4852,
      "chau": 4853,
      "đầu": 4854,
      "cáp": 4855,
      "salem": 4856,
      "cùng": 4857,
      "kat": 4858,
      "shh": 4859,
      "burn": 4860,
      "hammond": 4861,
      "lấy": 4862,
      "mẩu": 4863,
      "nấy": 4864,
      "vẫn": 4865,
      "nhánh": 4866,
      "chết": 4867,
      "thệ": 4868,
      "tại": 4869,
      "ance": 4870,
      "lúc": 4871,
      "rico": 4872,
      "roll": 4873,
      "michi": 4874,
      "nathan": 4875,
      "boston": 4876,
      "manny": 4877,
      "pia": 4878,
      "barry": 4879,
      "christ": 4880,
      "martini": 4881,
      "lốp": 4882,
      "napoleon": 4883,
      "ax": 4884,
      "cúp": 4885,
      "fel": 4886,
      "miện": 4887,
      "mine": 4888,
      "tào": 4889,
      "ị̂": 4890,
      "ồ": 4891,
      "ngần": 4892,
      "nhện": 4893,
      "chích": 4894,
      "antony": 4895,
      "khiêng": 4896,
      "tier": 4897,
      "tiềm": 4898,
      "light": 4899,
      "das": 4900,
      "sig": 4901,
      "tracy": 4902,
      "molly": 4903,
      "piz": 4904,
      "heath": 4905,
      "haru": 4906,
      "douglas": 4907,
      "christopher": 4908,
      "băn": 4909,
      "dson": 4910,
      "gs": 4911,
      "mam": 4912,
      "túng": 4913,
      "chang": 4914,
      "thẳm": 4915,
      "phế": 4916,
      "bịp": 4917,
      "dah": 4918,
      "isse": 4919,
      "ille": 4920,
      "teddy": 4921,
      "giêsu": 4922,
      "hong": 4923,
      "ike": 4924,
      "lách": 4925,
      "nứt": 4926,
      "oi": 4927,
      "ooh": 4928,
      "đày": 4929,
      "ộp": 4930,
      "ngạt": 4931,
      "nháy": 4932,
      "khái": 4933,
      "race": 4934,
      "lik": 4935,
      "bum": 4936,
      "maggie": 4937,
      "vuông": 4938,
      "pear": 4939,
      "monte": 4940,
      "hans": 4941,
      "mày": 4942,
      "steiner": 4943,
      "bổng": 4944,
      "lân": 4945,
      "láng": 4946,
      "leen": 4947,
      "side": 4948,
      "gara": 4949,
      "norm": 4950,
      "hungary": 4951,
      "andrew": 4952,
      "nicole": 4953,
      "sweet": 4954,
      "ag": 4955,
      "cci": 4956,
      "hand": 4957,
      "mách": 4958,
      "owen": 4959,
      "rải": 4960,
      "úm": 4961,
      "ẵng": 4962,
      "bàng": 4963,
      "roberto": 4964,
      "khoăn": 4965,
      "nosuke": 4966,
      "vasi": 4967,
      "head": 4968,
      "mmer": 4969,
      "lỗi": 4970,
      "shua": 4971,
      "dorothy": 4972,
      "rơm": 4973,
      "romulus": 4974,
      "ethan": 4975,
      "hẽm": 4976,
      "kề": 4977,
      "rd": 4978,
      "schu": 4979,
      "nhá": 4980,
      "lov": 4981,
      "lola": 4982,
      "lein": 4983,
      "vik": 4984,
      "diều": 4985,
      "wick": 4986,
      "scotland": 4987,
      "steven": 4988,
      "gaul": 4989,
      "sandwich": 4990,
      "xược": 4991,
      "collins": 4992,
      "cước": 4993,
      "clo": 4994,
      "cọc": 4995,
      "gris": 4996,
      "liếm": 4997,
      "pti": 4998,
      "rễ": 4999,
      "sầu": 5000,
      "xay": 5001,
      "đơ": 5002,
      "đốn": 5003,
      "đậm": 5004,
      "́ó": 5005,
      "ко": 5006,
      "thày": 5007,
      "ain": 5008,
      "tiền": 5009,
      "lily": 5010,
      "bois": 5011,
      "shane": 5012,
      "nhuận": 5013,
      "edith": 5014,
      "cz": 5015,
      "duyệt": 5016,
      "zor": 5017,
      "khâu": 5018,
      "phẳng": 5019,
      "quạ": 5020,
      "cos": 5021,
      "bull": 5022,
      "ngoãn": 5023,
      "tee": 5024,
      "shen": 5025,
      "moi": 5026,
      "mới": 5027,
      "walt": 5028,
      "shou": 5029,
      "master": 5030,
      "kennedy": 5031,
      "gerald": 5032,
      "dép": 5033,
      "gót": 5034,
      "mĩ": 5035,
      "nén": 5036,
      "xắn": 5037,
      "ïà": 5038,
      "̣è": 5039,
      "chưởng": 5040,
      "chôm": 5041,
      "gil": 5042,
      "buô": 5043,
      "mallo": 5044,
      "moon": 5045,
      "hea": 5046,
      "mmel": 5047,
      "tcher": 5048,
      "fritz": 5049,
      "andrei": 5050,
      "47": 5051,
      "deo": 5052,
      "fair": 5053,
      "hót": 5054,
      "rạng": 5055,
      "wes": 5056,
      "ïå": 5057,
      "nhẽ": 5058,
      "giục": 5059,
      "rat": 5060,
      "leans": 5061,
      "rita": 5062,
      "sex": 5063,
      "andra": 5064,
      "bet": 5065,
      "moz": 5066,
      "carol": 5067,
      "chói": 5068,
      "gula": 5069,
      "vươn": 5070,
      "frederi": 5071,
      "leonard": 5072,
      "virgil": 5073,
      "fitz": 5074,
      "heathcliff": 5075,
      "31": 5076,
      "fton": 5077,
      "gler": 5078,
      "oán": 5079,
      "rùa": 5080,
      "sấu": 5081,
      "tấp": 5082,
      "zel": 5083,
      "áå": 5084,
      "đéo": 5085,
      "chê": 5086,
      "thấm": 5087,
      "què": 5088,
      "bam": 5089,
      "thuỷ": 5090,
      "mul": 5091,
      "orleans": 5092,
      "rei": 5093,
      "marlowe": 5094,
      "pic": 5095,
      "marius": 5096,
      "cairo": 5097,
      "murphy": 5098,
      "ashley": 5099,
      "adams": 5100,
      "michelangelo": 5101,
      "think": 5102,
      "ces": 5103,
      "hú": 5104,
      "né": 5105,
      "ñî": 5106,
      "chuối": 5107,
      "chẵn": 5108,
      "khánh": 5109,
      "girl": 5110,
      "quẹo": 5111,
      "inch": 5112,
      "hoá": 5113,
      "kiềm": 5114,
      "hiểu": 5115,
      "make": 5116,
      "alpha": 5117,
      "bỏ": 5118,
      "huýt": 5119,
      "tím": 5120,
      "cie": 5121,
      "times": 5122,
      "trịnh": 5123,
      "kent": 5124,
      "vargas": 5125,
      "allah": 5126,
      "800": 5127,
      "eng": 5128,
      "nại": 5129,
      "náo": 5130,
      "uý": 5131,
      "vá": 5132,
      "xẩy": 5133,
      "nhậu": 5134,
      "chậu": 5135,
      "giã": 5136,
      "saw": 5137,
      "ngham": 5138,
      "nghênh": 5139,
      "bảo": 5140,
      "augus": 5141,
      "luther": 5142,
      "thoái": 5143,
      "vũng": 5144,
      "zaki": 5145,
      "garth": 5146,
      "penny": 5147,
      "dolph": 5148,
      "mozart": 5149,
      "79": 5150,
      "bbs": 5151,
      "hòm": 5152,
      "pound": 5153,
      "vard": 5154,
      "́å": 5155,
      "chước": 5156,
      "thình": 5157,
      "giàn": 5158,
      "home": 5159,
      "high": 5160,
      "nier": 5161,
      "hart": 5162,
      "ngày": 5163,
      "franklin": 5164,
      "ggins": 5165,
      "af": 5166,
      "away": 5167,
      "bọt": 5168,
      "kìm": 5169,
      "kru": 5170,
      "mền": 5171,
      "stin": 5172,
      "yah": 5173,
      "íû": 5174,
      "nhúng": 5175,
      "chùi": 5176,
      "cóng": 5177,
      "phượng": 5178,
      "quỉ": 5179,
      "rac": 5180,
      "roose": 5181,
      "child": 5182,
      "potter": 5183,
      "hudson": 5184,
      "stle": 5185,
      "xie": 5186,
      "tối": 5187,
      "valer": 5188,
      "elisa": 5189,
      "velt": 5190,
      "roosevelt": 5191,
      "dí": 5192,
      "dami": 5193,
      "fen": 5194,
      "ló": 5195,
      "mấy": 5196,
      "ott": 5197,
      "pam": 5198,
      "đái": 5199,
      "те": 5200,
      "ẩng": 5201,
      "quế": 5202,
      "quạt": 5203,
      "bau": 5204,
      "miri": 5205,
      "khoá": 5206,
      "thoi": 5207,
      "sidney": 5208,
      "ryu": 5209,
      "pas": 5210,
      "wales": 5211,
      "benjam": 5212,
      "brandy": 5213,
      "flori": 5214,
      "elliott": 5215,
      "mpson": 5216,
      "jacques": 5217,
      "court": 5218,
      "axel": 5219,
      "hard": 5220,
      "ici": 5221,
      "lảng": 5222,
      "llie": 5223,
      "nỉ": 5224,
      "nòng": 5225,
      "pur": 5226,
      "xở": 5227,
      "trâu": 5228,
      "trút": 5229,
      "giỏ": 5230,
      "satan": 5231,
      "tiế": 5232,
      "ent": 5233,
      "lius": 5234,
      "eland": 5235,
      "dog": 5236,
      "rosie": 5237,
      "pom": 5238,
      "đồ": 5239,
      "joy": 5240,
      "pie": 5241,
      "jason": 5242,
      "leroy": 5243,
      "laurie": 5244,
      "christina": 5245,
      "benjamin": 5246,
      "99": 5247,
      "hall": 5248,
      "lạm": 5249,
      "rì": 5250,
      "rẩy": 5251,
      "áó": 5252,
      "nhãn": 5253,
      "nhằn": 5254,
      "phanh": 5255,
      "toái": 5256,
      "007": 5257,
      "dale": 5258,
      "sis": 5259,
      "johnnie": 5260,
      "dane": 5261,
      "lone": 5262,
      "larry": 5263,
      "êàê": 5264,
      "mosk": 5265,
      "guido": 5266,
      "arms": 5267,
      "rocco": 5268,
      "apollo": 5269,
      "dc": 5270,
      "eta": 5271,
      "ples": 5272,
      "rè": 5273,
      "øå": 5274,
      "nhĩ": 5275,
      "trơ": 5276,
      "trước": 5277,
      "quất": 5278,
      "sasha": 5279,
      "nhàm": 5280,
      "miami": 5281,
      "nori": 5282,
      "shino": 5283,
      "myra": 5284,
      "calla": 5285,
      "world": 5286,
      "robinson": 5287,
      "bird": 5288,
      "2000": 5289,
      "65": 5290,
      "bbi": 5291,
      "bbie": 5292,
      "kor": 5293,
      "mễ": 5294,
      "vla": 5295,
      "chin": 5296,
      "sake": 5297,
      "nhược": 5298,
      "toby": 5299,
      "colum": 5300,
      "dom": 5301,
      "ese": 5302,
      "lẽo": 5303,
      "pooh": 5304,
      "sol": 5305,
      "solo": 5306,
      "pah": 5307,
      "dur": 5308,
      "duke": 5309,
      "đại": 5310,
      "oney": 5311,
      "plea": 5312,
      "damien": 5313,
      "bướng": 5314,
      "bạt": 5315,
      "cẩm": 5316,
      "ctor": 5317,
      "esa": 5318,
      "gáy": 5319,
      "lường": 5320,
      "rìa": 5321,
      "vod": 5322,
      "́åí": 5323,
      "ngấy": 5324,
      "ngẩng": 5325,
      "rao": 5326,
      "miêu": 5327,
      "miranda": 5328,
      "hả": 5329,
      "sissy": 5330,
      "soda": 5331,
      "kathy": 5332,
      "huỷ": 5333,
      "trich": 5334,
      "yatt": 5335,
      "tennis": 5336,
      "ṇ̃à": 5337,
      "missou": 5338,
      "rãnh": 5339,
      "ushima": 5340,
      "còng": 5341,
      "kền": 5342,
      "keo": 5343,
      "panh": 5344,
      "rước": 5345,
      "tel": 5346,
      "wyatt": 5347,
      "ро": 5348,
      "chọi": 5349,
      "khép": 5350,
      "phan": 5351,
      "chot": 5352,
      "dison": 5353,
      "miya": 5354,
      "niko": 5355,
      "nata": 5356,
      "naomi": 5357,
      "pablo": 5358,
      "benedi": 5359,
      "herr": 5360,
      "cụt": 5361,
      "maxim": 5362,
      "floyd": 5363,
      "mrs": 5364,
      "quill": 5365,
      "moskva": 5366,
      "43": 5367,
      "bạ": 5368,
      "bới": 5369,
      "hem": 5370,
      "tề": 5371,
      "zlo": 5372,
      "çíà": 5373,
      "thóc": 5374,
      "khứa": 5375,
      "anhoe": 5376,
      "nài": 5377,
      "homer": 5378,
      "kiyo": 5379,
      "mẹo": 5380,
      "ello": 5381,
      "mez": 5382,
      "noel": 5383,
      "poli": 5384,
      "sham": 5385,
      "tự": 5386,
      "lance": 5387,
      "judy": 5388,
      "scotch": 5389,
      "woo": 5390,
      "troie": 5391,
      "broad": 5392,
      "winter": 5393,
      "olga": 5394,
      "ngụm": 5395,
      "césar": 5396,
      "missouri": 5397,
      "câ": 5398,
      "dger": 5399,
      "dằn": 5400,
      "fly": 5401,
      "hốt": 5402,
      "lòi": 5403,
      "mạ": 5404,
      "ole": 5405,
      "sồi": 5406,
      "spi": 5407,
      "two": 5408,
      "øü": 5409,
      "nhựa": 5410,
      "thây": 5411,
      "trắc": 5412,
      "doll": 5413,
      "bud": 5414,
      "buro": 5415,
      "tuỳ": 5416,
      "hachi": 5417,
      "teresa": 5418,
      "nah": 5419,
      "witt": 5420,
      "khía": 5421,
      "carlos": 5422,
      "lene": 5423,
      "ddle": 5424,
      "yankee": 5425,
      "khác": 5426,
      "asco": 5427,
      "cleo": 5428,
      "dẫm": 5429,
      "ogami": 5430,
      "pra": 5431,
      "rèm": 5432,
      "sọ": 5433,
      "xỉu": 5434,
      "cháo": 5435,
      "khanh": 5436,
      "phon": 5437,
      "tiger": 5438,
      "nhìn": 5439,
      "liu": 5440,
      "toshi": 5441,
      "ưởng": 5442,
      "lucia": 5443,
      "ming": 5444,
      "nile": 5445,
      "bot": 5446,
      "joel": 5447,
      "carson": 5448,
      "franç": 5449,
      "guchi": 5450,
      "jonas": 5451,
      "cruchot": 5452,
      "chỗ": 5453,
      "jacob": 5454,
      "dắc": 5455,
      "fbi": 5456,
      "lây": 5457,
      "rữa": 5458,
      "đũa": 5459,
      "ва": 5460,
      "та": 5461,
      "nhăn": 5462,
      "khống": 5463,
      "giễu": 5464,
      "cabin": 5465,
      "chiêm": 5466,
      "hawai": 5467,
      "gái": 5468,
      "wig": 5469,
      "chót": 5470,
      "hari": 5471,
      "eller": 5472,
      "juan": 5473,
      "kura": 5474,
      "yaku": 5475,
      "wow": 5476,
      "kyle": 5477,
      "atti": 5478,
      "karin": 5479,
      "still": 5480,
      "friend": 5481,
      "rogers": 5482,
      "bruno": 5483,
      "julius": 5484,
      "sergei": 5485,
      "florida": 5486,
      "callahan": 5487,
      "vodka": 5488,
      "benedict": 5489,
      "abra": 5490,
      "cm": 5491,
      "cúc": 5492,
      "dé": 5493,
      "dốt": 5494,
      "kris": 5495,
      "kring": 5496,
      "lút": 5497,
      "mứt": 5498,
      "tất": 5499,
      "êè": 5500,
      "ëó": 5501,
      "anie": 5502,
      "elsa": 5503,
      "mara": 5504,
      "dutch": 5505,
      "link": 5506,
      "195": 5507,
      "dietrich": 5508,
      "bradley": 5509,
      "simone": 5510,
      "sparta": 5511,
      "hawaii": 5512,
      "bầm": 5513,
      "crai": 5514,
      "lóc": 5515,
      "prin": 5516,
      "ska": 5517,
      "văng": 5518,
      "connor": 5519,
      "tìm": 5520,
      "loanh": 5521,
      "tou": 5522,
      "cara": 5523,
      "tuông": 5524,
      "mid": 5525,
      "khỏi": 5526,
      "rebe": 5527,
      "dexter": 5528,
      "rupert": 5529,
      "jun": 5530,
      "hero": 5531,
      "jeanne": 5532,
      "claude": 5533,
      "could": 5534,
      "hollywood": 5535,
      "happy": 5536,
      "ala": 5537,
      "athan": 5538,
      "edie": 5539,
      "hí": 5540,
      "ian": 5541,
      "rt": 5542,
      "snow": 5543,
      "táng": 5544,
      "vùi": 5545,
      "nge": 5546,
      "thêu": 5547,
      "thạo": 5548,
      "trở": 5549,
      "tag": 5550,
      "tapo": 5551,
      "ence": 5552,
      "lope": 5553,
      "lion": 5554,
      "rian": 5555,
      "bury": 5556,
      "mire": 5557,
      "ally": 5558,
      "suzie": 5559,
      "been": 5560,
      "beck": 5561,
      "kata": 5562,
      "linus": 5563,
      "đếch": 5564,
      "bridge": 5565,
      "jonathan": 5566,
      "kyoto": 5567,
      "were": 5568,
      "ttie": 5569,
      "dream": 5570,
      "ivanhoe": 5571,
      "bần": 5572,
      "gay": 5573,
      "tạc": 5574,
      "vét": 5575,
      "xắc": 5576,
      "æè": 5577,
      "đạm": 5578,
      "ngả": 5579,
      "ngán": 5580,
      "ngứa": 5581,
      "thính": 5582,
      "trụi": 5583,
      "ont": 5584,
      "anjin": 5585,
      "angela": 5586,
      "ero": 5587,
      "ường": 5588,
      "cody": 5589,
      "rosen": 5590,
      "miên": 5591,
      "milan": 5592,
      "maine": 5593,
      "uston": 5594,
      "ishi": 5595,
      "harris": 5596,
      "dona": 5597,
      "edgar": 5598,
      "tail": 5599,
      "yev": 5600,
      "lette": 5601,
      "freddie": 5602,
      "keep": 5603,
      "place": 5604,
      "dallas": 5605,
      "olym": 5606,
      "rìu": 5607,
      "98": 5608,
      "asa": 5609,
      "flan": 5610,
      "hết": 5611,
      "oak": 5612,
      "ses": 5613,
      "uly": 5614,
      "zh": 5615,
      "thản": 5616,
      "augh": 5617,
      "leine": 5618,
      "dos": 5619,
      "dian": 5620,
      "thou": 5621,
      "sưng": 5622,
      "petro": 5623,
      "aster": 5624,
      "jess": 5625,
      "valen": 5626,
      "jenni": 5627,
      "xẻng": 5628,
      "5000": 5629,
      "gla": 5630,
      "lộc": 5631,
      "ota": 5632,
      "ora": 5633,
      "r2": 5634,
      "sla": 5635,
      "го": 5636,
      "но": 5637,
      "nhất": 5638,
      "phồng": 5639,
      "iner": 5640,
      "luis": 5641,
      "rice": 5642,
      "ngoạn": 5643,
      "must": 5644,
      "marnie": 5645,
      "sici": 5646,
      "mee": 5647,
      "gott": 5648,
      "shun": 5649,
      "pedro": 5650,
      "bender": 5651,
      "wall": 5652,
      "wendy": 5653,
      "isabelle": 5654,
      "gestapo": 5655,
      "osaka": 5656,
      "madeleine": 5657,
      "bền": 5658,
      "bard": 5659,
      "gật": 5660,
      "ill": 5661,
      "omar": 5662,
      "psy": 5663,
      "sê": 5664,
      "tạt": 5665,
      "whe": 5666,
      "xx": 5667,
      "xỏ": 5668,
      "nhiếp": 5669,
      "nhận": 5670,
      "khốc": 5671,
      "only": 5672,
      "anthon": 5673,
      "horace": 5674,
      "luz": 5675,
      "cog": 5676,
      "doo": 5677,
      "ngoa": 5678,
      "mati": 5679,
      "chum": 5680,
      "thoa": 5681,
      "sugata": 5682,
      "xao": 5683,
      "xuồng": 5684,
      "peggy": 5685,
      "từng": 5686,
      "nami": 5687,
      "mono": 5688,
      "cing": 5689,
      "julia": 5690,
      "ffrey": 5691,
      "itto": 5692,
      "vol": 5693,
      "jeep": 5694,
      "cross": 5695,
      "winston": 5696,
      "cent": 5697,
      "fried": 5698,
      "wain": 5699,
      "williams": 5700,
      "colorado": 5701,
      "miriam": 5702,
      "please": 5703,
      "jennifer": 5704,
      "anthony": 5705,
      "72": 5706,
      "cri": 5707,
      "cợt": 5708,
      "dz": 5709,
      "dệt": 5710,
      "ee": 5711,
      "oshi": 5712,
      "rụng": 5713,
      "scho": 5714,
      "vãi": 5715,
      "wski": 5716,
      "ía": 5717,
      "ỏm": 5718,
      "quẳng": 5719,
      "nhỉ": 5720,
      "bapti": 5721,
      "rid": 5722,
      "cách": 5723,
      "khoát": 5724,
      "lãm": 5725,
      "point": 5726,
      "kath": 5727,
      "moto": 5728,
      "seri": 5729,
      "nhuộm": 5730,
      "wart": 5731,
      "virginia": 5732,
      "karate": 5733,
      "nicholas": 5734,
      "abe": 5735,
      "gàng": 5736,
      "iwa": 5737,
      "oan": 5738,
      "tỵ": 5739,
      "vượng": 5740,
      "chẽ": 5741,
      "khar": 5742,
      "lom": 5743,
      "lois": 5744,
      "laho": 5745,
      "sean": 5746,
      "ngủi": 5747,
      "gọi": 5748,
      "gaston": 5749,
      "xiềng": 5750,
      "kimchi": 5751,
      "bonnie": 5752,
      "gregg": 5753,
      "brett": 5754,
      "swede": 5755,
      "giúp": 5756,
      "dowd": 5757,
      "françois": 5758,
      "craig": 5759,
      "rebecca": 5760,
      "bắt": 5761,
      "cồn": 5762,
      "diệm": 5763,
      "hên": 5764,
      "hổng": 5765,
      "pel": 5766,
      "sley": 5767,
      "де": 5768,
      "emois": 5769,
      "sare": 5770,
      "saxon": 5771,
      "constan": 5772,
      "around": 5773,
      "loomi": 5774,
      "cole": 5775,
      "coun": 5776,
      "mathi": 5777,
      "thành": 5778,
      "gali": 5779,
      "hear": 5780,
      "watana": 5781,
      "cary": 5782,
      "lint": 5783,
      "llinger": 5784,
      "mademois": 5785,
      "caligula": 5786,
      "mouth": 5787,
      "bourbon": 5788,
      "rough": 5789,
      "yakuza": 5790,
      "loomis": 5791,
      "agai": 5792,
      "eger": 5793,
      "evan": 5794,
      "hươ": 5795,
      "huyệt": 5796,
      "lìa": 5797,
      "lần": 5798,
      "stro": 5799,
      "vòm": 5800,
      "đốm": 5801,
      "во": 5802,
      "nhử": 5803,
      "chuốc": 5804,
      "thuyên": 5805,
      "quáng": 5806,
      "emmanu": 5807,
      "ono": 5808,
      "toria": 5809,
      "aud": 5810,
      "reed": 5811,
      "chun": 5812,
      "gol": 5813,
      "johan": 5814,
      "thers": 5815,
      "aspi": 5816,
      "laszlo": 5817,
      "jersey": 5818,
      "blake": 5819,
      "sống": 5820,
      "oregon": 5821,
      "duncan": 5822,
      "44": 5823,
      "68": 5824,
      "bìa": 5825,
      "band": 5826,
      "dley": 5827,
      "hừ": 5828,
      "háo": 5829,
      "jar": 5830,
      "lời": 5831,
      "obe": 5832,
      "vấp": 5833,
      "îí": 5834,
      "nhộn": 5835,
      "tara": 5836,
      "tivi": 5837,
      "hook": 5838,
      "hood": 5839,
      "liza": 5840,
      "rommel": 5841,
      "video": 5842,
      "mae": 5843,
      "biệt": 5844,
      "alan": 5845,
      "met": 5846,
      "kol": 5847,
      "ceci": 5848,
      "wing": 5849,
      "hugo": 5850,
      "đệm": 5851,
      "vole": 5852,
      "bênh": 5853,
      "something": 5854,
      "chance": 5855,
      "julian": 5856,
      "bernadette": 5857,
      "street": 5858,
      "mountain": 5859,
      "should": 5860,
      "watanabe": 5861,
      "blai": 5862,
      "ls": 5863,
      "lles": 5864,
      "mem": 5865,
      "rổ": 5866,
      "rell": 5867,
      "slo": 5868,
      "yi": 5869,
      "yay": 5870,
      "̣ch": 5871,
      "ngửa": 5872,
      "nguyệt": 5873,
      "nhan": 5874,
      "nhọn": 5875,
      "nhút": 5876,
      "phì": 5877,
      "arnold": 5878,
      "tomas": 5879,
      "rill": 5880,
      "casa": 5881,
      "vita": 5882,
      "thuở": 5883,
      "ghép": 5884,
      "lyde": 5885,
      "mars": 5886,
      "margo": 5887,
      "xuống": 5888,
      "beale": 5889,
      "pea": 5890,
      "dude": 5891,
      "ahh": 5892,
      "odles": 5893,
      "woman": 5894,
      "troy": 5895,
      "burke": 5896,
      "shop": 5897,
      "panisse": 5898,
      "selena": 5899,
      "turner": 5900,
      "monica": 5901,
      "pizza": 5902,
      "schul": 5903,
      "joyce": 5904,
      "ulysse": 5905,
      "aspirin": 5906,
      "clou": 5907,
      "hù": 5908,
      "hời": 5909,
      "ila": 5910,
      "kị": 5911,
      "răn": 5912,
      "xcơ": 5913,
      "ëÿ": 5914,
      "øè": 5915,
      "ра": 5916,
      "че": 5917,
      "trát": 5918,
      "phết": 5919,
      "giẫm": 5920,
      "anda": 5921,
      "lace": 5922,
      "quyên": 5923,
      "suz": 5924,
      "noodles": 5925,
      "sofia": 5926,
      "bé": 5927,
      "ruby": 5928,
      "wild": 5929,
      "jas": 5930,
      "tanner": 5931,
      "wol": 5932,
      "mery": 5933,
      "send": 5934,
      "fern": 5935,
      "chược": 5936,
      "lord": 5937,
      "emily": 5938,
      "cooper": 5939,
      "mademoiselle": 5940,
      "gle": 5941,
      "mé": 5942,
      "nể": 5943,
      "sục": 5944,
      "spen": 5945,
      "tơi": 5946,
      "vor": 5947,
      "ла": 5948,
      "nhung": 5949,
      "thel": 5950,
      "thiếc": 5951,
      "phùng": 5952,
      "kiêng": 5953,
      "tol": 5954,
      "bul": 5955,
      "rous": 5956,
      "thuẫn": 5957,
      "bốt": 5958,
      "mun": 5959,
      "chúa": 5960,
      "nice": 5961,
      "thoả": 5962,
      "marse": 5963,
      "nao": 5964,
      "kos": 5965,
      "nora": 5966,
      "nova": 5967,
      "gomery": 5968,
      "petr": 5969,
      "gate": 5970,
      "hugh": 5971,
      "pales": 5972,
      "pasha": 5973,
      "heh": 5974,
      "ffer": 5975,
      "queen": 5976,
      "wait": 5977,
      "eric": 5978,
      "montgomery": 5979,
      "edwardes": 5980,
      "frenchy": 5981,
      "atlantic": 5982,
      "vladi": 5983,
      "41": 5984,
      "abi": 5985,
      "cuốc": 5986,
      "dô": 5987,
      "hn": 5988,
      "kry": 5989,
      "lè": 5990,
      "wester": 5991,
      "xơi": 5992,
      "êó": 5993,
      "ổn": 5994,
      "ỉa": 5995,
      "eman": 5996,
      "mài": 5997,
      "kit": 5998,
      "lazar": 5999,
      "tuột": 6000,
      "thunder": 6001,
      "dixie": 6002,
      "khoáng": 6003,
      "nas": 6004,
      "book": 6005,
      "mayo": 6006,
      "rance": 6007,
      "para": 6008,
      "josé": 6009,
      "pig": 6010,
      "yag": 6011,
      "louisa": 6012,
      "éné": 6013,
      "brow": 6014,
      "tze": 6015,
      "jeru": 6016,
      "ferra": 6017,
      "đẹp": 6018,
      "port": 6019,
      "gardiner": 6020,
      "anita": 6021,
      "cinder": 6022,
      "bố": 6023,
      "cuộc": 6024,
      "shenka": 6025,
      "dietrichson": 6026,
      "46": 6027,
      "700": 6028,
      "ado": 6029,
      "bời": 6030,
      "cươ": 6031,
      "eye": 6032,
      "nốc": 6033,
      "ăà": 6034,
      "ть": 6035,
      "phác": 6036,
      "sato": 6037,
      "angeli": 6038,
      "till": 6039,
      "loren": 6040,
      "cuchi": 6041,
      "rison": 6042,
      "rosem": 6043,
      "sev": 6044,
      "naz": 6045,
      "dea": 6046,
      "bed": 6047,
      "goe": 6048,
      "khuẩn": 6049,
      "veta": 6050,
      "veroni": 6051,
      "ffy": 6052,
      "190": 6053,
      "venice": 6054,
      "great": 6055,
      "grace": 6056,
      "phòng": 6057,
      "harrison": 6058,
      "palestine": 6059,
      "yagyu": 6060,
      "cuchillo": 6061,
      "dè": 6062,
      "fis": 6063,
      "kiệu": 6064,
      "kal": 6065,
      "lình": 6066,
      "lằn": 6067,
      "nệ": 6068,
      "să": 6069,
      "sủng": 6070,
      "sáp": 6071,
      "tấu": 6072,
      "ệ": 6073,
      "õa": 6074,
      "̣y": 6075,
      "tráo": 6076,
      "phẫn": 6077,
      "giầy": 6078,
      "vành": 6079,
      "nóc": 6080,
      "connie": 6081,
      "rachel": 6082,
      "đểu": 6083,
      "hoà": 6084,
      "bag": 6085,
      "livius": 6086,
      "amoto": 6087,
      "cat": 6088,
      "malone": 6089,
      "tucker": 6090,
      "tựu": 6091,
      "alphon": 6092,
      "oud": 6093,
      "lãi": 6094,
      "khuấy": 6095,
      "pilar": 6096,
      "chet": 6097,
      "phao": 6098,
      "bart": 6099,
      "shakes": 6100,
      "brina": 6101,
      "graham": 6102,
      "íạ̊": 6103,
      "thurs": 6104,
      "fox": 6105,
      "nando": 6106,
      "gonna": 6107,
      "pierce": 6108,
      "self": 6109,
      "helena": 6110,
      "keyes": 6111,
      "harrington": 6112,
      "stroud": 6113,
      "pearl": 6114,
      "frederick": 6115,
      "hươu": 6116,
      "jerusalem": 6117,
      "alphonse": 6118,
      "85": 6119,
      "gặm": 6120,
      "hạc": 6121,
      "máng": 6122,
      "mốc": 6123,
      "mama": 6124,
      "rùng": 6125,
      "sảng": 6126,
      "uất": 6127,
      "vung": 6128,
      "xạo": 6129,
      "xton": 6130,
      "åăî": 6131,
      "ñà": 6132,
      "ngõ": 6133,
      "ngỡ": 6134,
      "ngợm": 6135,
      "chạp": 6136,
      "chùm": 6137,
      "trư": 6138,
      "tràng": 6139,
      "giống": 6140,
      "houston": 6141,
      "tomo": 6142,
      "els": 6143,
      "mik": 6144,
      "sed": 6145,
      "marshall": 6146,
      "sid": 6147,
      "boat": 6148,
      "sov": 6149,
      "tưới": 6150,
      "willy": 6151,
      "witz": 6152,
      "lane": 6153,
      "shire": 6154,
      "juni": 6155,
      "derson": 6156,
      "morrison": 6157,
      "stark": 6158,
      "rusty": 6159,
      "find": 6160,
      "captain": 6161,
      "camera": 6162,
      "vasily": 6163,
      "valerie": 6164,
      "́åíÿ": 6165,
      "western": 6166,
      "ade": 6167,
      "bộc": 6168,
      "cki": 6169,
      "ckie": 6170,
      "ction": 6171,
      "four": 6172,
      "gả": 6173,
      "hễ": 6174,
      "mẫn": 6175,
      "nino": 6176,
      "pton": 6177,
      "rhe": 6178,
      "rợn": 6179,
      "sút": 6180,
      "vò": 6181,
      "ĩu": 6182,
      "̣a": 6183,
      "за": 6184,
      "ches": 6185,
      "sack": 6186,
      "ngượng": 6187,
      "bates": 6188,
      "liz": 6189,
      "top": 6190,
      "muỗi": 6191,
      "seau": 6192,
      "need": 6193,
      "hua": 6194,
      "moore": 6195,
      "waa": 6196,
      "stalin": 6197,
      "norma": 6198,
      "massa": 6199,
      "thorne": 6200,
      "yancey": 6201,
      "elean": 6202,
      "loween": 6203,
      "aka": 6204,
      "bỉnh": 6205,
      "gang": 6206,
      "gân": 6207,
      "ite": 6208,
      "măng": 6209,
      "ncey": 6210,
      "peo": 6211,
      "rét": 6212,
      "ráp": 6213,
      "tòng": 6214,
      "uổng": 6215,
      "xước": 6216,
      "ку": 6217,
      "мо": 6218,
      "nhả": 6219,
      "thốt": 6220,
      "quát": 6221,
      "ramon": 6222,
      "bịnh": 6223,
      "kimono": 6224,
      "lotte": 6225,
      "higgins": 6226,
      "does": 6227,
      "quyệt": 6228,
      "allan": 6229,
      "isra": 6230,
      "going": 6231,
      "peare": 6232,
      "pilate": 6233,
      "montana": 6234,
      "wea": 6235,
      "num": 6236,
      "nut": 6237,
      "xoáy": 6238,
      "cúm": 6239,
      "help": 6240,
      "halloween": 6241,
      "ddard": 6242,
      "ggs": 6243,
      "âàñ": 6244,
      "iii": 6245,
      "kaya": 6246,
      "nhớ": 6247,
      "salomon": 6248,
      "chauncey": 6249,
      "kathleen": 6250,
      "shakespeare": 6251,
      "71": 6252,
      "aa": 6253,
      "ap": 6254,
      "càn": 6255,
      "cõng": 6256,
      "fine": 6257,
      "fford": 6258,
      "mâu": 6259,
      "nếp": 6260,
      "ovich": 6261,
      "oom": 6262,
      "sp": 6263,
      "sz": 6264,
      "uk": 6265,
      "zona": 6266,
      "đc": 6267,
      "đục": 6268,
      "да": 6269,
      "thọc": 6270,
      "tròng": 6271,
      "triệt": 6272,
      "phách": 6273,
      "tigger": 6274,
      "học": 6275,
      "hilda": 6276,
      "cola": 6277,
      "doris": 6278,
      "tuấn": 6279,
      "disco": 6280,
      "alban": 6281,
      "ghton": 6282,
      "thompson": 6283,
      "marc": 6284,
      "dưng": 6285,
      "hazel": 6286,
      "meggie": 6287,
      "wag": 6288,
      "xoắn": 6289,
      "burger": 6290,
      "maxwell": 6291,
      "fantomas": 6292,
      "biegler": 6293,
      "tỉa": 6294,
      "brun": 6295,
      "cỏi": 6296,
      "dẻ": 6297,
      "dẻo": 6298,
      "fau": 6299,
      "gly": 6300,
      "hơ": 6301,
      "lác": 6302,
      "play": 6303,
      "sỏi": 6304,
      "zia": 6305,
      "đèo": 6306,
      "ờm": 6307,
      "ngs": 6308,
      "ngáy": 6309,
      "ngòi": 6310,
      "chừa": 6311,
      "tad": 6312,
      "cáng": 6313,
      "sabrina": 6314,
      "tius": 6315,
      "arlena": 6316,
      "tod": 6317,
      "toto": 6318,
      "quách": 6319,
      "luồng": 6320,
      "coca": 6321,
      "amanda": 6322,
      "mici": 6323,
      "chút": 6324,
      "summer": 6325,
      "uss": 6326,
      "better": 6327,
      "rượt": 6328,
      "lincol": 6329,
      "dancing": 6330,
      "ấu": 6331,
      "etti": 6332,
      "brazil": 6333,
      "genes": 6334,
      "davis": 6335,
      "victoria": 6336,
      "hallie": 6337,
      "dorf": 6338,
      "wers": 6339,
      "arizona": 6340,
      "mickey": 6341,
      "nelson": 6342,
      "brooklyn": 6343,
      "devlin": 6344,
      "agnes": 6345,
      "prince": 6346,
      "asterix": 6347,
      "again": 6348,
      "vladimir": 6349,
      "rosemary": 6350,
      "lincoln": 6351,
      "bừng": 6352,
      "củng": 6353,
      "túp": 6354,
      "ui": 6355,
      "nhàn": 6356,
      "chè": 6357,
      "khuyết": 6358,
      "định": 6359,
      "nghẹt": 6360,
      "eno": 6361,
      "enzie": 6362,
      "hil": 6363,
      "liber": 6364,
      "lud": 6365,
      "coman": 6366,
      "macar": 6367,
      "dius": 6368,
      "billie": 6369,
      "quý": 6370,
      "marina": 6371,
      "soo": 6372,
      "tone": 6373,
      "said": 6374,
      "gee": 6375,
      "heart": 6376,
      "mons": 6377,
      "baron": 6378,
      "ấn": 6379,
      "jimmie": 6380,
      "alec": 6381,
      "freddy": 6382,
      "stoddard": 6383,
      "foot": 6384,
      "schmi": 6385,
      "marcello": 6386,
      "marcellus": 6387,
      "ninja": 6388,
      "mặt": 6389,
      "ratche": 6390,
      "elisabeth": 6391,
      "armstrong": 6392,
      "evans": 6393,
      "emmanuelle": 6394,
      "people": 6395,
      "52": 6396,
      "dãi": 6397,
      "ev": 6398,
      "evich": 6399,
      "gẫy": 6400,
      "héo": 6401,
      "jang": 6402,
      "mất": 6403,
      "nị": 6404,
      "tột": 6405,
      "vớt": 6406,
      "xấc": 6407,
      "ǻ": 6408,
      "ngặt": 6409,
      "ngừa": 6410,
      "ngẫm": 6411,
      "nhót": 6412,
      "chần": 6413,
      "chợp": 6414,
      "thò": 6415,
      "thỏi": 6416,
      "tran": 6417,
      "gigi": 6418,
      "giời": 6419,
      "giềng": 6420,
      "saki": 6421,
      "ayama": 6422,
      "kita": 6423,
      "essa": 6424,
      "philly": 6425,
      "susy": 6426,
      "neil": 6427,
      "bos": 6428,
      "bowie": 6429,
      "kaplan": 6430,
      "celie": 6431,
      "vegas": 6432,
      "tribble": 6433,
      "barrett": 6434,
      "wilkes": 6435,
      "madge": 6436,
      "tree": 6437,
      "ness": 6438,
      "xía": 6439,
      "åíü": 6440,
      "beaumont": 6441,
      "cọp": 6442,
      "hiroshi": 6443,
      "hurst": 6444,
      "earp": 6445,
      "eleanor": 6446,
      "57": 6447,
      ":]": 6448,
      "bợm": 6449,
      "gặt": 6450,
      "glen": 6451,
      "lừng": 6452,
      "mina": 6453,
      "váng": 6454,
      "xị": 6455,
      "xiết": 6456,
      "ṇ̃î": 6457,
      "tani": 6458,
      "tatsu": 6459,
      "lody": 6460,
      "ridge": 6461,
      "butch": 6462,
      "cafe": 6463,
      "rour": 6464,
      "mui": 6465,
      "organ": 6466,
      "margot": 6467,
      "sur": 6468,
      "suôn": 6469,
      "sulli": 6470,
      "nati": 6471,
      "mei": 6472,
      "mede": 6473,
      "kesa": 6474,
      "detro": 6475,
      "debbie": 6476,
      "sodom": 6477,
      "ttes": 6478,
      "rudy": 6479,
      "joshua": 6480,
      "timore": 6481,
      "hercu": 6482,
      "marianne": 6483,
      "anderson": 6484,
      "cassi": 6485,
      "ballet": 6486,
      "fujiko": 6487,
      "mckenna": 6488,
      "normandy": 6489,
      "nịnh": 6490,
      "rourke": 6491,
      "sullivan": 6492,
      "detroit": 6493,
      "aw": 6494,
      "achi": 6495,
      "gand": 6496,
      "hũ": 6497,
      "ober": 6498,
      "pâ": 6499,
      "pkin": 6500,
      "rán": 6501,
      "vre": 6502,
      "yếm": 6503,
      "до": 6504,
      "ли": 6505,
      "chảo": 6506,
      "chard": 6507,
      "phà": 6508,
      "rapha": 6509,
      "ark": 6510,
      "hop": 6511,
      "tori": 6512,
      "dox": 6513,
      "chịch": 6514,
      "tura": 6515,
      "miko": 6516,
      "bộn": 6517,
      "deon": 6518,
      "nomad": 6519,
      "polis": 6520,
      "shkin": 6521,
      "nya": 6522,
      "tyler": 6523,
      "fore": 6524,
      "phụ": 6525,
      "asta": 6526,
      "raine": 6527,
      "maddox": 6528,
      "mikey": 6529,
      "jeri": 6530,
      "und": 6531,
      "under": 6532,
      "frid": 6533,
      "baltimore": 6534,
      "claudia": 6535,
      "bourne": 6536,
      "nệm": 6537,
      "rhett": 6538,
      "53": 6539,
      "app": 6540,
      "even": 6541,
      "fur": 6542,
      "hau": 6543,
      "kèo": 6544,
      "kmici": 6545,
      "lém": 6546,
      "xáo": 6547,
      "ât": 6548,
      "ни": 6549,
      "ệch": 6550,
      "chướng": 6551,
      "chòi": 6552,
      "tạm": 6553,
      "giương": 6554,
      "toan": 6555,
      "rob": 6556,
      "mit": 6557,
      "mica": 6558,
      "nishi": 6559,
      "tonya": 6560,
      "dù": 6561,
      "heil": 6562,
      "shimo": 6563,
      "scout": 6564,
      "yow": 6565,
      "jill": 6566,
      "landru": 6567,
      "areth": 6568,
      "eyes": 6569,
      "anders": 6570,
      "gail": 6571,
      "lampert": 6572,
      "fredo": 6573,
      "braddock": 6574,
      "ricky": 6575,
      "1944": 6576,
      "sherry": 6577,
      "sherman": 6578,
      "mitchell": 6579,
      "damas": 6580,
      "didn": 6581,
      "narayama": 6582,
      "cocktail": 6583,
      "nazareth": 6584,
      "liberty": 6585,
      "macarthur": 6586,
      "pâris": 6587,
      "raphael": 6588,
      "kmicic": 6589,
      "ach": 6590,
      "ein": 6591,
      "id": 6592,
      "moh": 6593,
      "nene": 6594,
      "ow": 6595,
      "stru": 6596,
      "vảng": 6597,
      "xổ": 6598,
      "âñ": 6599,
      "øà": 6600,
      "đặng": 6601,
      "ме": 6602,
      "что": 6603,
      "three": 6604,
      "trội": 6605,
      "giết": 6606,
      "ardo": 6607,
      "hot": 6608,
      "thìa": 6609,
      "bas": 6610,
      "cott": 6611,
      "elin": 6612,
      "lav": 6613,
      "lara": 6614,
      "rooster": 6615,
      "chính": 6616,
      "sera": 6617,
      "vợt": 6618,
      "bayashi": 6619,
      "gomez": 6620,
      "mother": 6621,
      "harper": 6622,
      "ếm": 6623,
      "cio": 6624,
      "timer": 6625,
      "charlotte": 6626,
      "đệch": 6627,
      "young": 6628,
      "đường": 6629,
      "jett": 6630,
      "brody": 6631,
      "helm": 6632,
      "mini": 6633,
      "isabella": 6634,
      "drake": 6635,
      "helene": 6636,
      "whoo": 6637,
      "gnac": 6638,
      "aba": 6639,
      "bris": 6640,
      "cs": 6641,
      "dóc": 6642,
      "dru": 6643,
      "hức": 6644,
      "kang": 6645,
      "kman": 6646,
      "nau": 6647,
      "ppo": 6648,
      "pano": 6649,
      "scha": 6650,
      "spri": 6651,
      "tợn": 6652,
      "xịt": 6653,
      "yne": 6654,
      "áè": 6655,
      "chận": 6656,
      "chộp": 6657,
      "khải": 6658,
      "giò": 6659,
      "giun": 6660,
      "giữ": 6661,
      "lies": 6662,
      "liano": 6663,
      "copper": 6664,
      "rik": 6665,
      "dolan": 6666,
      "tua": 6667,
      "mili": 6668,
      "nikov": 6669,
      "marta": 6670,
      "sugar": 6671,
      "pol": 6672,
      "ist": 6673,
      "before": 6674,
      "goo": 6675,
      "llen": 6676,
      "gã": 6677,
      "maurice": 6678,
      "shilling": 6679,
      "benson": 6680,
      "ển": 6681,
      "kíp": 6682,
      "fax": 6683,
      "ways": 6684,
      "stand": 6685,
      "reynold": 6686,
      "blanca": 6687,
      "frodo": 6688,
      "juliet": 6689,
      "temple": 6690,
      "musso": 6691,
      "patsy": 6692,
      "bongo": 6693,
      "toilet": 6694,
      "léon": 6695,
      "kirby": 6696,
      "spartacus": 6697,
      "sicily": 6698,
      "israel": 6699,
      "micah": 6700,
      "bú": 6701,
      "băm": 6702,
      "bục": 6703,
      "dong": 6704,
      "evna": 6705,
      "gem": 6706,
      "gno": 6707,
      "iger": 6708,
      "kềm": 6709,
      "lì": 6710,
      "oai": 6711,
      "sna": 6712,
      "tuốt": 6713,
      "vầng": 6714,
      "xúi": 6715,
      "nhẹn": 6716,
      "nhũng": 6717,
      "nhún": 6718,
      "chka": 6719,
      "trầy": 6720,
      "trời": 6721,
      "phỉ": 6722,
      "đóa": 6723,
      "sada": 6724,
      "iny": 6725,
      "vian": 6726,
      "masha": 6727,
      "mis": 6728,
      "much": 6729,
      "muỗng": 6730,
      "regan": 6731,
      "alma": 6732,
      "maru": 6733,
      "thiền": 6734,
      "sĩ": 6735,
      "main": 6736,
      "care": 6737,
      "carp": 6738,
      "myr": 6739,
      "judah": 6740,
      "ngài": 6741,
      "film": 6742,
      "louie": 6743,
      "attan": 6744,
      "ursu": 6745,
      "pauline": 6746,
      "nero": 6747,
      "madam": 6748,
      "flora": 6749,
      "flood": 6750,
      "nessy": 6751,
      "manhattan": 6752,
      "toàn": 6753,
      "isaac": 6754,
      "bruce": 6755,
      "bernstein": 6756,
      "1942": 6757,
      "octa": 6758,
      "shelby": 6759,
      "ngoài": 6760,
      "obelix": 6761,
      "casablanca": 6762,
      "genesis": 6763,
      "gandhi": 6764,
      "blin": 6765,
      "cc": 6766,
      "dìm": 6767,
      "evel": 6768,
      "gou": 6769,
      "hăm": 6770,
      "lửng": 6771,
      "ms": 6772,
      "nước": 6773,
      "ppa": 6774,
      "râm": 6775,
      "uế": 6776,
      "uống": 6777,
      "vọt": 6778,
      "yard": 6779,
      "zam": 6780,
      "ầm": 6781,
      "ạ̊": 6782,
      "ïè": 6783,
      "́íå": 6784,
      "ве": 6785,
      "chờ": 6786,
      "khiếm": 6787,
      "giẻ": 6788,
      "gideon": 6789,
      "quai": 6790,
      "quật": 6791,
      "emon": 6792,
      "ướn": 6793,
      "enstein": 6794,
      "lore": 6795,
      "logic": 6796,
      "toum": 6797,
      "cognac": 6798,
      "cula": 6799,
      "eler": 6800,
      "castle": 6801,
      "rodri": 6802,
      "chise": 6803,
      "missi": 6804,
      "esther": 6805,
      "seki": 6806,
      "nov": 6807,
      "pool": 6808,
      "thực": 6809,
      "golf": 6810,
      "vale": 6811,
      "gabri": 6812,
      "dyke": 6813,
      "bene": 6814,
      "1940": 6815,
      "ghim": 6816,
      "thời": 6817,
      "shah": 6818,
      "gary": 6819,
      "thank": 6820,
      "thorpe": 6821,
      "lorca": 6822,
      "claudius": 6823,
      "finch": 6824,
      "hiroshima": 6825,
      "fletcher": 6826,
      "oxy": 6827,
      "cause": 6828,
      "khartoum": 6829,
      "audrey": 6830,
      "damascus": 6831,
      "reynolds": 6832,
      "carpenter": 6833,
      "63": 6834,
      "bằng": 6835,
      "crock": 6836,
      "fall": 6837,
      "gò": 6838,
      "gö": 6839,
      "gắt": 6840,
      "jou": 6841,
      "lở": 6842,
      "nôi": 6843,
      "zon": 6844,
      "èç": 6845,
      "ée": 6846,
      "đuốc": 6847,
      "̣ó": 6848,
      "ngà": 6849,
      "ngơ": 6850,
      "nhõm": 6851,
      "thằn": 6852,
      "through": 6853,
      "phiện": 6854,
      "phớt": 6855,
      "giăng": 6856,
      "quo": 6857,
      "ravic": 6858,
      "bành": 6859,
      "cotton": 6860,
      "butter": 6861,
      "roat": 6862,
      "vier": 6863,
      "địt": 6864,
      "miz": 6865,
      "musta": 6866,
      "khov": 6867,
      "maish": 6868,
      "gos": 6869,
      "đun": 6870,
      "berry": 6871,
      "berger": 6872,
      "rane": 6873,
      "wade": 6874,
      "barclay": 6875,
      "hana": 6876,
      "shoo": 6877,
      "valance": 6878,
      "messa": 6879,
      "lowry": 6880,
      "east": 6881,
      "akira": 6882,
      "simmons": 6883,
      "mussolini": 6884,
      "azi": 6885,
      "bồng": 6886,
      "bói": 6887,
      "dáy": 6888,
      "dạt": 6889,
      "ethel": 6890,
      "hám": 6891,
      "stay": 6892,
      "scro": 6893,
      "tanh": 6894,
      "tít": 6895,
      "udo": 6896,
      "zin": 6897,
      "ầy": 6898,
      "ựt": 6899,
      "thong": 6900,
      "tau": 6901,
      "quàng": 6902,
      "saburo": 6903,
      "anti": 6904,
      "cum": 6905,
      "buff": 6906,
      "villa": 6907,
      "mao": 6908,
      "chú": 6909,
      "dear": 6910,
      "potts": 6911,
      "ếc": 6912,
      "byam": 6913,
      "fire": 6914,
      "uhm": 6915,
      "brick": 6916,
      "alexand": 6917,
      "åíè": 6918,
      "clarence": 6919,
      "guitar": 6920,
      "talby": 6921,
      "kramer": 6922,
      "túm": 6923,
      "ushka": 6924,
      "peyrac": 6925,
      "mathilde": 6926,
      "lène": 6927,
      "49": 6928,
      "bùm": 6929,
      "dừa": 6930,
      "dòm": 6931,
      "gội": 6932,
      "iàm": 6933,
      "lạng": 6934,
      "lụt": 6935,
      "lún": 6936,
      "sanh": 6937,
      "tì": 6938,
      "áÿ": 6939,
      "åé": 6940,
      "ăëåí": 6941,
      "đời": 6942,
      "chòm": 6943,
      "gid": 6944,
      "gittes": 6945,
      "holli": 6946,
      "bata": 6947,
      "bagh": 6948,
      "kìa": 6949,
      "lithi": 6950,
      "austra": 6951,
      "colin": 6952,
      "turk": 6953,
      "khoán": 6954,
      "daph": 6955,
      "davy": 6956,
      "reggie": 6957,
      "seven": 6958,
      "thoven": 6959,
      "khóe": 6960,
      "thiển": 6961,
      "sure": 6962,
      "nett": 6963,
      "kova": 6964,
      "island": 6965,
      "katie": 6966,
      "petra": 6967,
      "page": 6968,
      "ngủ": 6969,
      "đánh": 6970,
      "jules": 6971,
      "bravo": 6972,
      "merlin": 6973,
      "north": 6974,
      "alicia": 6975,
      "nessee": 6976,
      "word": 6977,
      "tennessee": 6978,
      "ṇ̃ü": 6979,
      "beethoven": 6980,
      "phyllis": 6981,
      "bronson": 6982,
      "townsend": 6983,
      "jasper": 6984,
      "mizushima": 6985,
      "77": 6986,
      "900": 6987,
      "avi": 6988,
      "cris": 6989,
      "găm": 6990,
      "hus": 6991,
      "ito": 6992,
      "ida": 6993,
      "isi": 6994,
      "kén": 6995,
      "láu": 6996,
      "lấn": 6997,
      "lít": 6998,
      "mỳ": 6999,
      "ohi": 7000,
      "oge": 7001,
      "pác": 7002,
      "sưa": 7003,
      "sào": 7004,
      "ud": 7005,
      "vest": 7006,
      "wray": 7007,
      "xpác": 7008,
      "âñå": 7009,
      "chay": 7010,
      "lào": 7011,
      "phine": 7012,
      "gine": 7013,
      "giuse": 7014,
      "arnie": 7015,
      "liver": 7016,
      "rod": 7017,
      "dillinger": 7018,
      "mira": 7019,
      "set": 7020,
      "marge": 7021,
      "delorca": 7022,
      "khui": 7023,
      "parte": 7024,
      "dance": 7025,
      "rene": 7026,
      "dĩa": 7027,
      "vừa": 7028,
      "whit": 7029,
      "emiliano": 7030,
      "sinbad": 7031,
      "1941": 7032,
      "flavius": 7033,
      "armbrus": 7034,
      "jacqueline": 7035,
      "brent": 7036,
      "pollock": 7037,
      "brandt": 7038,
      "gypsy": 7039,
      "chumley": 7040,
      "schultz": 7041,
      "brownie": 7042,
      "baghdad": 7043,
      "australia": 7044,
      "73": 7045,
      "cry": 7046,
      "ez": 7047,
      "glia": 7048,
      "hạch": 7049,
      "mùng": 7050,
      "ráo": 7051,
      "rít": 7052,
      "slim": 7053,
      "wy": 7054,
      "yoh": 7055,
      "zhen": 7056,
      "ẩn": 7057,
      "æà": 7058,
      "♪♫": 7059,
      "♫♪": 7060,
      "ngóng": 7061,
      "trọc": 7062,
      "phung": 7063,
      "phộng": 7064,
      "indy": 7065,
      "bah": 7066,
      "tóc": 7067,
      "river": 7068,
      "latin": 7069,
      "chiếc": 7070,
      "mata": 7071,
      "male": 7072,
      "bishop": 7073,
      "mund": 7074,
      "chuộng": 7075,
      "album": 7076,
      "lygia": 7077,
      "nagan": 7078,
      "hup": 7079,
      "gumo": 7080,
      "herbert": 7081,
      "laugh": 7082,
      "kina": 7083,
      "alek": 7084,
      "mind": 7085,
      "zier": 7086,
      "ngồi": 7087,
      "dracula": 7088,
      "phoen": 7089,
      "malley": 7090,
      "giovan": 7091,
      "millie": 7092,
      "hadley": 7093,
      "bolboa": 7094,
      "magda": 7095,
      "mulwray": 7096,
      "abraham": 7097,
      "lionel": 7098,
      "ferrari": 7099,
      "comanche": 7100,
      "scrooge": 7101,
      "daphne": 7102,
      "armbruster": 7103,
      "120": 7104,
      "58": 7105,
      "az": 7106,
      "ata": 7107,
      "feld": 7108,
      "hốc": 7109,
      "lẳng": 7110,
      "mầm": 7111,
      "mảng": 7112,
      "mpy": 7113,
      "mướn": 7114,
      "oz": 7115,
      "rọi": 7116,
      "rụi": 7117,
      "ssus": 7118,
      "tâng": 7119,
      "vẹt": 7120,
      "wley": 7121,
      "ơà": 7122,
      "́û": 7123,
      "̉nh": 7124,
      "ло": 7125,
      "chừ": 7126,
      "chắt": 7127,
      "thúi": 7128,
      "phé": 7129,
      "giũ": 7130,
      "quây": 7131,
      "cố": 7132,
      "tiber": 7133,
      "aris": 7134,
      "luồn": 7135,
      "cul": 7136,
      "cuba": 7137,
      "madison": 7138,
      "ture": 7139,
      "mimi": 7140,
      "reu": 7141,
      "nigel": 7142,
      "sion": 7143,
      "neff": 7144,
      "động": 7145,
      "geiger": 7146,
      "pao": 7147,
      "pav": 7148,
      "pitts": 7149,
      "dubois": 7150,
      "hector": 7151,
      "lana": 7152,
      "tuyệt": 7153,
      "shing": 7154,
      "inea": 7155,
      "stefan": 7156,
      "stewart": 7157,
      "georgia": 7158,
      "jima": 7159,
      "lening": 7160,
      "bels": 7161,
      "sydney": 7162,
      "hanson": 7163,
      "hamil": 7164,
      "ichiro": 7165,
      "campu": 7166,
      "alexe": 7167,
      "grey": 7168,
      "marian": 7169,
      "fergus": 7170,
      "pupkin": 7171,
      "crassus": 7172,
      "lynn": 7173,
      "lyndon": 7174,
      "nhím": 7175,
      "napoléon": 7176,
      "buổi": 7177,
      "flannagan": 7178,
      "adolf": 7179,
      "schmidt": 7180,
      "myrtle": 7181,
      "hamilton": 7182,
      "campuchia": 7183,
      "ferguson": 7184,
      "clan": 7185,
      "dượng": 7186,
      "frau": 7187,
      "hĩnh": 7188,
      "lết": 7189,
      "nặc": 7190,
      "pay": 7191,
      "pren": 7192,
      "rò": 7193,
      "ròng": 7194,
      "tè": 7195,
      "ul": 7196,
      "wyn": 7197,
      "xy": 7198,
      "zy": 7199,
      "zai": 7200,
      "̀è": 7201,
      "khay": 7202,
      "khang": 7203,
      "giựt": 7204,
      "emy": 7205,
      "radar": 7206,
      "hoả": 7207,
      "bác": 7208,
      "bản": 7209,
      "kio": 7210,
      "lova": 7211,
      "tomi": 7212,
      "luộc": 7213,
      "lucky": 7214,
      "coch": 7215,
      "cochise": 7216,
      "butler": 7217,
      "roma": 7218,
      "viking": 7219,
      "chico": 7220,
      "maxi": 7221,
      "mitri": 7222,
      "bis": 7223,
      "hao": 7224,
      "naples": 7225,
      "koku": 7226,
      "tửu": 7227,
      "shan": 7228,
      "johann": 7229,
      "mona": 7230,
      "frankie": 7231,
      "ciao": 7232,
      "chewie": 7233,
      "đáng": 7234,
      "ấp": 7235,
      "bennett": 7236,
      "iason": 7237,
      "herman": 7238,
      "hermie": 7239,
      "frankenstein": 7240,
      "jiro": 7241,
      "burgh": 7242,
      "wilfrid": 7243,
      "mụn": 7244,
      "anato": 7245,
      "244": 7246,
      "nhower": 7247,
      "melanie": 7248,
      "ment": 7249,
      "cảnh": 7250,
      "jensen": 7251,
      "sinu": 7252,
      "stumpy": 7253,
      "guill": 7254,
      "blore": 7255,
      "mỉa": 7256,
      "thornton": 7257,
      "clair": 7258,
      "club": 7259,
      "midway": 7260,
      "lombard": 7261,
      "strom": 7262,
      "yayá": 7263,
      "evelyn": 7264,
      "bẹp": 7265,
      "cộ": 7266,
      "clem": 7267,
      "candy": 7268,
      "clyde": 7269,
      "eise": 7270,
      "fay": 7271,
      "fou": 7272,
      "fim": 7273,
      "gô": 7274,
      "hắt": 7275,
      "ich": 7276,
      "oanh": 7277,
      "ome": 7278,
      "ppi": 7279,
      "rà": 7280,
      "sành": 7281,
      "tành": 7282,
      "tỏi": 7283,
      "ux": 7284,
      "wong": 7285,
      "xào": 7286,
      "xướng": 7287,
      "ắc": 7288,
      "đút": 7289,
      "ừ": 7290,
      "ки": 7291,
      "ри": 7292,
      "nhột": 7293,
      "nhãi": 7294,
      "chửng": 7295,
      "khâm": 7296,
      "tat": 7297,
      "báo": 7298,
      "loc": 7299,
      "lomax": 7300,
      "hick": 7301,
      "nhàu": 7302,
      "tora": 7303,
      "lẽ": 7304,
      "ameri": 7305,
      "capri": 7306,
      "mala": 7307,
      "dith": 7308,
      "diễm": 7309,
      "mikhai": 7310,
      "really": 7311,
      "lý": 7312,
      "hội": 7313,
      "martine": 7314,
      "naka": 7315,
      "bey": 7316,
      "becky": 7317,
      "vah": 7318,
      "banner": 7319,
      "joanna": 7320,
      "montag": 7321,
      "less": 7322,
      "vern": 7323,
      "donna": 7324,
      "gannon": 7325,
      "sser": 7326,
      "reno": 7327,
      "kerstin": 7328,
      "stachel": 7329,
      "fuku": 7330,
      "wilma": 7331,
      "gram": 7332,
      "face": 7333,
      "seryo": 7334,
      "zeb": 7335,
      "dorff": 7336,
      "tụy": 7337,
      "cherry": 7338,
      "darling": 7339,
      "vonne": 7340,
      "janice": 7341,
      "stubbs": 7342,
      "athens": 7343,
      "garden": 7344,
      "wonka": 7345,
      "cogburn": 7346,
      "discovery": 7347,
      "leningrad": 7348,
      "sinuhe": 7349,
      "guillau": 7350,
      "eisenhower": 7351,
      "age": 7352,
      "aaron": 7353,
      "bôn": 7354,
      "bất": 7355,
      "djang": 7356,
      "etri": 7357,
      "fé": 7358,
      "gôn": 7359,
      "igna": 7360,
      "lạch": 7361,
      "méo": 7362,
      "nn": 7363,
      "rận": 7364,
      "rel": 7365,
      "rạch": 7366,
      "sya": 7367,
      "swan": 7368,
      "tong": 7369,
      "̉û": 7370,
      "ма": 7371,
      "ngố": 7372,
      "nhấp": 7373,
      "nhợt": 7374,
      "chầu": 7375,
      "khét": 7376,
      "taw": 7377,
      "đất": 7378,
      "sáng": 7379,
      "rag": 7380,
      "inter": 7381,
      "ernie": 7382,
      "arri": 7383,
      "cutta": 7384,
      "last": 7385,
      "dix": 7386,
      "diane": 7387,
      "bick": 7388,
      "bitt": 7389,
      "dạ": 7390,
      "aly": 7391,
      "sica": 7392,
      "naga": 7393,
      "metro": 7394,
      "nothing": 7395,
      "iss": 7396,
      "kassi": 7397,
      "gãi": 7398,
      "hum": 7399,
      "pavel": 7400,
      "tyc": 7401,
      "sanshiro": 7402,
      "guar": 7403,
      "jurand": 7404,
      "kur": 7405,
      "georges": 7406,
      "gart": 7407,
      "tsuchi": 7408,
      "sarti": 7409,
      "burt": 7410,
      "dieu": 7411,
      "shot": 7412,
      "greg": 7413,
      "fabri": 7414,
      "dennis": 7415,
      "calcutta": 7416,
      "stop": 7417,
      "penn": 7418,
      "truman": 7419,
      "josey": 7420,
      "chelsea": 7421,
      "tụt": 7422,
      "janet": 7423,
      "cello": 7424,
      "deep": 7425,
      "sherlock": 7426,
      "demetri": 7427,
      "elein": 7428,
      "beatri": 7429,
      "everybody": 7430,
      "ready": 7431,
      "mckay": 7432,
      "mahoney": 7433,
      "pamela": 7434,
      "tiếp": 7435,
      "kringelein": 7436,
      "vitamin": 7437,
      "emanu": 7438,
      "cinderella": 7439,
      "holliday": 7440,
      "django": 7441,
      "kassim": 7442,
      "81": 7443,
      "fuh": 7444,
      "fish": 7445,
      "foster": 7446,
      "flint": 7447,
      "gập": 7448,
      "gray": 7449,
      "huyện": 7450,
      "hói": 7451,
      "hine": 7452,
      "ire": 7453,
      "ide": 7454,
      "jet": 7455,
      "lk": 7456,
      "mấu": 7457,
      "nòi": 7458,
      "nện": 7459,
      "rho": 7460,
      "vester": 7461,
      "ère": 7462,
      "đùng": 7463,
      "đặn": 7464,
      "ви": 7465,
      "ре": 7466,
      "chập": 7467,
      "tron": 7468,
      "quỵ": 7469,
      "đứa": 7470,
      "sabra": 7471,
      "ramire": 7472,
      "hold": 7473,
      "hollis": 7474,
      "hiti": 7475,
      "toạc": 7476,
      "toyo": 7477,
      "todd": 7478,
      "lep": 7479,
      "dolo": 7480,
      "buster": 7481,
      "roku": 7482,
      "roark": 7483,
      "vicky": 7484,
      "chiến": 7485,
      "vụ": 7486,
      "siber": 7487,
      "nat": 7488,
      "som": 7489,
      "shka": 7490,
      "winga": 7491,
      "pico": 7492,
      "hein": 7493,
      "jazz": 7494,
      "arden": 7495,
      "sợ": 7496,
      "ahmad": 7497,
      "đàn": 7498,
      "park": 7499,
      "ập": 7500,
      "itsu": 7501,
      "lain": 7502,
      "price": 7503,
      "shack": 7504,
      "gent": 7505,
      "paula": 7506,
      "petersen": 7507,
      "greta": 7508,
      "delta": 7509,
      "fogg": 7510,
      "stanley": 7511,
      "samuel": 7512,
      "rowf": 7513,
      "geneva": 7514,
      "wonder": 7515,
      "sỉn": 7516,
      "manuela": 7517,
      "hélène": 7518,
      "striker": 7519,
      "union": 7520,
      "kazuo": 7521,
      "phillips": 7522,
      "michiko": 7523,
      "signor": 7524,
      "wooley": 7525,
      "ascoyne": 7526,
      "spencer": 7527,
      "fisher": 7528,
      "liverpool": 7529,
      "prenti": 7530,
      "guillaume": 7531,
      "ramirez": 7532,
      "88": 7533,
      "best": 7534,
      "dr": 7535,
      "gòi": 7536,
      "hớt": 7537,
      "hùm": 7538,
      "ira": 7539,
      "iia": 7540,
      "kung": 7541,
      "mợ": 7542,
      "mầu": 7543,
      "mặn": 7544,
      "nới": 7545,
      "other": 7546,
      "pus": 7547,
      "pun": 7548,
      "pore": 7549,
      "rst": 7550,
      "rẫy": 7551,
      "sầm": 7552,
      "vồng": 7553,
      "ắng": 7554,
      "ся": 7555,
      "ẽn": 7556,
      "gis": 7557,
      "emo": 7558,
      "hỏi": 7559,
      "babe": 7560,
      "hiko": 7561,
      "lulu": 7562,
      "luca": 7563,
      "leng": 7564,
      "curie": 7565,
      "riling": 7566,
      "dov": 7567,
      "diddle": 7568,
      "micro": 7569,
      "sep": 7570,
      "trảo": 7571,
      "nik": 7572,
      "niêm": 7573,
      "hah": 7574,
      "andré": 7575,
      "dera": 7576,
      "vader": 7577,
      "pee": 7578,
      "hed": 7579,
      "wara": 7580,
      "montov": 7581,
      "yabu": 7582,
      "lermontov": 7583,
      "finger": 7584,
      "bona": 7585,
      "ểm": 7586,
      "belli": 7587,
      "venus": 7588,
      "hamburger": 7589,
      "diego": 7590,
      "cụm": 7591,
      "ingen": 7592,
      "whist": 7593,
      "madrid": 7594,
      "jeremy": 7595,
      "minnie": 7596,
      "fanta": 7597,
      "melly": 7598,
      "foley": 7599,
      "wanda": 7600,
      "daiiia": 7601,
      "farrell": 7602,
      "bourg": 7603,
      "leigh": 7604,
      "mackenzie": 7605,
      "godzil": 7606,
      "clara": 7607,
      "peso": 7608,
      "valentine": 7609,
      "piggott": 7610,
      "angelique": 7611,
      "ohio": 7612,
      "giovanni": 7613,
      "demetrius": 7614,
      "fuhrer": 7615,
      "wingate": 7616,
      "godzilla": 7617,
      "110": 7618,
      "64": 7619,
      "67": 7620,
      "95": 7621,
      "ave": 7622,
      "hh": 7623,
      "h30": 7624,
      "ik": 7625,
      "jay": 7626,
      "mác": 7627,
      "nạng": 7628,
      "otis": 7629,
      "rest": 7630,
      "sli": 7631,
      "sọc": 7632,
      "xù": 7633,
      "xát": 7634,
      "ño": 7635,
      "đản": 7636,
      "nhừ": 7637,
      "chy": 7638,
      "chẩn": 7639,
      "thốn": 7640,
      "trỗi": 7641,
      "tanya": 7642,
      "sac": 7643,
      "salad": 7644,
      "uyến": 7645,
      "archie": 7646,
      "lovel": 7647,
      "cui": 7648,
      "cut": 7649,
      "quater": 7650,
      "rosto": 7651,
      "vitto": 7652,
      "dice": 7653,
      "miki": 7654,
      "those": 7655,
      "haven": 7656,
      "sik": 7657,
      "silla": 7658,
      "terina": 7659,
      "meg": 7660,
      "nox": 7661,
      "name": 7662,
      "hetman": 7663,
      "oklaho": 7664,
      "shawn": 7665,
      "paulie": 7666,
      "brom": 7667,
      "pines": 7668,
      "zuki": 7669,
      "rink": 7670,
      "veland": 7671,
      "khuynh": 7672,
      "sini": 7673,
      "barabba": 7674,
      "eugen": 7675,
      "sylvester": 7676,
      "cleveland": 7677,
      "beaure": 7678,
      "thorndyke": 7679,
      "bligh": 7680,
      "broadway": 7681,
      "dollar": 7682,
      "atticus": 7683,
      "johannes": 7684,
      "lizabeth": 7685,
      "books": 7686,
      "moham": 7687,
      "ursula": 7688,
      "fabrizio": 7689,
      "oklahoma": 7690,
      "apo": 7691,
      "ace": 7692,
      "cằm": 7693,
      "dươ": 7694,
      "eras": 7695,
      "fai": 7696,
      "g00": 7697,
      "hẵng": 7698,
      "jem": 7699,
      "lả": 7700,
      "pong": 7701,
      "plu": 7702,
      "pine": 7703,
      "push": 7704,
      "rụt": 7705,
      "smee": 7706,
      "ue": 7707,
      "vồ": 7708,
      "wson": 7709,
      "ẹ́å": 7710,
      "íÿ": 7711,
      "̉e": 7712,
      "са": 7713,
      "nhũ": 7714,
      "trù": 7715,
      "savo": 7716,
      "tình": 7717,
      "hoff": 7718,
      "bung": 7719,
      "bubba": 7720,
      "chap": 7721,
      "chạy": 7722,
      "cald": 7723,
      "este": 7724,
      "mudd": 7725,
      "khỏe": 7726,
      "suông": 7727,
      "havi": 7728,
      "singa": 7729,
      "huyên": 7730,
      "trả": 7731,
      "ked": 7732,
      "toni": 7733,
      "khuân": 7734,
      "gat": 7735,
      "moab": 7736,
      "patra": 7737,
      "duỗi": 7738,
      "hera": 7739,
      "carro": 7740,
      "1945": 7741,
      "xit": 7742,
      "itel": 7743,
      "nua": 7744,
      "fil": 7745,
      "morning": 7746,
      "lligan": 7747,
      "lôgic": 7748,
      "trogly": 7749,
      "merry": 7750,
      "ats": 7751,
      "bridger": 7752,
      "burton": 7753,
      "larra": 7754,
      "vince": 7755,
      "inglê": 7756,
      "180": 7757,
      "grange": 7758,
      "mariano": 7759,
      "true": 7760,
      "thorwald": 7761,
      "brew": 7762,
      "creek": 7763,
      "irina": 7764,
      "blaney": 7765,
      "vincenzo": 7766,
      "mặc": 7767,
      "randall": 7768,
      "dumbo": 7769,
      "grisha": 7770,
      "zorro": 7771,
      "thought": 7772,
      "jarrett": 7773,
      "jerilee": 7774,
      "erasmus": 7775,
      "inglês": 7776,
      "cler": 7777,
      "ili": 7778,
      "kể": 7779,
      "lứa": 7780,
      "lõi": 7781,
      "mó": 7782,
      "mour": 7783,
      "nơ": 7784,
      "ogi": 7785,
      "spy": 7786,
      "tếu": 7787,
      "tọc": 7788,
      "tạng": 7789,
      "tấc": 7790,
      "wright": 7791,
      "ñêà": 7792,
      "ăó": 7793,
      "nhấm": 7794,
      "khắt": 7795,
      "khương": 7796,
      "phone": 7797,
      "anan": 7798,
      "into": 7799,
      "arch": 7800,
      "listen": 7801,
      "auro": 7802,
      "mako": 7803,
      "mafia": 7804,
      "tuc": 7805,
      "cken": 7806,
      "dall": 7807,
      "señ": 7808,
      "ghan": 7809,
      "ough": 7810,
      "meyer": 7811,
      "noah": 7812,
      "sofa": 7813,
      "berta": 7814,
      "vaal": 7815,
      "tưng": 7816,
      "đồng": 7817,
      "pata": 7818,
      "duệ": 7819,
      "money": 7820,
      "edna": 7821,
      "eddy": 7822,
      "taire": 7823,
      "yale": 7824,
      "vania": 7825,
      "asy": 7826,
      "mcmurphy": 7827,
      "bring": 7828,
      "adrian": 7829,
      "fuck": 7830,
      "arez": 7831,
      "estella": 7832,
      "willard": 7833,
      "mattie": 7834,
      "kyoko": 7835,
      "provo": 7836,
      "daigoro": 7837,
      "matsugoro": 7838,
      "lớn": 7839,
      "general": 7840,
      "curley": 7841,
      "pretty": 7842,
      "mắt": 7843,
      "colom": 7844,
      "bianca": 7845,
      "yuriko": 7846,
      "pompey": 7847,
      "miyagi": 7848,
      "natasha": 7849,
      "cleopatra": 7850,
      "oberst": 7851,
      "mikhail": 7852,
      "singapore": 7853,
      "bson": 7854,
      "cùi": 7855,
      "dỏm": 7856,
      "fru": 7857,
      "jé": 7858,
      "kẽ": 7859,
      "kép": 7860,
      "lán": 7861,
      "miệt": 7862,
      "mửa": 7863,
      "mút": 7864,
      "nt": 7865,
      "pai": 7866,
      "rôi": 7867,
      "rầu": 7868,
      "scan": 7869,
      "vấy": 7870,
      "êt": 7871,
      "îíà": 7872,
      "đọng": 7873,
      "ngải": 7874,
      "chine": 7875,
      "thòng": 7876,
      "trăn": 7877,
      "sale": 7878,
      "erson": 7879,
      "hoi": 7880,
      "hoshua": 7881,
      "ends": 7882,
      "live": 7883,
      "ludo": 7884,
      "cobb": 7885,
      "dodge": 7886,
      "cass": 7887,
      "rozh": 7888,
      "nic": 7889,
      "hát": 7890,
      "medu": 7891,
      "kolya": 7892,
      "powell": 7893,
      "katia": 7894,
      "sonya": 7895,
      "đuợc": 7896,
      "shar": 7897,
      "saito": 7898,
      "mando": 7899,
      "bani": 7900,
      "banks": 7901,
      "patton": 7902,
      "ardon": 7903,
      "ship": 7904,
      "judo": 7905,
      "ganda": 7906,
      "peri": 7907,
      "etta": 7908,
      "wee": 7909,
      "yehoshua": 7910,
      "chớn": 7911,
      "pins": 7912,
      "dụt": 7913,
      "words": 7914,
      "sheila": 7915,
      "lords": 7916,
      "leonardo": 7917,
      "âà́": 7918,
      "crete": 7919,
      "số": 7920,
      "colbert": 7921,
      "palmer": 7922,
      "salva": 7923,
      "lụy": 7924,
      "ơîđî": 7925,
      "mịn": 7926,
      "after": 7927,
      "bandar": 7928,
      "clouseau": 7929,
      "crockett": 7930,
      "phoenix": 7931,
      "tiberius": 7932,
      "kiowa": 7933,
      "brewster": 7934,
      "140": 7935,
      "84": 7936,
      "bư": 7937,
      "bry": 7938,
      "bran": 7939,
      "bbels": 7940,
      "cù": 7941,
      "dray": 7942,
      "ganh": 7943,
      "hằn": 7944,
      "ít": 7945,
      "lõa": 7946,
      "mương": 7947,
      "nỡ": 7948,
      "nán": 7949,
      "pé": 7950,
      "randy": 7951,
      "sburg": 7952,
      "tý": 7953,
      "wu": 7954,
      "wang": 7955,
      "work": 7956,
      "ych": 7957,
      "ñëè": 7958,
      "đọa": 7959,
      "đều": 7960,
      "хо": 7961,
      "thầu": 7962,
      "thiến": 7963,
      "trớn": 7964,
      "phịch": 7965,
      "gilda": 7966,
      "sát": 7967,
      "nghiến": 7968,
      "rada": 7969,
      "indiana": 7970,
      "erta": 7971,
      "houn": 7972,
      "kiếm": 7973,
      "lora": 7974,
      "liêu": 7975,
      "living": 7976,
      "colas": 7977,
      "saunder": 7978,
      "doạ": 7979,
      "cale": 7980,
      "rogo": 7981,
      "mia": 7982,
      "misha": 7983,
      "mukh": 7984,
      "dawson": 7985,
      "tex": 7986,
      "tetsu": 7987,
      "sum": 7988,
      "sugi": 7989,
      "sier": 7990,
      "mean": 7991,
      "kok": 7992,
      "ketch": 7993,
      "nobu": 7994,
      "isha": 7995,
      "huw": 7996,
      "lancey": 7997,
      "lind": 7998,
      "judea": 7999,
      "ffe": 8000,
      "tanz": 8001,
      "yoko": 8002,
      "jeho": 8003,
      "redfern": 8004,
      "hamburg": 8005,
      "allnut": 8006,
      "francs": 8007,
      "warden": 8008,
      "lled": 8009,
      "free": 8010,
      "janning": 8011,
      "studio": 8012,
      "chamber": 8013,
      "lucita": 8014,
      "ëüêî": 8015,
      "jacquou": 8016,
      "honor": 8017,
      "muraki": 8018,
      "pollyanna": 8019,
      "sheldrake": 8020,
      "hawkins": 8021,
      "christmas": 8022,
      "stevens": 8023,
      "heather": 8024,
      "áóäå": 8025,
      "heroin": 8026,
      "baptist": 8027,
      "snake": 8028,
      "shahbandar": 8029,
      "pittsburgh": 8030,
      "vittorio": 8031,
      "beauregard": 8032,
      "dưới": 8033,
      "havisham": 8034,
      "drayton": 8035,
      "saunders": 8036,
      "69": 8037,
      "bẽ": 8038,
      "bẩy": 8039,
      "cật": 8040,
      "dấn": 8041,
      "drick": 8042,
      "gé": 8043,
      "hủ": 8044,
      "lọng": 8045,
      "mọn": 8046,
      "ova": 8047,
      "pt": 8048,
      "vạc": 8049,
      "ñêî": 8050,
      "đọ": 8051,
      "nhang": 8052,
      "chéo": 8053,
      "chẳn": 8054,
      "thâu": 8055,
      "giông": 8056,
      "quạc": 8057,
      "sako": 8058,
      "nghẹn": 8059,
      "conrad": 8060,
      "inu": 8061,
      "ere": 8062,
      "enne": 8063,
      "liss": 8064,
      "comp": 8065,
      "lex": 8066,
      "ambro": 8067,
      "cubitt": 8068,
      "ries": 8069,
      "dok": 8070,
      "vil": 8071,
      "vitch": 8072,
      "chison": 8073,
      "dier": 8074,
      "milo": 8075,
      "mitsu": 8076,
      "reen": 8077,
      "marra": 8078,
      "thic": 8079,
      "oux": 8080,
      "trái": 8081,
      "bolo": 8082,
      "kota": 8083,
      "porozh": 8084,
      "thử": 8085,
      "kas": 8086,
      "gothic": 8087,
      "berman": 8088,
      "durand": 8089,
      "carmen": 8090,
      "tyree": 8091,
      "eder": 8092,
      "guil": 8093,
      "phát": 8094,
      "zaporozh": 8095,
      "perry": 8096,
      "rena": 8097,
      "hendrick": 8098,
      "langford": 8099,
      "wallace": 8100,
      "bờm": 8101,
      "bright": 8102,
      "hannah": 8103,
      "gregor": 8104,
      "florè": 8105,
      "corne": 8106,
      "ṇ̃è": 8107,
      "creed": 8108,
      "goodbye": 8109,
      "gusta": 8110,
      "murray": 8111,
      "portland": 8112,
      "diaz": 8113,
      "droghe": 8114,
      "sylvania": 8115,
      "daniels": 8116,
      "limbani": 8117,
      "yoshida": 8118,
      "chịu": 8119,
      "semyon": 8120,
      "poppins": 8121,
      "chồng": 8122,
      "phillip": 8123,
      "fellow": 8124,
      "leiningen": 8125,
      "noriko": 8126,
      "goebbels": 8127,
      "astasia": 8128,
      "ăëåíí": 8129,
      "giuseppe": 8130,
      "clanton": 8131,
      "aurora": 8132,
      "tucson": 8133,
      "gandalf": 8134,
      "florès": 8135,
      "drogheda": 8136,
      "350": 8137,
      "59": 8138,
      "83": 8139,
      "ạ": 8140,
      "cọng": 8141,
      "ckho": 8142,
      "dạn": 8143,
      "dỗi": 8144,
      "fy": 8145,
      "gí": 8146,
      "hâu": 8147,
      "hớn": 8148,
      "iên": 8149,
      "kỉnh": 8150,
      "múc": 8151,
      "mọng": 8152,
      "oona": 8153,
      "uýt": 8154,
      "vóc": 8155,
      "yvonne": 8156,
      "äü": 8157,
      "ля": 8158,
      "се": 8159,
      "thằng": 8160,
      "khập": 8161,
      "trou": 8162,
      "phiếm": 8163,
      "taine": 8164,
      "gina": 8165,
      "saa": 8166,
      "rabbi": 8167,
      "bài": 8168,
      "hão": 8169,
      "toro": 8170,
      "dooli": 8171,
      "vito": 8172,
      "mea": 8173,
      "poker": 8174,
      "kah": 8175,
      "goá": 8176,
      "gala": 8177,
      "lando": 8178,
      "harvard": 8179,
      "vernon": 8180,
      "dyle": 8181,
      "timmy": 8182,
      "danvers": 8183,
      "rené": 8184,
      "news": 8185,
      "georgie": 8186,
      "waltz": 8187,
      "illes": 8188,
      "inger": 8189,
      "tzi": 8190,
      "wells": 8191,
      "bster": 8192,
      "zee": 8193,
      "zeus": 8194,
      "nhỏ": 8195,
      "leman": 8196,
      "íîăî": 8197,
      "sels": 8198,
      "ralphie": 8199,
      "̣åëü": 8200,
      "skipper": 8201,
      "murchison": 8202,
      "dễ": 8203,
      "horn": 8204,
      "onius": 8205,
      "everything": 8206,
      "stenka": 8207,
      "oxford": 8208,
      "kuroda": 8209,
      "brussels": 8210,
      "mallory": 8211,
      "dolphin": 8212,
      "cecile": 8213,
      "octavian": 8214,
      "lithium": 8215,
      "emanuelle": 8216,
      "hendricks": 8217,
      "doolittle": 8218,
      "82": 8219,
      "89": 8220,
      "97": 8221,
      "abu": 8222,
      "alas": 8223,
      "cl": 8224,
      "drome": 8225,
      "fron": 8226,
      "gở": 8227,
      "g30": 8228,
      "húc": 8229,
      "ighton": 8230,
      "jr": 8231,
      "lảm": 8232,
      "oma": 8233,
      "rắm": 8234,
      "sên": 8235,
      "schi": 8236,
      "sma": 8237,
      "sloan": 8238,
      "tạnh": 8239,
      "tẩm": 8240,
      "yang": 8241,
      "đề": 8242,
      "ngừ": 8243,
      "nhứt": 8244,
      "khố": 8245,
      "rang": 8246,
      "lich": 8247,
      "lila": 8248,
      "quánh": 8249,
      "cume": 8250,
      "rosi": 8251,
      "ngoặt": 8252,
      "chik": 8253,
      "tuôn": 8254,
      "tuck": 8255,
      "dit": 8256,
      "mulligan": 8257,
      "chus": 8258,
      "nastenka": 8259,
      "kevin": 8260,
      "usd": 8261,
      "iman": 8262,
      "beta": 8263,
      "godolphin": 8264,
      "rune": 8265,
      "đủ": 8266,
      "vala": 8267,
      "mow": 8268,
      "pick": 8269,
      "shir": 8270,
      "franco": 8271,
      "chez": 8272,
      "suyin": 8273,
      "sandra": 8274,
      "dana": 8275,
      "juana": 8276,
      "zapata": 8277,
      "đươc": 8278,
      "webster": 8279,
      "nhagen": 8280,
      "geous": 8281,
      "ask": 8282,
      "grass": 8283,
      "160": 8284,
      "giới": 8285,
      "calvin": 8286,
      "half": 8287,
      "zeon": 8288,
      "nhuệ": 8289,
      "stockho": 8290,
      "macdonald": 8291,
      "robertson": 8292,
      "produ": 8293,
      "äåëà": 8294,
      "irving": 8295,
      "someone": 8296,
      "clifford": 8297,
      "comfort": 8298,
      "flap": 8299,
      "seattle": 8300,
      "moritz": 8301,
      "milton": 8302,
      "sergey": 8303,
      "hassan": 8304,
      "gamma": 8305,
      "salome": 8306,
      "bowling": 8307,
      "spade": 8308,
      "videodrome": 8309,
      "marseilles": 8310,
      "petronius": 8311,
      "ludwig": 8312,
      "xịn": 8313,
      "mississi": 8314,
      "gabriel": 8315,
      "buffalo": 8316,
      "bonaparte": 8317,
      "larrabee": 8318,
      "lordsburg": 8319,
      "stockholm": 8320,
      "224": 8321,
      "51": 8322,
      "56": 8323,
      "87": 8324,
      "av": 8325,
      "bèn": 8326,
      "hợm": 8327,
      "ium": 8328,
      "lốc": 8329,
      "lụi": 8330,
      "lủng": 8331,
      "nắn": 8332,
      "nina": 8333,
      "nấng": 8334,
      "núm": 8335,
      "oke": 8336,
      "oso": 8337,
      "sno": 8338,
      "smo": 8339,
      "sty": 8340,
      "tsang": 8341,
      "vỉa": 8342,
      "xê": 8343,
      "xép": 8344,
      "yar": 8345,
      "âó": 8346,
      "âíà": 8347,
      "åøü": 8348,
      "åñëè": 8349,
      "ñïî": 8350,
      "ổi": 8351,
      "ăđà": 8352,
      "ăäà": 8353,
      "вы": 8354,
      "же": 8355,
      "ễng": 8356,
      "ngỏ": 8357,
      "nhòm": 8358,
      "thé": 8359,
      "thầy": 8360,
      "khạo": 8361,
      "trô": 8362,
      "tate": 8363,
      "điểu": 8364,
      "quặng": 8365,
      "sava": 8366,
      "hidi": 8367,
      "lise": 8368,
      "luthor": 8369,
      "left": 8370,
      "cun": 8371,
      "ellie": 8372,
      "doin": 8373,
      "vị": 8374,
      "viết": 8375,
      "maker": 8376,
      "major": 8377,
      "tuý": 8378,
      "bét": 8379,
      "alfredo": 8380,
      "always": 8381,
      "ohh": 8382,
      "sul": 8383,
      "terrill": 8384,
      "death": 8385,
      "istan": 8386,
      "shaugh": 8387,
      "namara": 8388,
      "dul": 8389,
      "vệt": 8390,
      "watch": 8391,
      "carlin": 8392,
      "shit": 8393,
      "kuni": 8394,
      "vana": 8395,
      "morton": 8396,
      "wally": 8397,
      "garcia": 8398,
      "meredith": 8399,
      "while": 8400,
      "graber": 8401,
      "alison": 8402,
      "put": 8403,
      "stock": 8404,
      "gorgeous": 8405,
      "lambert": 8406,
      "tarzan": 8407,
      "ttaglia": 8408,
      "kayama": 8409,
      "things": 8410,
      "turn": 8411,
      "gauche": 8412,
      "bessie": 8413,
      "̣àê": 8414,
      "frazier": 8415,
      "clutter": 8416,
      "tosya": 8417,
      "atlanta": 8418,
      "bambi": 8419,
      "sarek": 8420,
      "lazarus": 8421,
      "veronica": 8422,
      "mikami": 8423,
      "junior": 8424,
      "lorelei": 8425,
      "shooter": 8426,
      "señor": 8427,
      "valachi": 8428,
      "mowgli": 8429,
      "shaughnessy": 8430,
      "3000": 8431,
      "76": 8432,
      "aq": 8433,
      "able": 8434,
      "bở": 8435,
      "bles": 8436,
      "gừng": 8437,
      "gwen": 8438,
      "jai": 8439,
      "ln": 8440,
      "lúng": 8441,
      "lvan": 8442,
      "mề": 8443,
      "nê": 8444,
      "nuối": 8445,
      "oa": 8446,
      "oki": 8447,
      "rêu": 8448,
      "sler": 8449,
      "scre": 8450,
      "welli": 8451,
      "xức": 8452,
      "àh": 8453,
      "ле": 8454,
      "па": 8455,
      "это": 8456,
      "nhác": 8457,
      "nhẩy": 8458,
      "chẻ": 8459,
      "tral": 8460,
      "trum": 8461,
      "phích": 8462,
      "tango": 8463,
      "talos": 8464,
      "tàu": 8465,
      "giặc": 8466,
      "ember": 8467,
      "sah": 8468,
      "choco": 8469,
      "ania": 8470,
      "kiss": 8471,
      "kidd": 8472,
      "lòng": 8473,
      "hình": 8474,
      "lili": 8475,
      "toát": 8476,
      "tore": 8477,
      "leone": 8478,
      "ril": 8479,
      "dora": 8480,
      "button": 8481,
      "lako": 8482,
      "cash": 8483,
      "room": 8484,
      "mason": 8485,
      "macher": 8486,
      "dim": 8487,
      "dilithium": 8488,
      "khó": 8489,
      "dax": 8490,
      "dakota": 8491,
      "seen": 8492,
      "alger": 8493,
      "cốp": 8494,
      "thia": 8495,
      "suli": 8496,
      "hạnh": 8497,
      "ded": 8498,
      "debo": 8499,
      "dead": 8500,
      "usha": 8501,
      "mãng": 8502,
      "vẻ": 8503,
      "hubert": 8504,
      "paddy": 8505,
      "101": 8506,
      "waco": 8507,
      "harumi": 8508,
      "edge": 8509,
      "gurgi": 8510,
      "myers": 8511,
      "benj": 8512,
      "lais": 8513,
      "dersu": 8514,
      "moreland": 8515,
      "môt": 8516,
      "shalako": 8517,
      "feel": 8518,
      "addison": 8519,
      "sard": 8520,
      "cún": 8521,
      "raisuli": 8522,
      "amazon": 8523,
      "woodward": 8524,
      "dene": 8525,
      "minus": 8526,
      "pul": 8527,
      "crown": 8528,
      "andrea": 8529,
      "íèêî": 8530,
      "1943": 8531,
      "rembrandt": 8532,
      "commo": 8533,
      "äîë": 8534,
      "juliette": 8535,
      "hills": 8536,
      "bộ": 8537,
      "earth": 8538,
      "bunny": 8539,
      "westmoreland": 8540,
      "dussel": 8541,
      "columbia": 8542,
      "cầu": 8543,
      "ệu": 8544,
      "kokubu": 8545,
      "lovely": 8546,
      "mohammed": 8547,
      "mukhtar": 8548,
      "zaporozhtzi": 8549,
      "mississippi": 8550,
      "chocolate": 8551,
      "62": 8552,
      "ago": 8553,
      "áo": 8554,
      "biếu": 8555,
      "cỗi": 8556,
      "cuống": 8557,
      "cẳng": 8558,
      "card": 8559,
      "drum": 8560,
      "fyo": 8561,
      "fano": 8562,
      "grin": 8563,
      "hấu": 8564,
      "hẻo": 8565,
      "jour": 8566,
      "jitsu": 8567,
      "kushima": 8568,
      "lồn": 8569,
      "lson": 8570,
      "mòng": 8571,
      "mít": 8572,
      "mọt": 8573,
      "mandra": 8574,
      "mía": 8575,
      "náy": 8576,
      "rhine": 8577,
      "sni": 8578,
      "usa": 8579,
      "wel": 8580,
      "xó": 8581,
      "đụ": 8582,
      "̀û": 8583,
      "̉m": 8584,
      "ngời": 8585,
      "chường": 8586,
      "chệch": 8587,
      "khẽ": 8588,
      "khước": 8589,
      "kham": 8590,
      "khart": 8591,
      "phất": 8592,
      "sama": 8593,
      "once": 8594,
      "ngưu": 8595,
      "rard": 8596,
      "ties": 8597,
      "argo": 8598,
      "losi": 8599,
      "hir": 8600,
      "told": 8601,
      "rizzo": 8602,
      "ros": 8603,
      "mabel": 8604,
      "macy": 8605,
      "máy": 8606,
      "vuột": 8607,
      "mill": 8608,
      "miche": 8609,
      "già": 8610,
      "lycus": 8611,
      "vụt": 8612,
      "sigh": 8613,
      "sioux": 8614,
      "boro": 8615,
      "melis": 8616,
      "sonja": 8617,
      "their": 8618,
      "bank": 8619,
      "đối": 8620,
      "jock": 8621,
      "pio": 8622,
      "lante": 8623,
      "carna": 8624,
      "danu": 8625,
      "barrow": 8626,
      "benton": 8627,
      "bennet": 8628,
      "zachar": 8629,
      "perrin": 8630,
      "herod": 8631,
      "yevich": 8632,
      "tômas": 8633,
      "vọng": 8634,
      "jedi": 8635,
      "mcnamara": 8636,
      "mercu": 8637,
      "nổi": 8638,
      "valle": 8639,
      "valley": 8640,
      "fantômas": 8641,
      "nhoáng": 8642,
      "winchester": 8643,
      "gonzo": 8644,
      "olsen": 8645,
      "desmond": 8646,
      "smithy": 8647,
      "creighton": 8648,
      "emile": 8649,
      "emilio": 8650,
      "sukekiyo": 8651,
      "ireland": 8652,
      "jorgen": 8653,
      "valiant": 8654,
      "grandi": 8655,
      "tệ": 8656,
      "demus": 8657,
      "talk": 8658,
      "leave": 8659,
      "fleu": 8660,
      "happen": 8661,
      "kenneth": 8662,
      "äó́à": 8663,
      "south": 8664,
      "mahdi": 8665,
      "yamamoto": 8666,
      "romania": 8667,
      "đợi": 8668,
      "betsy": 8669,
      "picnic": 8670,
      "baptiste": 8671,
      "motome": 8672,
      "serizawa": 8673,
      "thursday": 8674,
      "lockhart": 8675,
      "septime": 8676,
      "eugenia": 8677,
      "pongo": 8678,
      "clb": 8679,
      "wellington": 8680,
      "deborah": 8681,
      "melissa": 8682,
      "att": 8683,
      "cặc": 8684,
      "cze": 8685,
      "dồi": 8686,
      "diệp": 8687,
      "ebene": 8688,
      "frem": 8689,
      "gone": 8690,
      "hổi": 8691,
      "hàu": 8692,
      "hờn": 8693,
      "hess": 8694,
      "lải": 8695,
      "mận": 8696,
      "oce": 8697,
      "sò": 8698,
      "sound": 8699,
      "sdell": 8700,
      "tã": 8701,
      "zano": 8702,
      "ầu": 8703,
      "îá": 8704,
      "ïđå": 8705,
      "øî": 8706,
      "đû": 8707,
      "đü": 8708,
      "про": 8709,
      "tres": 8710,
      "phôn": 8711,
      "tah": 8712,
      "taran": 8713,
      "khiễng": 8714,
      "tiana": 8715,
      "bak": 8716,
      "kill": 8717,
      "lome": 8718,
      "hide": 8719,
      "lufton": 8720,
      "rior": 8721,
      "dore": 8722,
      "buddy": 8723,
      "chal": 8724,
      "robot": 8725,
      "chick": 8726,
      "tupper": 8727,
      "bit": 8728,
      "esca": 8729,
      "seem": 8730,
      "niño": 8731,
      "thout": 8732,
      "super": 8733,
      "sutton": 8734,
      "hack": 8735,
      "sissi": 8736,
      "maid": 8737,
      "bernie": 8738,
      "bana": 8739,
      "without": 8740,
      "mora": 8741,
      "move": 8742,
      "monde": 8743,
      "tía": 8744,
      "suya": 8745,
      "myles": 8746,
      "barton": 8747,
      "force": 8748,
      "scottie": 8749,
      "benny": 8750,
      "xiên": 8751,
      "stepan": 8752,
      "laila": 8753,
      "tombs": 8754,
      "fili": 8755,
      "first": 8756,
      "merrick": 8757,
      "davie": 8758,
      "hamili": 8759,
      "fun": 8760,
      "flower": 8761,
      "annette": 8762,
      "warren": 8763,
      "macbeth": 8764,
      "roberts": 8765,
      "eyre": 8766,
      "friends": 8767,
      "inois": 8768,
      "varia": 8769,
      "seymour": 8770,
      "farrow": 8771,
      "borscho": 8772,
      "kayo": 8773,
      "tions": 8774,
      "mouche": 8775,
      "nicodemus": 8776,
      "llah": 8777,
      "lisbon": 8778,
      "phố": 8779,
      "falco": 8780,
      "ghee": 8781,
      "mallow": 8782,
      "columbus": 8783,
      "kringle": 8784,
      "illinois": 8785,
      "dzhamili": 8786,
      "blaisdell": 8787,
      "tzeitel": 8788,
      "ratchett": 8789,
      "hercules": 8790,
      "cassidy": 8791,
      "maximili": 8792,
      "sikander": 8793,
      "troglyte": 8794,
      "jehovah": 8795,
      "ambrose": 8796,
      "trộm": 8797,
      "doinel": 8798,
      "aqaba": 8799,
      "zachary": 8800,
      "ebenezer": 8801,
      "tombstone": 8802,
      "borschov": 8803,
      "dzhamiliya": 8804,
      "54": 8805,
      "axit": 8806,
      "bửa": 8807,
      "cắc": 8808,
      "cạp": 8809,
      "fris": 8810,
      "klau": 8811,
      "liếc": 8812,
      "mè": 8813,
      "rệ": 8814,
      "sải": 8815,
      "sca": 8816,
      "sắng": 8817,
      "slee": 8818,
      "tj": 8819,
      "tánh": 8820,
      "tĩu": 8821,
      "xâu": 8822,
      "ệp": 8823,
      "ñâî": 8824,
      "ба": 8825,
      "бы": 8826,
      "nhem": 8827,
      "nhải": 8828,
      "trướng": 8829,
      "giăm": 8830,
      "saku": 8831,
      "uya": 8832,
      "raker": 8833,
      "rames": 8834,
      "ermo": 8835,
      "bat": 8836,
      "lira": 8837,
      "toku": 8838,
      "austin": 8839,
      "costa": 8840,
      "lev": 8841,
      "amster": 8842,
      "richie": 8843,
      "roberta": 8844,
      "maki": 8845,
      "mace": 8846,
      "bốp": 8847,
      "mitya": 8848,
      "bigu": 8849,
      "secker": 8850,
      "niu": 8851,
      "sulle": 8852,
      "simo": 8853,
      "negan": 8854,
      "nettie": 8855,
      "bold": 8856,
      "because": 8857,
      "cesare": 8858,
      "manchester": 8859,
      "vài": 8860,
      "đội": 8861,
      "hee": 8862,
      "cari": 8863,
      "monter": 8864,
      "verde": 8865,
      "shige": 8866,
      "típ": 8867,
      "cirin": 8868,
      "cheyen": 8869,
      "gum": 8870,
      "guinea": 8871,
      "lũy": 8872,
      "barnier": 8873,
      "forget": 8874,
      "ders": 8875,
      "years": 8876,
      "mmers": 8877,
      "trọng": 8878,
      "đàç": 8879,
      "lennox": 8880,
      "xoăn": 8881,
      "bride": 8882,
      "briggs": 8883,
      "trụy": 8884,
      "hanni": 8885,
      "vene": 8886,
      "sargon": 8887,
      "brogan": 8888,
      "landers": 8889,
      "shokichi": 8890,
      "oskar": 8891,
      "corn": 8892,
      "dens": 8893,
      "denver": 8894,
      "wayne": 8895,
      "serpico": 8896,
      "zec": 8897,
      "stingo": 8898,
      "warsaw": 8899,
      "central": 8900,
      "lorraine": 8901,
      "isak": 8902,
      "hunsecker": 8903,
      "goodnight": 8904,
      "jefferson": 8905,
      "ariane": 8906,
      "nings": 8907,
      "birnam": 8908,
      "birdie": 8909,
      "sandr": 8910,
      "griff": 8911,
      "clayton": 8912,
      "camelot": 8913,
      "pontius": 8914,
      "golden": 8915,
      "fontaine": 8916,
      "moonraker": 8917,
      "nhẽo": 8918,
      "pratt": 8919,
      "sắp": 8920,
      "bagdad": 8921,
      "hợp": 8922,
      "hilton": 8923,
      "tatsuhei": 8924,
      "aleksandr": 8925,
      "alexei": 8926,
      "cornelius": 8927,
      "maximilian": 8928,
      "cheyenne": 8929,
      "225": 8930,
      "86": 8931,
      "bler": 8932,
      "cand": 8933,
      "dầy": 8934,
      "eko": 8935,
      "gừ": 8936,
      "hr": 8937,
      "hất": 8938,
      "kết": 8939,
      "lọi": 8940,
      "mõm": 8941,
      "nă": 8942,
      "nọc": 8943,
      "nard": 8944,
      "nena": 8945,
      "nịt": 8946,
      "obara": 8947,
      "prey": 8948,
      "péné": 8949,
      "pliss": 8950,
      "rê": 8951,
      "rùi": 8952,
      "sina": 8953,
      "tưởng": 8954,
      "xấp": 8955,
      "ạ̊å": 8956,
      "ève": 8957,
      "ëû": 8958,
      "đỗi": 8959,
      "̃a": 8960,
      "ду": 8961,
      "ня": 8962,
      "ớc": 8963,
      "nhọt": 8964,
      "khin": 8965,
      "tachi": 8966,
      "ques": 8967,
      "quet": 8968,
      "quẹt": 8969,
      "ngựa": 8970,
      "chor": 8971,
      "chou": 8972,
      "archi": 8973,
      "bass": 8974,
      "hira": 8975,
      "toại": 8976,
      "led": 8977,
      "haines": 8978,
      "else": 8979,
      "elsie": 8980,
      "dolly": 8981,
      "calais": 8982,
      "roch": 8983,
      "dill": 8984,
      "miria": 8985,
      "muni": 8986,
      "giải": 8987,
      "cửa": 8988,
      "orrow": 8989,
      "reles": 8990,
      "dừng": 8991,
      "manga": 8992,
      "sub": 8993,
      "sudan": 8994,
      "sigi": 8995,
      "neill": 8996,
      "nadia": 8997,
      "boone": 8998,
      "dùi": 8999,
      "belie": 9000,
      "belik": 9001,
      "katya": 9002,
      "sharon": 9003,
      "bertr": 9004,
      "vara": 9005,
      "peg": 9006,
      "gaki": 9007,
      "thee": 9008,
      "banion": 9009,
      "wiley": 9010,
      "huerta": 9011,
      "geisha": 9012,
      "pachi": 9013,
      "wahara": 9014,
      "lantier": 9015,
      "harpo": 9016,
      "vero": 9017,
      "eden": 9018,
      "tair": 9019,
      "bím": 9020,
      "kubelik": 9021,
      "tomorrow": 9022,
      "vogel": 9023,
      "walsh": 9024,
      "mero": 9025,
      "mercy": 9026,
      "atsu": 9027,
      "bangkok": 9028,
      "tsune": 9029,
      "burdette": 9030,
      "senor": 9031,
      "letto": 9032,
      "thím": 9033,
      "hallet": 9034,
      "tterman": 9035,
      "lẻo": 9036,
      "josefa": 9037,
      "gonza": 9038,
      "holt": 9039,
      "sirée": 9040,
      "tịnh": 9041,
      "âị̂": 9042,
      "starrett": 9043,
      "nicolosi": 9044,
      "asham": 9045,
      "gaulle": 9046,
      "plato": 9047,
      "zzie": 9048,
      "1967": 9049,
      "genevi": 9050,
      "beach": 9051,
      "quinlan": 9052,
      "capone": 9053,
      "kikui": 9054,
      "stephanie": 9055,
      "hawk": 9056,
      "rolls": 9057,
      "mammy": 9058,
      "désirée": 9059,
      "olympia": 9060,
      "oshizu": 9061,
      "egerman": 9062,
      "wilder": 9063,
      "furt": 9064,
      "alexandria": 9065,
      "wynand": 9066,
      "american": 9067,
      "prentice": 9068,
      "colasberna": 9069,
      "bologna": 9070,
      "commodus": 9071,
      "amsterdam": 9072,
      "monterey": 9073,
      "pénélope": 9074,
      "bly": 9075,
      "bón": 9076,
      "dông": 9077,
      "dame": 9078,
      "elo": 9079,
      "ego": 9080,
      "fed": 9081,
      "game": 9082,
      "hấn": 9083,
      "hạo": 9084,
      "kame": 9085,
      "lét": 9086,
      "mt": 9087,
      "miếu": 9088,
      "own": 9089,
      "pê": 9090,
      "pis": 9091,
      "rặng": 9092,
      "sấp": 9093,
      "sậy": 9094,
      "vạ": 9095,
      "vron": 9096,
      "vẹo": 9097,
      "vãng": 9098,
      "xer": 9099,
      "yel": 9100,
      "zha": 9101,
      "áà": 9102,
      "åṇ̃": 9103,
      "đò": 9104,
      "ơå": 9105,
      "̣ñÿ": 9106,
      "бе": 9107,
      "ль": 9108,
      "ngầu": 9109,
      "nhọ": 9110,
      "thro": 9111,
      "thẩn": 9112,
      "thal": 9113,
      "thường": 9114,
      "khất": 9115,
      "tas": 9116,
      "quào": 9117,
      "côla": 9118,
      "chow": 9119,
      "uyển": 9120,
      "inus": 9121,
      "hoe": 9122,
      "hogan": 9123,
      "bavaria": 9124,
      "hilar": 9125,
      "hiện": 9126,
      "tour": 9127,
      "dodger": 9128,
      "bup": 9129,
      "hayes": 9130,
      "casey": 9131,
      "caterina": 9132,
      "rochester": 9133,
      "chiu": 9134,
      "mashenka": 9135,
      "mahidi": 9136,
      "tutti": 9137,
      "thult": 9138,
      "dium": 9139,
      "mizu": 9140,
      "mut": 9141,
      "muff": 9142,
      "dài": 9143,
      "gher": 9144,
      "oul": 9145,
      "hàng": 9146,
      "xảy": 9147,
      "kodos": 9148,
      "deau": 9149,
      "poly": 9150,
      "isn": 9151,
      "kali": 9152,
      "rudd": 9153,
      "paso": 9154,
      "picker": 9155,
      "carver": 9156,
      "sửng": 9157,
      "vere": 9158,
      "dya": 9159,
      "ells": 9160,
      "gua": 9161,
      "203": 9162,
      "part": 9163,
      "jum": 9164,
      "ganz": 9165,
      "kurt": 9166,
      "geoffrey": 9167,
      "newton": 9168,
      "mornin": 9169,
      "louisi": 9170,
      "jing": 9171,
      "brady": 9172,
      "norton": 9173,
      "brock": 9174,
      "yum": 9175,
      "shock": 9176,
      "father": 9177,
      "cortland": 9178,
      "fernando": 9179,
      "nhoi": 9180,
      "ttering": 9181,
      "ress": 9182,
      "frith": 9183,
      "andrey": 9184,
      "wendice": 9185,
      "bigwig": 9186,
      "ompa": 9187,
      "ivanovich": 9188,
      "canaan": 9189,
      "nevers": 9190,
      "harriet": 9191,
      "cindy": 9192,
      "babylon": 9193,
      "grande": 9194,
      "ballon": 9195,
      "congo": 9196,
      "pherson": 9197,
      "kikuko": 9198,
      "zenite": 9199,
      "yamura": 9200,
      "katthult": 9201,
      "fitzpatrick": 9202,
      "toshio": 9203,
      "hím": 9204,
      "wheeler": 9205,
      "chuncho": 9206,
      "kesakichi": 9207,
      "zhenya": 9208,
      "toyoji": 9209,
      "rostov": 9210,
      "savoy": 9211,
      "inugami": 9212,
      "small": 9213,
      "rosita": 9214,
      "shirley": 9215,
      "klaus": 9216,
      "rameses": 9217,
      "sulleiman": 9218,
      "preysing": 9219,
      "plissken": 9220,
      "pickering": 9221,
      "05": 9222,
      "91": 9223,
      "apri": 9224,
      "bớ": 9225,
      "bby": 9226,
      "blon": 9227,
      "cựa": 9228,
      "celli": 9229,
      "dare": 9230,
      "flynn": 9231,
      "glad": 9232,
      "hl": 9233,
      "hă": 9234,
      "hóc": 9235,
      "iại": 9236,
      "kè": 9237,
      "lö": 9238,
      "lị": 9239,
      "lõng": 9240,
      "miến": 9241,
      "mòi": 9242,
      "obi": 9243,
      "rạn": 9244,
      "rty": 9245,
      "tủy": 9246,
      "yết": 9247,
      "äëÿ": 9248,
      "đổng": 9249,
      "̣u": 9250,
      "chét": 9251,
      "chemo": 9252,
      "thục": 9253,
      "thềm": 9254,
      "khướt": 9255,
      "phỉnh": 9256,
      "tano": 9257,
      "đứng": 9258,
      "sany": 9259,
      "inda": 9260,
      "ining": 9261,
      "hoạ": 9262,
      "aure": 9263,
      "ượng": 9264,
      "lund": 9265,
      "riley": 9266,
      "ribble": 9267,
      "elder": 9268,
      "bug": 9269,
      "challe": 9270,
      "latimer": 9271,
      "café": 9272,
      "chita": 9273,
      "malay": 9274,
      "thuô": 9275,
      "dies": 9276,
      "giá": 9277,
      "orsini": 9278,
      "cks": 9279,
      "ghetti": 9280,
      "ningham": 9281,
      "tholome": 9282,
      "suppo": 9283,
      "summers": 9284,
      "sit": 9285,
      "neva": 9286,
      "nock": 9287,
      "rutland": 9288,
      "pez": 9289,
      "pepe": 9290,
      "wicz": 9291,
      "piter": 9292,
      "francoi": 9293,
      "sandro": 9294,
      "dani": 9295,
      "bartholome": 9296,
      "byron": 9297,
      "zaburo": 9298,
      "perkins": 9299,
      "vova": 9300,
      "langu": 9301,
      "bone": 9302,
      "mccar": 9303,
      "venkman": 9304,
      "yumiko": 9305,
      "luisa": 9306,
      "inawa": 9307,
      "dụm": 9308,
      "brelli": 9309,
      "grady": 9310,
      "thụt": 9311,
      "denis": 9312,
      "trẻ": 9313,
      "íà́": 9314,
      "bino": 9315,
      "crom": 9316,
      "mendo": 9317,
      "truly": 9318,
      "macau": 9319,
      "holman": 9320,
      "ngốc": 9321,
      "̣åáå": 9322,
      "ăîâî": 9323,
      "êîé": 9324,
      "shinbei": 9325,
      "double": 9326,
      "̣üñÿ": 9327,
      "273": 9328,
      "philippines": 9329,
      "royce": 9330,
      "1965": 9331,
      "miep": 9332,
      "curt": 9333,
      "shimazo": 9334,
      "ushitora": 9335,
      "hửm": 9336,
      "morito": 9337,
      "bianco": 9338,
      "gambrelli": 9339,
      "ëåíü": 9340,
      "ccio": 9341,
      "fitzgerald": 9342,
      "friedrich": 9343,
      "lahore": 9344,
      "abilene": 9345,
      "thursby": 9346,
      "vasilyevna": 9347,
      "hurstwood": 9348,
      "springs": 9349,
      "messala": 9350,
      "giddens": 9351,
      "shingen": 9352,
      "tatsuya": 9353,
      "rhodes": 9354,
      "barabbas": 9355,
      "colombia": 9356,
      "guilbert": 9357,
      "osode": 9358,
      "cunningham": 9359,
      "fremont": 9360,
      "vronsky": 9361,
      "louisiana": 9362,
      "chemosh": 9363,
      "bartholomew": 9364,
      "93": 9365,
      "cti": 9366,
      "dợt": 9367,
      "fü": 9368,
      "flam": 9369,
      "gr": 9370,
      "hes": 9371,
      "hóng": 9372,
      "jed": 9373,
      "lùm": 9374,
      "mậu": 9375,
      "mca": 9376,
      "mâm": 9377,
      "mầy": 9378,
      "nung": 9379,
      "op": 9380,
      "ppen": 9381,
      "slow": 9382,
      "tẹo": 9383,
      "yus": 9384,
      "zhu": 9385,
      "̣o": 9386,
      "̣đî": 9387,
      "ди": 9388,
      "ну": 9389,
      "nhô": 9390,
      "nhăng": 9391,
      "trus": 9392,
      "tamayo": 9393,
      "sasa": 9394,
      "saba": 9395,
      "anta": 9396,
      "ais": 9397,
      "rash": 9398,
      "raoul": 9399,
      "angie": 9400,
      "inday": 9401,
      "horus": 9402,
      "hopper": 9403,
      "kimi": 9404,
      "liby": 9405,
      "tow": 9406,
      "colon": 9407,
      "rigel": 9408,
      "buil": 9409,
      "cadi": 9410,
      "cady": 9411,
      "cast": 9412,
      "cabren": 9413,
      "robie": 9414,
      "roses": 9415,
      "romero": 9416,
      "tuần": 9417,
      "might": 9418,
      "miền": 9419,
      "daan": 9420,
      "reg": 9421,
      "alyo": 9422,
      "ghẻ": 9423,
      "dự": 9424,
      "tev": 9425,
      "hạ": 9426,
      "ters": 9427,
      "boom": 9428,
      "bowers": 9429,
      "decker": 9430,
      "soa": 9431,
      "ryker": 9432,
      "đôla": 9433,
      "huck": 9434,
      "duẩn": 9435,
      "dùng": 9436,
      "waka": 9437,
      "carra": 9438,
      "linnet": 9439,
      "mở": 9440,
      "okinawa": 9441,
      "dante": 9442,
      "jupiter": 9443,
      "sayo": 9444,
      "hendri": 9445,
      "henderson": 9446,
      "uhamy": 9447,
      "đàñ": 9448,
      "gari": 9449,
      "brack": 9450,
      "bello": 9451,
      "tchen": 9452,
      "lars": 9453,
      "hammer": 9454,
      "kind": 9455,
      "vina": 9456,
      "vinici": 9457,
      "camp": 9458,
      "yuz": 9459,
      "shoji": 9460,
      "sieg": 9461,
      "pink": 9462,
      "torrance": 9463,
      "arex": 9464,
      "keni": 9465,
      "umberto": 9466,
      "zuco": 9467,
      "zuko": 9468,
      "kovsky": 9469,
      "croft": 9470,
      "yourself": 9471,
      "vợ": 9472,
      "alexandre": 9473,
      "lorna": 9474,
      "cassim": 9475,
      "martins": 9476,
      "proko": 9477,
      "̣åáÿ": 9478,
      "phoe": 9479,
      "doux": 9480,
      "born": 9481,
      "remember": 9482,
      "blues": 9483,
      "palermo": 9484,
      "finney": 9485,
      "horse": 9486,
      "bess": 9487,
      "silva": 9488,
      "drew": 9489,
      "anything": 9490,
      "guez": 9491,
      "cuối": 9492,
      "michiyo": 9493,
      "pizzuco": 9494,
      "masters": 9495,
      "engel": 9496,
      "nikolay": 9497,
      "marseille": 9498,
      "appuhamy": 9499,
      "yowsah": 9500,
      "drusilla": 9501,
      "dolores": 9502,
      "heinrich": 9503,
      "whistler": 9504,
      "quatermain": 9505,
      "pushkin": 9506,
      "hoffman": 9507,
      "chinetta": 9508,
      "ơîđîøî": 9509,
      "ketcham": 9510,
      "gérard": 9511,
      "gustav": 9512,
      "zecchinetta": 9513,
      "munich": 9514,
      "francois": 9515,
      "language": 9516,
      "mendoza": 9517,
      "hendrix": 9518,
      "1m": 9519,
      "130": 9520,
      "94": 9521,
      "adon": 9522,
      "buy": 9523,
      "bận": 9524,
      "gán": 9525,
      "gré": 9526,
      "hây": 9527,
      "lẩm": 9528,
      "lợm": 9529,
      "mẩn": 9530,
      "nần": 9531,
      "nĩa": 9532,
      "rz": 9533,
      "sặc": 9534,
      "sám": 9535,
      "urie": 9536,
      "úy": 9537,
      "vảy": 9538,
      "vít": 9539,
      "vya": 9540,
      "vằn": 9541,
      "yone": 9542,
      "ễn": 9543,
      "ñïà": 9544,
      "öå": 9545,
      "đung": 9546,
      "đớp": 9547,
      "си": 9548,
      "со": 9549,
      "ст": 9550,
      "ngông": 9551,
      "ngáng": 9552,
      "chác": 9553,
      "chama": 9554,
      "thinh": 9555,
      "thán": 9556,
      "khăm": 9557,
      "trọt": 9558,
      "trưởng": 9559,
      "trĩu": 9560,
      "phai": 9561,
      "quày": 9562,
      "quint": 9563,
      "salle": 9564,
      "armando": 9565,
      "bàn": 9566,
      "enough": 9567,
      "kis": 9568,
      "kilo": 9569,
      "lopu": 9570,
      "lime": 9571,
      "lipe": 9572,
      "liana": 9573,
      "liday": 9574,
      "cod": 9575,
      "domini": 9576,
      "chàng": 9577,
      "hayashi": 9578,
      "cá": 9579,
      "rol": 9580,
      "rov": 9581,
      "roper": 9582,
      "rosch": 9583,
      "rodney": 9584,
      "ching": 9585,
      "chiyo": 9586,
      "bili": 9587,
      "biche": 9588,
      "quyết": 9589,
      "oru": 9590,
      "reb": 9591,
      "đoái": 9592,
      "marvin": 9593,
      "thie": 9594,
      "nasta": 9595,
      "kẻ": 9596,
      "maitland": 9597,
      "nogi": 9598,
      "soyuz": 9599,
      "beng": 9600,
      "bever": 9601,
      "berland": 9602,
      "mante": 9603,
      "manfre": 9604,
      "pepper": 9605,
      "gawain": 9606,
      "pace": 9607,
      "joss": 9608,
      "heb": 9609,
      "jah": 9610,
      "wata": 9611,
      "harlem": 9612,
      "verine": 9613,
      "cannon": 9614,
      "shichi": 9615,
      "franko": 9616,
      "cir": 9617,
      "sancho": 9618,
      "đám": 9619,
      "barlini": 9620,
      "kuz": 9621,
      "kuma": 9622,
      "germaine": 9623,
      "perks": 9624,
      "wei": 9625,
      "dero": 9626,
      "five": 9627,
      "waldo": 9628,
      "staling": 9629,
      "garry": 9630,
      "hama": 9631,
      "cyn": 9632,
      "boun": 9633,
      "boubou": 9634,
      "jerome": 9635,
      "bobbi": 9636,
      "íàñ": 9637,
      "243": 9638,
      "cros": 9639,
      "ïîñ": 9640,
      "josef": 9641,
      "gaius": 9642,
      "frey": 9643,
      "âàøå": 9644,
      "pygar": 9645,
      "craster": 9646,
      "sôcôla": 9647,
      "daisy": 9648,
      "brubaker": 9649,
      "josephine": 9650,
      "eileen": 9651,
      "claudin": 9652,
      "channing": 9653,
      "dins": 9654,
      "khách": 9655,
      "âạ̊": 9656,
      "dric": 9657,
      "patricia": 9658,
      "brenner": 9659,
      "shelly": 9660,
      "augustus": 9661,
      "korby": 9662,
      "phantom": 9663,
      "ishido": 9664,
      "sloper": 9665,
      "peabody": 9666,
      "weather": 9667,
      "cochrane": 9668,
      "metropolis": 9669,
      "caldwell": 9670,
      "spychow": 9671,
      "frutti": 9672,
      "saavik": 9673,
      "alaska": 9674,
      "buttons": 9675,
      "believe": 9676,
      "ơåëåí": 9677,
      "hilary": 9678,
      "ăîâîđè": 9679,
      "roschmann": 9680,
      "manfredi": 9681,
      "96": 9682,
      "ato": 9683,
      "aha": 9684,
      "crick": 9685,
      "dề": 9686,
      "dầm": 9687,
      "dẫn": 9688,
      "gù": 9689,
      "hủi": 9690,
      "hrer": 9691,
      "ick": 9692,
      "inga": 9693,
      "isis": 9694,
      "kd": 9695,
      "kau": 9696,
      "kẽm": 9697,
      "klein": 9698,
      "lặt": 9699,
      "lẫm": 9700,
      "rộ": 9701,
      "rứt": 9702,
      "sảo": 9703,
      "sville": 9704,
      "sgarth": 9705,
      "skaya": 9706,
      "sword": 9707,
      "tằm": 9708,
      "tkin": 9709,
      "twin": 9710,
      "uỷ": 9711,
      "ugh": 9712,
      "uno": 9713,
      "vờn": 9714,
      "vênh": 9715,
      "åù": 9716,
      "çäå": 9717,
      "ïđà": 9718,
      "đay": 9719,
      "đét": 9720,
      "̃nh": 9721,
      "бо": 9722,
      "бу": 9723,
      "ый": 9724,
      "ỳnh": 9725,
      "ngách": 9726,
      "trini": 9727,
      "trish": 9728,
      "tahiti": 9729,
      "gior": 9730,
      "gisaburo": 9731,
      "quạo": 9732,
      "same": 9733,
      "anastasia": 9734,
      "ailen": 9735,
      "contin": 9736,
      "aysgarth": 9737,
      "titti": 9738,
      "nhill": 9739,
      "arnhem": 9740,
      "hour": 9741,
      "bath": 9742,
      "baloo": 9743,
      "kiri": 9744,
      "hãn": 9745,
      "lit": 9746,
      "liêm": 9747,
      "toot": 9748,
      "ausch": 9749,
      "luste": 9750,
      "coff": 9751,
      "colling": 9752,
      "amura": 9753,
      "cuse": 9754,
      "ride": 9755,
      "quả": 9756,
      "chata": 9757,
      "labiche": 9758,
      "cata": 9759,
      "roland": 9760,
      "vira": 9761,
      "viền": 9762,
      "matter": 9763,
      "dimitri": 9764,
      "vũ": 9765,
      "biêt": 9766,
      "mult": 9767,
      "orin": 9768,
      "reardon": 9769,
      "algi": 9770,
      "alps": 9771,
      "alvy": 9772,
      "lydia": 9773,
      "tequi": 9774,
      "simpson": 9775,
      "near": 9776,
      "nola": 9777,
      "gogh": 9778,
      "maybe": 9779,
      "ruthers": 9780,
      "sheri": 9781,
      "hulot": 9782,
      "huỳnh": 9783,
      "maureen": 9784,
      "molo": 9785,
      "joppa": 9786,
      "pid": 9787,
      "carmine": 9788,
      "carruthers": 9789,
      "monta": 9790,
      "versai": 9791,
      "ếp": 9792,
      "ciro": 9793,
      "myan": 9794,
      "june": 9795,
      "judd": 9796,
      "1939": 9797,
      "odessa": 9798,
      "weiss": 9799,
      "derek": 9800,
      "filip": 9801,
      "mỗi": 9802,
      "mcqueen": 9803,
      "kỳ": 9804,
      "georgette": 9805,
      "merce": 9806,
      "mênh": 9807,
      "brien": 9808,
      "gena": 9809,
      "hannas": 9810,
      "burns": 9811,
      "laris": 9812,
      "vinci": 9813,
      "shorty": 9814,
      "zov": 9815,
      "jeremi": 9816,
      "corbe": 9817,
      "víc": 9818,
      "calhoun": 9819,
      "macree": 9820,
      "íîé": 9821,
      "casino": 9822,
      "clarisse": 9823,
      "ggio": 9824,
      "leoni": 9825,
      "nicky": 9826,
      "varvara": 9827,
      "jenkins": 9828,
      "shug": 9829,
      "eugene": 9830,
      "cleva": 9831,
      "tanaka": 9832,
      "lawson": 9833,
      "deman": 9834,
      "́îé": 9835,
      "giuliana": 9836,
      "salluste": 9837,
      "prewitt": 9838,
      "seibei": 9839,
      "otoku": 9840,
      "mackenna": 9841,
      "nellie": 9842,
      "bronx": 9843,
      "ayako": 9844,
      "viktor": 9845,
      "pietro": 9846,
      "bottom": 9847,
      "petrovich": 9848,
      "glazer": 9849,
      "matilda": 9850,
      "galilee": 9851,
      "suzanna": 9852,
      "cười": 9853,
      "trườn": 9854,
      "adele": 9855,
      "organia": 9856,
      "göran": 9857,
      "seryozha": 9858,
      "bônsê": 9859,
      "siberia": 9860,
      "tonight": 9861,
      "gatling": 9862,
      "sierra": 9863,
      "jail": 9864,
      "april": 9865,
      "challenger": 9866,
      "führer": 9867,
      "libya": 9868,
      "vinicius": 9869,
      "siegfried": 9870,
      "lopukhin": 9871,
      "nastasya": 9872,
      "soyuzmult": 9873,
      "stalingrad": 9874,
      "auschwitz": 9875,
      "tequila": 9876,
      "hannassey": 9877,
      "jeremiah": 9878,
      "macreedy": 9879,
      "bứt": 9880,
      "brain": 9881,
      "càu": 9882,
      "gp": 9883,
      "gờ": 9884,
      "guốc": 9885,
      "grun": 9886,
      "grow": 9887,
      "gượm": 9888,
      "hứ": 9889,
      "hell": 9890,
      "iso": 9891,
      "kri": 9892,
      "koh": 9893,
      "liệng": 9894,
      "mander": 9895,
      "och": 9896,
      "okhe": 9897,
      "pim": 9898,
      "rúc": 9899,
      "rặn": 9900,
      "rât": 9901,
      "strang": 9902,
      "teo": 9903,
      "tước": 9904,
      "tsev": 9905,
      "uran": 9906,
      "vấn": 9907,
      "xém": 9908,
      "yok": 9909,
      "zena": 9910,
      "trining": 9911,
      "phin": 9912,
      "tac": 9913,
      "tatiana": 9914,
      "emmy": 9915,
      "ngước": 9916,
      "ravan": 9917,
      "erto": 9918,
      "timo": 9919,
      "cũi": 9920,
      "baum": 9921,
      "kissi": 9922,
      "hilly": 9923,
      "lil": 9924,
      "libre": 9925,
      "lives": 9926,
      "toe": 9927,
      "toang": 9928,
      "leland": 9929,
      "lehem": 9930,
      "amo": 9931,
      "ritz": 9932,
      "chapel": 9933,
      "visa": 9934,
      "viet": 9935,
      "chil": 9936,
      "bil": 9937,
      "rev": 9938,
      "reli": 9939,
      "chuji": 9940,
      "along": 9941,
      "ghiếc": 9942,
      "marsh": 9943,
      "hashi": 9944,
      "silet": 9945,
      "sington": 9946,
      "nei": 9947,
      "nash": 9948,
      "kot": 9949,
      "poor": 9950,
      "povna": 9951,
      "kab": 9952,
      "sons": 9953,
      "rube": 9954,
      "bertho": 9955,
      "manila": 9956,
      "mose": 9957,
      "most": 9958,
      "pass": 9959,
      "jaguar": 9960,
      "lant": 9961,
      "carmel": 9962,
      "francon": 9963,
      "barb": 9964,
      "judith": 9965,
      "ffar": 9966,
      "jiminy": 9967,
      "herb": 9968,
      "trợn": 9969,
      "braun": 9970,
      "hansen": 9971,
      "fuego": 9972,
      "madeline": 9973,
      "aliosa": 9974,
      "llos": 9975,
      "zuma": 9976,
      "mino": 9977,
      "minmay": 9978,
      "kari": 9979,
      "markway": 9980,
      "zira": 9981,
      "haldeman": 9982,
      "charleston": 9983,
      "xàm": 9984,
      "breed": 9985,
      "ballou": 9986,
      "akane": 9987,
      "arius": 9988,
      "yankel": 9989,
      "farra": 9990,
      "irma": 9991,
      "bernini": 9992,
      "keechie": 9993,
      "nicolas": 9994,
      "dinah": 9995,
      "dinky": 9996,
      "clear": 9997,
      "edwards": 9998,
      "besh": 9999,
      "kraler": 10000,
      "nelly": 10001,
      "godfrey": 10002,
      "francesco": 10003,
      "francesca": 10004,
      "gruda": 10005,
      "spaghetti": 10006,
      "nicholson": 10007,
      "sorry": 10008,
      "mount": 10009,
      "dahl": 10010,
      "garage": 10011,
      "buồn": 10012,
      "munsey": 10013,
      "satoko": 10014,
      "weaver": 10015,
      "ratched": 10016,
      "templeton": 10017,
      "rodriguez": 10018,
      "mustang": 10019,
      "paola": 10020,
      "medusa": 10021,
      "wordsworth": 10022,
      "bryant": 10023,
      "mitsuo": 10024,
      "michele": 10025,
      "sighs": 10026,
      "fleury": 10027,
      "riordan": 10028,
      "filipovna": 10029,
      "building": 10030,
      "cadilla": 10031,
      "cynthia": 10032,
[...]
